{"country ": 0, "e:<eos>": 1, "a la aten": 2, "strateg": 3, "ante ": 4, "nical ": 5, "troduc": 6, "conduct ": 7, "las actividades ": 8, "Tha": 9, "misi\u00f3n ": 10, "conces": 11, " de octubre de ": 12, "contra las ": 13, "a las ": 14, "emb": 15, "amente, ": 16, "soci": 17, "os;<eos>": 18, "age of the ": 19, "ano ": 20, "formal ": 21, "aquifer ": 22, "ar y ": 23, "In": 24, "falta de ": 25, "durante el ": 26, "1": 27, "exces": 28, "segunda ": 29, "annex": 30, "as de ": 31, "manif": 32, "convic": 33, "quienes ": 34, "internacionales.<eos>": 35, "mutual ": 36, "extra": 37, "figur": 38, " de febrero de 200": 39, "Abu": 40, "desarrollo": 41, "ations.<eos>": 42, "ior ": 43, "appoint": 44, "e, ": 45, "peri": 46, "ements ": 47, "<bos>Although ": 48, "shall be ": 49, "Millennium Development ": 50, "voluntary ": 51, "organism": 52, "speak": 53, "resoluci\u00f3n.<eos>": 54, "aron a ": 55, "ir": 56, "Mexic": 57, "La": 58, "Board ": 59, "desastres ": 60, "ejecu": 61, "commit": 62, "ance of the ": 63, "calcul": 64, "ay ": 65, "that they ": 66, "sing ": 67, "medidas ": 68, "Uni\u00f3n African": 69, "edad ": 70, "Consejo ": 71, "international law ": 72, "Azerb": 73, "Nu": 74, "Arabia ": 75, "seg\u00fan ": 76, "to be ": 77, "per\u00edodo de sesiones ": 78, "programas ": 79, "que la ": 80, "Iraq, ": 81, "production ": 82, "<bos>Th": 83, "administraci\u00f3n ": 84, "Domin": 85, "Confer": 86, "accept": 87, "toward": 88, "<bos>Reafirm": 89, "<bos>Of ": 90, "<bos>S": 91, "omin": 92, "provisions ": 93, "adores de ": 94, "a ha ": 95, "did not ": 96, "al Comit\u00e9 ": 97, "firme ": 98, "hort": 99, "nacional.<eos>": 100, "carrying ": 101, "ar\u00e1n ": 102, ", on ": 103, "apply ": 104, "ad de ": 105, "os de Am\u00e9ric": 106, "management": 107, "ambi\u00e9n ": 108, "os de las Naciones Unidas ": 109, "Banglades": 110, "sent": 111, "ic and ": 112, "a con ": 113, "indu": 114, "avi": 115, "bienio ": 116, "proy": 117, "que el Comit\u00e9 ": 118, "Mod": 119, "ocol": 120, "\u00f3 en ": 121, "Children's ": 122, ".10": 123, "vote ": 124, "impun": 125, "need": 126, "sufri": 127, "structu": 128, "en.<eos>": 129, "dar ": 130, "lig": 131, "deb\u00edan ": 132, "nolog": 133, "ueg": 134, "Chief": 135, "OS": 136, "o y los ": 137, "recursos financier": 138, "end of ": 139, "record": 140, "detain": 141, "participantes ": 142, "otro ": 143, "normas ": 144, "early ": 145, "celebrada en ": 146, "poli": 147, "ado de ": 148, "est\u00e1 ": 149, "ucle": 150, "2006 ": 151, "<bos>La Comisi\u00f3n ": 152, ", a ": 153, "\u00f3 en la ": 154, "Programme of Action ": 155, "ent of ": 156, "he ": 157, "a re": 158, "have ": 159, "targe": 160, "point": 161, "tic ": 162, "unas ": 163, "join": 164, "segund": 165, "ack": 166, "server": 167, "00 ": 168, "ind": 169, "effectivenes": 170, "emale ": 171, "national and international ": 172, "revised ": 173, "nacion": 174, "United Nations.<eos>": 175, "pun": 176, "finaliz": 177, "pa\u00eds ": 178, "9.<eos>": 179, "must be ": 180, "estableci": 181, "recopil": 182, "reform ": 183, "antes de ": 184, "particular": 185, "efficienc": 186, "pend": 187, "igh": 188, "December ": 189, "tion, ": 190, "NU": 191, "entidades ": 192, "behalf ": 193, "June ": 194, "4 (": 195, "in a ": 196, "six ": 197, "DP": 198, "Comun": 199, "children's ": 200, "ir ": 201, "ministeri": 202, "rate ": 203, "was also ": 204, "years ": 205, "delegaciones ": 206, "(A/": 207, "quip": 208, "Development ": 209, "efectiv": 210, "Arbitr": 211, "arrang": 212, "<bos>Tambi\u00e9n se ": 213, "climate ": 214, "pu": 215, "icit ": 216, "/3": 217, "ases": 218, "sum": 219, "developing ": 220, "todos ": 221, "anteri": 222, "as.<eos>": 223, "Environ": 224, "as follow": 225, "ical ": 226, "nutri": 227, "som": 228, "reflect": 229, "http:/": 230, "miembros del ": 231, "occup": 232, "riesg": 233, "mente ": 234, "Centre ": 235, "oy": 236, "directamente ": 237, "H ": 238, "UNHC": 239, "an to ": 240, "amiento de la ": 241, "ations, ": 242, "15 ": 243, "2006": 244, "Bosnia y Herzegovin": 245, "desarrollo del Mileni": 246, "resourc": 247, "tod": 248, "enfrent": 249, "end": 250, "ar\u00eda ": 251, "Statu": 252, "would have ": 253, "<bos>In addition, ": 254, "ado": 255, "D": 256, "mar": 257, "obi": 258, "medical ": 259, "ejer": 260, "multi": 261, "fil": 262, "ties ": 263, "res ": 264, "Z": 265, "estructur": 266, "agend": 267, "sesi\u00f3n, ": 268, "Salv": 269, "Sum": 270, "paz y la ": 271, "servicios ": 272, "derechos de ": 273, "lucha contra la ": 274, "m\u00e1s ampli": 275, "team": 276, "o ": 277, "\u201d": 278, "del program": 279, "post-conflict ": 280, "on the ": 281, "<bos>Introduc": 282, "plenamente ": 283, "Itali": 284, "Somali": 285, "ation by the ": 286, "er, ": 287, "ence of the ": 288, "includes ": 289, "individu": 290, "categor": 291, "ado del ": 292, "med": 293, "reconcili": 294, "eigh": 295, "planific": 296, "Proces": 297, " ": 298, "discrimination ": 299, "C\u00f3": 300, "li": 301, "responsibilities ": 302, "Rep\u00fablica de ": 303, "6 ": 304, "verse ": 305, "ni\u00f1o ": 306, "an important ": 307, "Cl": 308, "buena ": 309, "econom": 310, "con un ": 311, "reaffirm": 312, "North ": 313, "san": 314, "estad\u00edstic": 315, "7": 316, "siga ": 317, "re<eos>": 318, "Carib": 319, "77": 320, "ero ": 321, "deli": 322, "reques": 323, "ernament": 324, "53": 325, "rin": 326, "give ": 327, "er": 328, "Summit ": 329, "opinion": 330, "Netherland": 331, "\u00d3": 332, "help ": 333, "ught ": 334, "\u00f3 una ": 335, "profes": 336, "Convenio ": 337, "recomend": 338, "compe": 339, "/10": 340, "54": 341, "ed in ": 342, "entes y ": 343, "a las necesidades ": 344, "ly ": 345, "adas a ": 346, "o de sus ": 347, "abiert": 348, "consist": 349, "ar con ": 350, "enfermed": 351, "os y los ": 352, "opini\u00f3n ": 353, "ordinario de sesiones ": 354, "annual ": 355, "<bos>If ": 356, "ed by a ": 357, "emprendi": 358, "fundamental ": 359, "deal with ": 360, "asp": 361, "vid": 362, "was not ": 363, "entendi": 364, "subject": 365, "ated by the ": 366, "higher ": 367, "ing that ": 368, "avanz": 369, "<bos>Secon": 370, "americ": 371, "and, in ": 372, "adopted ": 373, "boundary ": 374, "international ": 375, "ust": 376, "bec": 377, "stak": 378, "ales de ": 379, "de la Comisi\u00f3n ": 380, "as para ": 381, "third ": 382, "edom": 383, "otros ": 384, "cr": 385, "protecci\u00f3n de los ": 386, "\u2014 ": 387, "alcance ": 388, "multilater": 389, "zonas ": 390, "mul": 391, "part of the ": 392, "Ir": 393, "ert": 394, "Egyp": 395, "para las ": 396, "using ": 397, "empha": 398, "for ": 399, "Mat": 400, "puest": 401, "representantes de ": 402, "ver": 403, "ing, ": 404, "aul": 405, "r\u00e9gimen de ": 406, "trad": 407, "aban ": 408, "ray": 409, "Carta de ": 410, "xim": 411, "o de 199": 412, "States ": 413, "appli": 414, "report to the ": 415, "Relator ": 416, "fficial ": 417, "!": 418, "\u00d6": 419, "soluciones ": 420, "ar una ": 421, "bit": 422, "a un ": 423, "propuestas ": 424, "hasta ": 425, "umbre ": 426, "arreg": 427, "menist": 428, "des": 429, "blic": 430, "pi": 431, "introduci": 432, "p. ": 433, "President ": 434, "prens": 435, "urr": 436, "people, ": 437, "anism": 438, "<bos>Es ": 439, "Secretary-": 440, "reglament": 441, "andi": 442, "negative ": 443, "machin": 444, "e\u201d ": 445, "Arabia Saudit": 446, "Train": 447, "communication ": 448, "d\u00edas ": 449, "<bos>Mr. ": 450, "representative of the ": 451, "intensi": 452, "ar a ": 453, "front": 454, "web ": 455, "distin": 456, "s on the ": 457, "conclusi\u00f3n ": 458, "physic": 459, "which the ": 460, "a en su ": 461, "TIC": 462, "3 ": 463, "Special Rapporteur": 464, "regionales de ": 465, "atis": 466, "activities ": 467, "oficinas ": 468, "Cumbre ": 469, "14": 470, "incorpor": 471, "<bos>These ": 472, "use of the ": 473, "ing the ": 474, "caracter\u00edstic": 475, "is": 476, "aci\u00f3n por ": 477, "tecnolog": 478, "ender": 479, "<bos>Aun": 480, "Lab": 481, "available to ": 482, "juvenil": 483, "officers ": 484, "art": 485, "I ": 486, "2009.<eos>": 487, "ed as ": 488, "ences ": 489, "armas de destrucci\u00f3n en mas": 490, "convers": 491, "non-": 492, "social.<eos>": 493, "ed for ": 494, "yecto de ": 495, "28": 496, "th session of the ": 497, "mantenimiento de la paz ": 498, "obtain": 499, "<bos>Since ": 500, "tu": 501, "Malasi": 502, "propiedad ": 503, "P ": 504, "a (": 505, "ales en ": 506, "Pan": 507, "aver": 508, "Africa, ": 509, "principles ": 510, "undi": 511, "increas": 512, "radi": 513, "Programa de las Naciones Unidas para el ": 514, "hub": 515, "ation ": 516, "donde ": 517, "effor": 518, "cuanto ": 519, "launch": 520, "ving ": 521, "informe del Secretario General ": 522, "percent": 523, "January ": 524, "ques": 525, "debidamente ": 526, "territory ": 527, "<bos>More": 528, "ledg": 529, "Guinea-Biss": 530, "sidi": 531, "hubi": 532, "Rep\u00fablica Popular ": 533, "\u00e1m": 534, "s have ": 535, "resum": 536, "\u00f3rgan": 537, "ded": 538, "five ": 539, "al's ": 540, "<bos>[": 541, "participaci\u00f3n de ": 542, "zbekist": 543, "document": 544, "ately ": 545, "las Naciones Unidas<eos>": 546, "Organizaci\u00f3n ": 547, "olv": 548, "what ": 549, "se aplic": 550, "half of ": 551, "formul": 552, "and its ": 553, "road ": 554, "ablemente ": 555, "compli": 556, "under": 557, ".2 ": 558, "inici": 559, "purpos": 560, "system, ": 561, "threat ": 562, "\u00f3n.<eos>": 563, "IL": 564, "ed at ": 565, "Delincu": 566, "ambient": 567, "fore": 568, "fon": 569, "<bos>De": 570, "ei": 571, "comprehensive ": 572, "under ": 573, "iendo ": 574, "ilit": 575, "commod": 576, "uestr": 577, "cir": 578, "respect for ": 579, "collaboration ": 580, "man": 581, "capacitaci\u00f3n ": 582, "os que se ": 583, "az": 584, "ile the ": 585, "ed": 586, "ed to ": 587, "elecom": 588, "Organ": 589, "esp\u00edr": 590, "57": 591, "a\u00f1os ": 592, "\u201d, ": 593, "owever, the ": 594, "Iraq ": 595, "ment": 596, "<bos>In": 597, "Treat": 598, "UNICEF": 599, "papel ": 600, "vey ": 601, "CP": 602, "emerg": 603, "titul": 604, "o-": 605, "es: ": 606, "j\u00f3venes ": 607, "their own ": 608, "flic": 609, "merc": 610, "transfer": 611, "e, la ": 612, "bodi": 613, "secci\u00f3n ": 614, "ta": 615, "[": 616, "\u010c": 617, "continues to ": 618, "Elimination of ": 619, "2002-": 620, "alez": 621, "mark": 622, "; S/": 623, "4,": 624, "initiative ": 625, "ni\u00f1os, ": 626, "b": 627, "decisi\u00f3n ": 628, "Ministro de ": 629, "ir la ": 630, "adora ": 631, "frente ": 632, "fundamentales ": 633, "\u00f8": 634, "urther ": 635, "Mission ": 636, "foc": 637, "<bos>Seg": 638, "su": 639, "how to ": 640, "s\u00e9ptim": 641, "zer": 642, "settlement ": 643, "Terr": 644, "le ": 645, "arme ": 646, "a y las ": 647, "ra.<eos>": 648, "ph": 649, "forest ": 650, " de diciembre de ": 651, "recurri": 652, "Administrativ": 653, "Consej": 654, "embr": 655, "compens": 656, "cooper": 657, "sust": 658, "there is ": 659, "or to ": 660, "pol": 661, "tecnolog\u00edas ": 662, "Tur": 663, "able de ": 664, "<bos>Recogniz": 665, "estrategias ": 666, "country's ": 667, "casos ": 668, "IV": 669, "Yugoslavi": 670, "e of ": 671, "net ": 672, "Nami": 673, "continued ": 674, "over": 675, "tien": 676, "transmiti": 677, "throughout the ": 678, "way ": 679, "desea ": 680, "ach": 681, "armas ": 682, "cit": 683, "<bos>Consider": 684, "demon": 685, "ham": 686, "voluntarios internacionales de las Naciones Unidas": 687, "draft article ": 688, "recru": 689, "plan": 690, "Darfur": 691, "En ": 692, "meet ": 693, "pursuant ": 694, "empower": 695, "ente.<eos>": 696, "Ley ": 697, "y, the ": 698, "Sierra Leon": 699, "acqui": 700, "between the ": 701, "00": 702, "I\u00d3N ": 703, "Derechos Humanos ": 704, "A/C": 705, "Engl": 706, "power ": 707, "interim ": 708, "2007 ": 709, "treat": 710, "principle of ": 711, "siete ": 712, "towards ": 713, "in relation to ": 714, "disposi": 715, "cooperation ": 716, "now": 717, "aciones.<eos>": 718, "il ": 719, "con la ": 720, "pa\u00edses ": 721, "ass": 722, "Tratado ": 723, "programa de ": 724, "sustantiv": 725, "a en el ": 726, "essential ": 727, "Tortur": 728, "Israeli ": 729, "Affairs ": 730, "joint ": 731, "grant": 732, "toler": 733, "60 ": 734, "General Assembly, ": 735, "liber": 736, "todas ": 737, "adquisi": 738, "bol": 739, "sac": 740, "es una ": 741, "acord": 742, "infl": 743, "ada por la ": 744, "a fav": 745, "circul": 746, "charg": 747, "Ecuador, ": 748, "idad, ": 749, "same ": 750, "pesc": 751, "es": 752, "sector ": 753, "Djibou": 754, "ente ": 755, "alcanz": 756, "si\u00f3n ": 757, "o el ": 758, "infantil ": 759, "duplic": 760, "fav": 761, "suel": 762, "requirements ": 763, "as\u00ed com": 764, "tions.<eos>": 765, "nor": 766, "o, en ": 767, "ated in ": 768, "es, and ": 769, "Pa\u00edses Baj": 770, "a\u00f1": 771, "tes ": 772, "de conformidad con el ": 773, "\u00ed": 774, "fric": 775, "\u00edas ": 776, "uro": 777, "es the ": 778, "Guatemal": 779, "as y la ": 780, "policy ": 781, "<bos>R": 782, "involved in the ": 783, "Racial ": 784, "dependent ": 785, "her": 786, "ment of the ": 787, "considerable ": 788, "g\u00e9ner": 789, "2002 ": 790, "seek": 791, "politic": 792, "2003.<eos>": 793, "Peace ": 794, "a fam": 795, "ag\u00e9simo ": 796, "sistema de ": 797, "futur": 798, "Fond": 799, "stre": 800, "rest ": 801, "observaciones ": 802, " (2004": 803, "each ": 804, "art.<eos>": 805, "ataqu": 806, "\u00e8": 807, "esto ": 808, "fif": 809, "appreci": 810, "<bos>En su ": 811, "six": 812, "educaci\u00f3n, ": 813, "Protocolo Facultativ": 814, "marco de ": 815, "cin": 816, "years, ": 817, "Ar": 818, "cultural ": 819, "di": 820, "Guatemala, ": 821, "OPS ": 822, "\u00e1s ": 823, "table ": 824, "decre": 825, "part of ": 826, "nucle": 827, "a a los ": 828, "until ": 829, "primer": 830, "No ": 831, "monit": 832, "[A C ": 833, "<bos>At the same ": 834, "disarmament": 835, "apropi": 836, "decided to ": 837, "neg": 838, "ultur": 839, "pron": 840, "poverty ": 841, "ar-": 842, "/9": 843, "os en ": 844, "si\u00f3n, ": 845, "sugg": 846, "agenci": 847, "TO ": 848, "share ": 849, "consecu": 850, "inmun": 851, "ism": 852, "M ": 853, "als and ": 854, "arios de ": 855, "secretariat ": 856, "Chairm": 857, "sociedad ": 858, "2001 ": 859, "Desarroll": 860, "discus": 861, "Ejecutiv": 862, "day ": 863, "calend": 864, "relation": 865, "del Tribunal ": 866, "concerning the ": 867, "ment of ": 868, "not": 869, "such as ": 870, "emisiones ": 871, "III ": 872, "Chec": 873, "ese respect": 874, "ing of ": 875, "ability ": 876, "invited ": 877, "affected ": 878, "servic": 879, "(F": 880, "majority of ": 881, "versid": 882, "outer ": 883, "Oc": 884, "aving ": 885, "bri": 886, "cre": 887, "comunidad internacional ": 888, "HIV/AIDS": 889, "ear ": 890, "sid": 891, "already ": 892, "adas por ": 893, "ce ": 894, "taken by the ": 895, "electr": 896, "Litu": 897, "Declaraci\u00f3n del ": 898, "viaj": 899, "amb": 900, "establishing ": 901, "ates ": 902, "regi": 903, ") y ": 904, "responsabil": 905, "siguen ": 906, "accompani": 907, "und": 908, "38": 909, "bitr": 910, "/WP": 911, "o in": 912, "\u00f3 que la ": 913, "34": 914, "field": 915, "\u00a3": 916, "a resul": 917, "Swed": 918, "<bos>Is": 919, "i\u00f3n ": 920, "ombr": 921, "micro": 922, "aqui": 923, "book ": 924, "student": 925, "teri": 926, "large ": 927, "<bos>Fin": 928, "a y Herzegovin": 929, "famili": 930, "a-": 931, "1,": 932, "traditional ": 933, "maj": 934, "ed its ": 935, "graves ": 936, "<bos>Un ": 937, "Director Ejecutiv": 938, "otra ": 939, "Zimbab": 940, "wh": 941, "ge": 942, "f\u00e1ci": 943, "au": 944, "ampli": 945, "lo cual ": 946, "circumst": 947, "franc": 948, "ation is ": 949, "ad.<eos>": 950, "3, ": 951, "tw": 952, "Health ": 953, "Primer ": 954, "aje ": 955, "o) ": 956, "del cuadro de servicios ": 957, "90": 958, "necessary ": 959, "al.<eos>": 960, "noted that ": 961, "<bos>However, the ": 962, "local ": 963, "particular el ": 964, "Kosov": 965, "ographic ": 966, "de su ": 967, "viron": 968, "hay": 969, "publ": 970, "ta\u00f1": 971, "bajo ": 972, "solicitud": 973, "apar": 974, "abil": 975, "oler": 976, "staff ": 977, "world": 978, "To ": 979, "proxim": 980, "<bos>Tras ": 981, "entre el ": 982, "conveni": 983, "which is ": 984, "duty ": 985, "2 (": 986, "children and ": 987, ") (": 988, "Ro": 989, "CEDAW": 990, "ardi": 991, "plat": 992, "ef": 993, "various ": 994, "agreed ": 995, "don": 996, "entre ": 997, "Se ": 998, "eficaz": 999, "may be ": 1000, "pedi": 1001, "Prin": 1002, ", to ": 1003, "proyec": 1004, "nuclear ": 1005, "destinadas a ": 1006, "26": 1007, "trafficking ": 1008, "on ": 1009, "\u00b5": 1010, "auditor": 1011, "E": 1012, "iones ": 1013, "countr": 1014, "ourc": 1015, "y en la ": 1016, "ency ": 1017, "benef": 1018, "alk": 1019, "plan of ": 1020, "Offic": 1021, "al que ": 1022, "aimed at ": 1023, "seek ": 1024, "strengthen": 1025, "17 ": 1026, "disponi": 1027, "el Comit\u00e9 ": 1028, "actual ": 1029, "2001": 1030, "organization ": 1031, "(v\u00e9ase ": 1032, "accompl": 1033, ".8": 1034, "conocimient": 1035, "detenci": 1036, "tranjer": 1037, "differ": 1038, "A/": 1039, ".0": 1040, "eve ": 1041, "ader": 1042, "raq": 1043, "transfer of ": 1044, "\u00fal": 1045, "los pa\u00edses ": 1046, "<bos>\u201c": 1047, "Croati": 1048, "tras": 1049, ")": 1050, "Office of ": 1051, "General Assembly resolution ": 1052, "individual": 1053, "Las ": 1054, "social ": 1055, "discussion ": 1056, "<bos>(a) ": 1057, "del mund": 1058, "comprehen": 1059, "PNUD ": 1060, "Commission ": 1061, "Economic and Social ": 1062, "sector": 1063, "particul": 1064, "Per\u00fa": 1065, "cap": 1066, "s, which ": 1067, "parci": 1068, "\u00e1n ": 1069, "8<eos>": 1070, "200": 1071, "development of ": 1072, "pronunci": 1073, "wish to ": 1074, "mission": 1075, "ide": 1076, "ogr\u00e1fic": 1077, "Mu": 1078, "Estados Mi": 1079, "iti": 1080, "Civil ": 1081, "en sus ": 1082, "A/CN.9/WG.": 1083, "ratifi": 1084, "it ": 1085, "\u00c1rabe ": 1086, "<bos>Por ejempl": 1087, "level.<eos>": 1088, "progress ": 1089, "tratamiento ": 1090, "Kore": 1091, "appeal ": 1092, "<bos>Agenda item ": 1093, "forma de ": 1094, "Rep\u00fablica Democr\u00e1tica del ": 1095, "libre ": 1096, "-": 1097, "demuestr": 1098, "per": 1099, "Roj": 1100, "spectiv": 1101, "text": 1102, "que son ": 1103, "subparagraph ": 1104, "mayor\u00eda de los ": 1105, "interven": 1106, "UNIFEM": 1107, "Sr. ": 1108, "\u00e9ner": 1109, "en, ": 1110, "issu": 1111, "<bos>Adem": 1112, "ach ": 1113, "scop": 1114, "men and ": 1115, "East": 1116, "a otros ": 1117, "Gran": 1118, "global ": 1119, "Non-": 1120, "justic": 1121, "internal ": 1122, "http://": 1123, "que ": 1124, "estion": 1125, "ley ": 1126, "adas para ": 1127, "t (": 1128, "promover el ": 1129, "am": 1130, "tion on ": 1131, "could ": 1132, "electr\u00f3nic": 1133, "de la Convenci\u00f3n, ": 1134, "hold": 1135, "adas, ": 1136, "tici": 1137, "mass ": 1138, "ado a la ": 1139, "top": 1140, "cuat": 1141, "vari": 1142, "compani": 1143, "/15": 1144, "\u00f3 la ": 1145, "pol\u00edticas ": 1146, "C\u00f4te d'Ivoi": 1147, "y, en ": 1148, "<bos>For ": 1149, "como se ": 1150, "base ": 1151, "magistr": 1152, "allow": 1153, "proyecto de ": 1154, "<bos>(f) ": 1155, "enforc": 1156, "Mileni": 1157, "con otros ": 1158, "Jan": 1159, "Chile, ": 1160, "gubernament": 1161, "Sede ": 1162, "actions ": 1163, "negoti": 1164, "private ": 1165, "brind": 1166, "detenidos ": 1167, "acter": 1168, "<bos>Further": 1169, "2003 ": 1170, "sive ": 1171, "cualquier ": 1172, "interpret": 1173, "intend": 1174, "based on ": 1175, "pr\u00e1cticas ": 1176, "mejorar la ": 1177, "exic": 1178, "on, ": 1179, "sulares ": 1180, "ubic": 1181, "s that ": 1182, "sion ": 1183, "ard": 1184, "reduci": 1185, "thern ": 1186, "Part ": 1187, "esti": 1188, "evit": 1189, "preocup": 1190, "bud": 1191, "believ": 1192, "esenci": 1193, "ados ": 1194, "present ": 1195, "12 ": 1196, "N\u00ba ": 1197, "194": 1198, "<bos>International ": 1199, ": (": 1200, "proposal ": 1201, "first ": 1202, "\u00f3 ": 1203, "themselv": 1204, "end of the ": 1205, "menos adelant": 1206, "s, including ": 1207, "detail": 1208, "cuent": 1209, "respec": 1210, "haya ": 1211, "prohib": 1212, "Democratic Republic of the ": 1213, "state ": 1214, "Relaciones Exteri": 1215, "Iraq": 1216, "a tambi\u00e9n ": 1217, "3 (": 1218, "paid ": 1219, "fij": 1220, ",0": 1221, "e's ": 1222, "deb\u00eda ": 1223, "ario.<eos>": 1224, "(see ": 1225, "instru": 1226, "universal ": 1227, "mani": 1228, "prev": 1229, "conden": 1230, "punto de ": 1231, "pil": 1232, "Committee on the ": 1233, "etr": 1234, "was the ": 1235, "a.<eos>": 1236, "transporte ": 1237, "<bos>See ": 1238, "Representative ": 1239, "effectiveness of ": 1240, "antes.<eos>": 1241, "main ": 1242, "correc": 1243, "ar la ": 1244, "documents ": 1245, "regre": 1246, "ur": 1247, "virtud ": 1248, "among the ": 1249, "\u00fc": 1250, "support ": 1251, "host ": 1252, "paz": 1253, "de que ": 1254, "per\u00edodo extra": 1255, "ford": 1256, "Special ": 1257, "idad": 1258, "aun": 1259, "ster ": 1260, "suffici": 1261, "ave ": 1262, "\u20ac": 1263, "s the ": 1264, "Part": 1265, "accep": 1266, "documentos ": 1267, "velar ": 1268, "process, ": 1269, "ers.<eos>": 1270, "gh": 1271, "ros.<eos>": 1272, "sic": 1273, "aci\u00f3n y el ": 1274, "tual ": 1275, "137": 1276, "incompatible ": 1277, "asign": 1278, "A.<eos>": 1279, "\u00e9gim": 1280, "prepar": 1281, "non-governmental ": 1282, "Colombia, ": 1283, "ar esos ": 1284, "<bos>M": 1285, "opul": 1286, "HIV/AID": 1287, "Affair": 1288, "estado de ": 1289, "trateg": 1290, "ya ": 1291, "C ": 1292, "prin": 1293, "conclusiones ": 1294, "acred": 1295, "ing ": 1296, "bieni": 1297, "undary ": 1298, "thus ": 1299, "progress made ": 1300, "lo": 1301, "Canad": 1302, "ejerci": 1303, "urity ": 1304, "potenti": 1305, "demostr": 1306, "w ": 1307, "til": 1308, "\u00e9x": 1309, "Comm": 1310, "vir": 1311, "forma ": 1312, "strengthen the ": 1313, "ner ": 1314, "form ": 1315, "n\u00fa": 1316, "ed the ": 1317, "co ": 1318, "presunt": 1319, "unto ": 1320, "45": 1321, "Territori": 1322, "ease ": 1323, "his ": 1324, "asisti": 1325, "13 ": 1326, "time.<eos>": 1327, "technology ": 1328, "a result": 1329, "dea": 1330, "welcomes the ": 1331, "consen": 1332, "encontr": 1333, "sensibil": 1334, "no prolifer": 1335, "Jerus": 1336, "aprovech": 1337, "problemas ": 1338, "commend": 1339, "capacidad de ": 1340, "aci\u00f3n, la ": 1341, "Asoci": 1342, "deposi": 1343, "amente ": 1344, "ay": 1345, "carr": 1346, "es that the ": 1347, "relaci\u00f3n con el ": 1348, "Portug": 1349, "aplic": 1350, "eng": 1351, "vision": 1352, "elaboraci\u00f3n de ": 1353, "7-": 1354, "ambas ": 1355, " and the ": 1356, "desplazados intern": 1357, "<bos>In this ": 1358, "Office of the ": 1359, "ful": 1360, "lo que ": 1361, "adici": 1362, "ted the ": 1363, "Estado parte ": 1364, "adv": 1365, "Seneg": 1366, "re.<eos>": 1367, "assistance to ": 1368, "verific": 1369, "inver": 1370, "nos ": 1371, "hog": 1372, "siguientes:<eos>": 1373, "note of the ": 1374, "povert": 1375, "opportunities ": 1376, "la": 1377, "9 (": 1378, "th-": 1379, "provisional agend": 1380, "patri": 1381, "maner": 1382, "deliberaciones ": 1383, "anist": 1384, "\u00e9ptim": 1385, "MINU": 1386, "ente y ": 1387, "<bos>Sum": 1388, "tot": 1389, "uary ": 1390, "ente de ": 1391, "on the implementation of the ": 1392, "Security Council resolution ": 1393, "Mal": 1394, "s upon ": 1395, "contra ": 1396, "dispuesto ": 1397, "es to ": 1398, "technologi": 1399, "9<eos>": 1400, "security and ": 1401, "relativas a la ": 1402, "pli": 1403, "o de las Naciones Unidas para la ": 1404, "Dar": 1405, "estatu": 1406, "\u00edgen": 1407, "acu": 1408, "Space ": 1409, "efore, ": 1410, "enfer": 1411, "many ": 1412, "cr\u00edmen": 1413, "64": 1414, "contribute to the ": 1415, "East ": 1416, "S": 1417, "economy ": 1418, "permite ": 1419, "connec": 1420, "representante de ": 1421, "\u00fb": 1422, "las de ": 1423, "os m\u00e1s ": 1424, "entre": 1425, "integridad ": 1426, "f) ": 1427, "ect": 1428, "se han ": 1429, "tom\u00f3 not": 1430, "Nigeria, ": 1431, "mur": 1432, "cuesti\u00f3n de ": 1433, "expl": 1434, "sor": 1435, "fying ": 1436, "commun": 1437, "probl": 1438, "en cuent": 1439, "exis": 1440, "nuestro ": 1441, "ros, ": 1442, "acion": 1443, "20 ": 1444, "siones ": 1445, "urban": 1446, "Secretario General que ": 1447, "deber": 1448, "si ": 1449, "international human rights ": 1450, "chap": 1451, "ete ": 1452, "ER": 1453, "training ": 1454, "Tra": 1455, "nium ": 1456, "credi": 1457, "ed to be ": 1458, "border ": 1459, "Centro": 1460, "dej": 1461, "dirig": 1462, "mantenimiento de la paz": 1463, "cualqui": 1464, "<bos>A ": 1465, "a, el ": 1466, "address ": 1467, "Reino Unid": 1468, "Uzbekist": 1469, "\u00fanic": 1470, "principios ": 1471, "eti": 1472, "<bos>Su ": 1473, "measures ": 1474, "Poli": 1475, "sospech": 1476, "que se refiere ": 1477, "ate and ": 1478, "en cuanto ": 1479, "relacionados con la ": 1480, "negoci": 1481, "tions ": 1482, "Erit": 1483, "<bos>St": 1484, "ez": 1485, "other ": 1486, "counter": 1487, "procur": 1488, "promote ": 1489, "acced": 1490, "ministerial ": 1491, "but also ": 1492, "Mundial ": 1493, "sistem": 1494, "conflic": 1495, "meet the ": 1496, "estrategia ": 1497, "<bos>Este ": 1498, "session": 1499, "\u2026 ": 1500, "adoptadas ": 1501, "ebuilding ": 1502, "facilit": 1503, "Protocol ": 1504, "Kingdom": 1505, "s. ": 1506, "enhance the ": 1507, "<bos>Paragrap": 1508, "pilo": 1509, "fi": 1510, ", B": 1511, "Eth": 1512, "last ": 1513, "<bos>Si": 1514, "\u201d<eos>": 1515, "<bos>On ": 1516, "ard ": 1517, "partner": 1518, "60/2": 1519, "mechanism ": 1520, "Nep": 1521, "numb": 1522, "\u00e1fic": 1523, "idamente ": 1524, "relev": 1525, "work.<eos>": 1526, "provech": 1527, "Human Right": 1528, "Conference of the Parties ": 1529, "centr": 1530, "se re": 1531, "Qu": 1532, "exten": 1533, "Zambi": 1534, "jec": 1535, "Estados Unidos ": 1536, "infraestructur": 1537, "<bos>Deci": 1538, "Reino ": 1539, "www.un": 1540, "Uni\u00f3n Europe": 1541, "guarante": 1542, "ser\u00e1n ": 1543, "mayor": 1544, "partici": 1545, "directly ": 1546, "XX": 1547, "\u00e1r": 1548, "sug": 1549, "mind ": 1550, "introduc": 1551, "persona ": 1552, "fourth ": 1553, "negociaciones ": 1554, "T ": 1555, "non-governmental organizations ": 1556, "Minister of ": 1557, "os. ": 1558, "Dominic": 1559, "Ser": 1560, "fron": 1561, "Alto ": 1562, "nuclear weapon": 1563, "plena ": 1564, "Conference on ": 1565, "star": 1566, "derechos humanos.<eos>": 1567, "have not ": 1568, "inscri": 1569, "well ": 1570, "aron en ": 1571, "erta ": 1572, "people of ": 1573, "hech": 1574, "Mujer ": 1575, "cause ": 1576, "Subcommitte": 1577, "Jamaic": 1578, "does not ": 1579, "ajust": 1580, "ally ": 1581, "involv": 1582, "ancing ": 1583, "as;<eos>": 1584, "and<eos>": 1585, "one of the ": 1586, "assi": 1587, "training and ": 1588, "Princip": 1589, "amoun": 1590, "Cooper": 1591, "administr": 1592, "ts the ": 1593, "ez ": 1594, "durante ": 1595, "interes": 1596, "os y la ": 1597, "provisions of the ": 1598, "ances ": 1599, "of the United Nations ": 1600, "ern": 1601, "Council ": 1602, "hiri": 1603, "fin ": 1604, "ante el ": 1605, "1990": 1606, "the right to ": 1607, "decision ": 1608, "arse en ": 1609, "UNDP ": 1610, "Bei": 1611, "DC": 1612, "in its ": 1613, "2000-": 1614, "tug": 1615, "y su ": 1616, "Elimin": 1617, "hel": 1618, "medio de ": 1619, "costs ": 1620, "eficaci": 1621, "competencia ": 1622, "environmental ": 1623, "lib": 1624, "right of ": 1625, "<bos>Furthermo": 1626, "gand": 1627, "United Nation": 1628, "2-": 1629, "aci\u00f3n o ": 1630, "mi ": 1631, "estudi": 1632, "t in ": 1633, "ban ": 1634, "\u00edtim": 1635, "establecimient": 1636, "vimient": 1637, "conclusion": 1638, "reuni\u00f3n ": 1639, "separ": 1640, "tud": 1641, "qu\u00e9 ": 1642, "part": 1643, "requested the ": 1644, "although ": 1645, "2002": 1646, "ci\u00f3n de las ": 1647, "e-": 1648, "cart": 1649, "conversaciones ": 1650, "ud": 1651, "idad ": 1652, "ar ": 1653, "ethnic": 1654, "se bas": 1655, "Em": 1656, "draft resolu": 1657, "economic ": 1658, "n ": 1659, "pared ": 1660, "alternative ": 1661, "Ethi": 1662, "Ni\u00f1": 1663, "on its ": 1664, "as en el ": 1665, "Indonesi": 1666, "perpetrat": 1667, "lider": 1668, ",": 1669, "rati": 1670, "ock": 1671, "actu": 1672, "<bos>The report ": 1673, "c ": 1674, "intercambio de ": 1675, "Covenant ": 1676, "Sustain": 1677, " de j": 1678, "mac": 1679, "ON": 1680, "Assembly ": 1681, "Estados Miembr": 1682, "\u00edn": 1683, "Children": 1684, "Region": 1685, "casos de ": 1686, "Ger": 1687, "judicial ": 1688, "pero ": 1689, "instrumento ": 1690, "implic": 1691, "land": 1692, "3,": 1693, "cred": 1694, "Chin": 1695, "pan": 1696, "recog": 1697, "ient": 1698, "Justic": 1699, "potential ": 1700, "por las ": 1701, "quer": 1702, "amendment ": 1703, "hincapi\u00e9 ": 1704, "reach": 1705, "Special Representative ": 1706, "step": 1707, "mient": 1708, "traffic": 1709, "garantiz": 1710, "armas de destruc": 1711, "flexi": 1712, "rece ": 1713, "often ": 1714, "pena de ": 1715, "y los ": 1716, "Sri L": 1717, "una mayor ": 1718, "elimination of ": 1719, "Conven": 1720, "Nueva Zelandi": 1721, "24": 1722, "sino ": 1723, "acto ": 1724, "<bos>(g) ": 1725, "acquisi": 1726, "meeting of the ": 1727, "where ": 1728, "2008.<eos>": 1729, "re ": 1730, "iente ": 1731, "Secretariat": 1732, "tion to the ": 1733, "Comisi": 1734, "priorities ": 1735, "acad": 1736, "procedimient": 1737, "for the biennium ": 1738, "\u00e1n, ": 1739, "Comisi\u00f3n ": 1740, "second ": 1741, "gl": 1742, "ts of the ": 1743, "Canad\u00e1, ": 1744, "para la ": 1745, "t\u00edculo ": 1746, "3": 1747, "Program": 1748, "solicitud ": 1749, "cor": 1750, "r el ": 1751, "ju": 1752, "continued to ": 1753, "Jap\u00f3n ": 1754, "menos ": 1755, "Economic and Social Council ": 1756, "comunidades ": 1757, "Northern ": 1758, "ood ": 1759, "per\u00edodos de ": 1760, "ca": 1761, ", including ": 1762, "muy ": 1763, "Mundi": 1764, "io ": 1765, "ender ": 1766, "semin": 1767, "sede ": 1768, "e\u00f1": 1769, "addressed to the ": 1770, "aspect": 1771, "concep": 1772, "high": 1773, "glob": 1774, "belief": 1775, "p\u00e9rdid": 1776, "adjust": 1777, "embols": 1778, "emple": 1779, "desechos ": 1780, "activities and ": 1781, "Anti": 1782, "IC": 1783, "ak": 1784, "conj": 1785, "exig": 1786, "cometi": 1787, "ult": 1788, "Europ": 1789, "ited ": 1790, "fomento de la ": 1791, "ating the ": 1792, "\u00b0": 1793, "mas": 1794, "docu": 1795, "He": 1796, "th, ": 1797, "Emir": 1798, "internation": 1799, "permit": 1800, "7.<eos>": 1801, "<bos>En cuanto ": 1802, "polic": 1803, "OF ": 1804, "ted ": 1805, "ak ": 1806, "Agenda ": 1807, "dec": 1808, "prov": 1809, "matter ": 1810, "sector priv": 1811, "ait ": 1812, "ted to ": 1813, "Servici": 1814, "exi": 1815, "temporary ": 1816, "ed ": 1817, "event ": 1818, "Est": 1819, "ug": 1820, "ed for the ": 1821, "que, en ": 1822, "provid": 1823, "ulg": 1824, "superi": 1825, "Refuge": 1826, "with regard to the ": 1827, "Equ": 1828, "analiz": 1829, "explosiv": 1830, "m\u00e9": 1831, "a los pa\u00edses ": 1832, "mismo ": 1833, "ut": 1834, "err": 1835, "plaz": 1836, "?<eos>": 1837, "sustanci": 1838, "respect to the ": 1839, "ido ": 1840, "youn": 1841, "o y el ": 1842, "committed ": 1843, "enz": 1844, "y, ": 1845, "Code ": 1846, "id ": 1847, "subject to ": 1848, "Es": 1849, "atr": 1850, "2002, ": 1851, "reducir ": 1852, "targ": 1853, "pendi": 1854, "minist": 1855, "means of ": 1856, "oblig": 1857, "comple": 1858, "VIH/SID": 1859, "); ": 1860, "pol\u00edtic": 1861, "migrant ": 1862, "nacional de ": 1863, "habla en ingl\u00e9s): ": 1864, "47": 1865, "ar el ": 1866, "NEPA": 1867, "larg": 1868, "would be ": 1869, "agentes ": 1870, "viviend": 1871, "g) ": 1872, "equip": 1873, "stanci": 1874, "mean": 1875, "continue ": 1876, "infec": 1877, "made by ": 1878, "pin": 1879, "nation": 1880, "segur": 1881, "moviliz": 1882, "Countri": 1883, "<bos>In that ": 1884, "las Naciones Unidas en ": 1885, "priority ": 1886, "tem": 1887, "aci\u00f3n": 1888, "opportunity to ": 1889, "sobre cuestiones ": 1890, "organizaciones no gubernamentales ": 1891, "aclar": 1892, "ci\u00f3n ": 1893, "s).<eos>": 1894, "fortal": 1895, "especial ": 1896, "bos": 1897, "2) ": 1898, "Nam": 1899, "military ": 1900, "ength": 1901, "United States ": 1902, ".org/": 1903, "NP": 1904, "region": 1905, "18, ": 1906, "eeting ": 1907, "es were ": 1908, "pregn": 1909, "y for ": 1910, "Prepar": 1911, "solicit": 1912, "take ": 1913, "/16": 1914, "Mantenimiento de la ": 1915, "2000": 1916, "right ": 1917, "Transi": 1918, "couns": 1919, "que figur": 1920, "sin": 1921, "arios, ": 1922, "gir": 1923, "incl": 1924, "WG.": 1925, "Grupo de ": 1926, "desarrollo de la ": 1927, "o de su ": 1928, "UNICEF ": 1929, "ussi": 1930, "wi": 1931, "Norueg": 1932, "p\u00e1g": 1933, "inde": 1934, "objectiv": 1935, "audi": 1936, "sobre sus ": 1937, "AT": 1938, "a reci": 1939, "New York": 1940, "tonom": 1941, "enti": 1942, "critical ": 1943, "cient": 1944, "consum": 1945, "90 ": 1946, "da\u00f1os ": 1947, "abo": 1948, "muchas ": 1949, "\u00e9n": 1950, "visit": 1951, ".1 ": 1952, "ha sido ": 1953, "Children ": 1954, "ans": 1955, "mejor ": 1956, "diciembre de ": 1957, "man ": 1958, "cinco ": 1959, "<bos>Since the ": 1960, "continued": 1961, ", as well as ": 1962, "tiene ": 1963, "\u00e9r": 1964, "ticul": 1965, "ces": 1966, "ol ": 1967, "qui": 1968, "internacional.<eos>": 1969, "hincap": 1970, "<bos>f) ": 1971, "elabor": 1972, "September ": 1973, "30 ": 1974, "PNUD": 1975, "<bos>No ": 1976, "crimes ": 1977, "for the period from 1 ": 1978, "empr": 1979, "gobi": 1980, "isl": 1981, "cord": 1982, "marco ": 1983, "pat": 1984, "ur ": 1985, "get": 1986, "<bos>Expres": 1987, "ine ": 1988, "forc": 1989, "even ": 1990, "aqu": 1991, "motiv": 1992, "the ": 1993, "hab\u00edan ": 1994, "post": 1995, "concret": 1996, "circum": 1997, "transport": 1998, "66": 1999, "tribunal ": 2000, "authori": 2001, ", in ": 2002, "IA": 2003, "Government": 2004, "4<eos>": 2005, "ment.<eos>": 2006, "peri\u00f3dic": 2007, "as y el ": 2008, "country, ": 2009, "\u00f3r": 2010, "ment to ": 2011, "B\u00e9lgic": 2012, "ed out ": 2013, "possible ": 2014, "posici\u00f3n ": 2015, "recon": 2016, "beli": 2017, "programmes and ": 2018, "ada de la ": 2019, "ense\u00f1": 2020, "activamente ": 2021, "m\u00e1s ": 2022, "y": 2023, "Centro ": 2024, "awar": 2025, "profund": 2026, "en lo ": 2027, "transpar": 2028, "nombr": 2029, "ts in ": 2030, "institucion": 2031, "\u00f1": 2032, "than ": 2033, "ado al ": 2034, "Johannes": 2035, "inform": 2036, "Wel": 2037, "continue to ": 2038, "Jama": 2039, "emente, ": 2040, "objec": 2041, "legislation ": 2042, "remain ": 2043, "a no ": 2044, "In ": 2045, "<bos>Ms. ": 2046, "transi": 2047, "estig": 2048, "o,<eos>": 2049, "jer": 2050, "family ": 2051, "hecho ": 2052, "acceso al ": 2053, "hab\u00eda ": 2054, "con respecto ": 2055, "framework ": 2056, "matter": 2057, "Commission on ": 2058, "informaci\u00f3n ": 2059, "pueblo ": 2060, "es or ": 2061, "going ": 2062, "int ": 2063, "him ": 2064, "tle ": 2065, "A/57": 2066, "Produc": 2067, "has not ": 2068, "detailed ": 2069, "en el contexto del ": 2070, "Str": 2071, "as well as ": 2072, "prof": 2073, "o).<eos>": 2074, "ri": 2075, "vehic": 2076, "smo ": 2077, "comment": 2078, "ek": 2079, "encia.<eos>": 2080, "attack": 2081, ".5/": 2082, "igualdad entre los ": 2083, "industrial ": 2084, "with regard to ": 2085, "rece": 2086, "prolifer": 2087, "financieras ": 2088, "interests of ": 2089, "believe ": 2090, "preserv": 2091, "tre": 2092, "dest": 2093, "7, ": 2094, "ting of ": 2095, "ances, ": 2096, "Declaraci\u00f3n ": 2097, "e de ": 2098, "preval": 2099, "Criminal ": 2100, "raz": 2101, "habla en ingl": 2102, "sc": 2103, "Sp": 2104, "<bos>Tom": 2105, "Convenci\u00f3n de las Naciones Unidas ": 2106, "Mor": 2107, "fiel": 2108, "post-": 2109, "includ": 2110, "an, ": 2111, "lic": 2112, "voluntarios ": 2113, "against the ": 2114, "confianz": 2115, "abus": 2116, "algunos ": 2117, "er to ": 2118, "rechaz": 2119, "tain ": 2120, "\u00e1tic": 2121, "servir": 2122, "nuevas ": 2123, "RC ": 2124, "es un ": 2125, "grupo ": 2126, "PR": 2127, "a, ": 2128, "Palestinian ": 2129, "orm": 2130, "adquarter": 2131, "baj": 2132, "Mad": 2133, "hold ": 2134, "oficios": 2135, "generally ": 2136, "spe": 2137, "in the ": 2138, "paz y la seguridad ": 2139, "rapid": 2140, "committe": 2141, "por ejemplo, ": 2142, "through": 2143, "o de las ": 2144, "medic": 2145, "Supreme ": 2146, "able ": 2147, "dese": 2148, "oz": 2149, "Instituto de ": 2150, "Rapporteur": 2151, "depart": 2152, "alient": 2153, "Kuwait": 2154, "gobiernos ": 2155, "es) ": 2156, "working ": 2157, "proteger ": 2158, "OR": 2159, "uli": 2160, "Gre": 2161, "fir": 2162, "greater ": 2163, "frame": 2164, "issue of ": 2165, "as del ": 2166, "nuevo ": 2167, "undertake ": 2168, "Supre": 2169, "provisions of ": 2170, "ack ": 2171, "progress in ": 2172, "visory ": 2173, "amientos ": 2174, "1995": 2175, "C\u00f3digo ": 2176, "valores ": 2177, "pul": 2178, "ation to the ": 2179, "elections ": 2180, "\u00e1sic": 2181, "ance of ": 2182, "obst": 2183, "coast": 2184, "we ": 2185, "ales, y ": 2186, "methodolog": 2187, "tradi": 2188, "progresos ": 2189, "set ": 2190, "crimin": 2191, "member": 2192, "psi": 2193, "50": 2194, "serie de ": 2195, "trata de person": 2196, "proyectos de ": 2197, "/Add.1": 2198, "niveles de ": 2199, "Tribunal ": 2200, "original ": 2201, "facilitar la ": 2202, "vist": 2203, "in ": 2204, "experi": 2205, "Stat": 2206, "derechos humanos y ": 2207, "reclu": 2208, "to y ": 2209, "report of the ": 2210, "estado ": 2211, "protecci\u00f3n ": 2212, "Inter": 2213, "\u00e9g": 2214, "Advisory Committee on Administrative and ": 2215, "consiguiente, ": 2216, "Technical ": 2217, "Timor ": 2218, "Maced": 2219, "needed to ": 2220, "seri": 2221, "ant": 2222, "high ": 2223, "contribuci\u00f3n ": 2224, "ende ": 2225, "Asamblea General, ": 2226, "80": 2227, "a).<eos>": 2228, "\u00aa ": 2229, "servici": 2230, "de, ": 2231, "discussion": 2232, "Moldov": 2233, "ary ": 2234, "controversi": 2235, "6": 2236, "Department of ": 2237, "representativ": 2238, "rat": 2239, "transferencia de ": 2240, "depl": 2241, "entemente ": 2242, "actos ": 2243, "invit": 2244, "ic, ": 2245, "\u00edas de ": 2246, "raci": 2247, "ocer ": 2248, "find": 2249, "made a ": 2250, "ment ": 2251, "planning ": 2252, "nec": 2253, "principles and ": 2254, "acciones ": 2255, "<bos>Sub": 2256, "Court": 2257, "32": 2258, "a la ": 2259, "<bos>Sin embargo, ": 2260, "whose ": 2261, "r": 2262, "Convenci\u00f3n, ": 2263, "trabajadores ": 2264, "ee ": 2265, "Islamic ": 2266, "head": 2267, "adas y ": 2268, "mov": 2269, "relativo a la ": 2270, "Parlament": 2271, "a\u00ed": 2272, "conflicto ": 2273, "Arab ": 2274, "id": 2275, "and the ": 2276, "acts of ": 2277, "import": 2278, "Derechos del Ni\u00f1": 2279, "ed by the ": 2280, "muer": 2281, "in rel": 2282, "\u00e9ase ": 2283, "ben": 2284, "acog": 2285, "rom ": 2286, "mism": 2287, "rather ": 2288, "acceso a ": 2289, "es on ": 2290, "see ": 2291, "improve ": 2292, "competent ": 2293, "ase ": 2294, "conced": 2295, "for the ": 2296, "San ": 2297, "Russian Feder": 2298, "wish ": 2299, "ta.<eos>": 2300, "agrad": 2301, "objetiv": 2302, "into accoun": 2303, "Univers": 2304, "it.<eos>": 2305, "relacionadas con el ": 2306, "elimin": 2307, "extrem": 2308, "es necesario ": 2309, "4.": 2310, "8.<eos>": 2311, "satisfac": 2312, "accordance with ": 2313, "Cha": 2314, "a para la ": 2315, "an en la ": 2316, "ed.<eos>": 2317, "sigue ": 2318, "o la ": 2319, "esfuerz": 2320, "Mozambi": 2321, "violence, ": 2322, "travel ": 2323, "persist": 2324, "guardi": 2325, "/40": 2326, "est\u00e9n ": 2327, "Permanent Representative ": 2328, "relativ": 2329, "budget ": 2330, "s.<eos>": 2331, "vig": 2332, "repe": 2333, "which ": 2334, "hour": 2335, "Ri": 2336, "ourth ": 2337, "approach ": 2338, "<bos>Recall": 2339, "conten": 2340, "detall": 2341, "de la resoluci\u00f3n ": 2342, "recommends that the ": 2343, "actividades ": 2344, "<bos>Ar": 2345, "enjoy": 2346, "divers": 2347, "protection of the ": 2348, "Philipp": 2349, "hu": 2350, "principl": 2351, "citiz": 2352, "ation<eos>": 2353, "Jef": 2354, "bul": 2355, "however, ": 2356, "delitos ": 2357, "mess": 2358, "suppli": 2359, "con su ": 2360, "Derechos Human": 2361, "as well as the ": 2362, "since the ": 2363, "ological ": 2364, "resolv": 2365, "examin": 2366, "support": 2367, "existen ": 2368, "Bosni": 2369, "opinion ": 2370, "1998, ": 2371, "ables de ": 2372, "sexual exploit": 2373, "dist": 2374, "sectori": 2375, "e) ": 2376, "Rum": 2377, "<bos>As\u00ed ": 2378, "cl": 2379, "Chairman of the ": 2380, "prevent the ": 2381, "bod": 2382, "preventive ": 2383, "noted the ": 2384, "cat": 2385, "a del ": 2386, "continuaci\u00f3n": 2387, "immedi": 2388, "<bos>Con ": 2389, "ados por ": 2390, "violations of ": 2391, "Group of ": 2392, "t\u00ed": 2393, "standard": 2394, "Ali": 2395, "parte del ": 2396, "ause ": 2397, "Palestini": 2398, "deceni": 2399, "cent ": 2400, "atic": 2401, "<bos>(b) ": 2402, "Rev": 2403, "en el contex": 2404, "1 of the ": 2405, "four ": 2406, "eci": 2407, "\u00e1mic": 2408, "Oriente ": 2409, "o al ": 2410, "Foreign ": 2411, "vigilanci": 2412, "broad": 2413, "18.00 hor": 2414, "mec": 2415, "High ": 2416, "<bos>Recom": 2417, "o de una ": 2418, "ous": 2419, "/CRP": 2420, "o de la ": 2421, "duc": 2422, "aju": 2423, "procedentes de ": 2424, "ania ": 2425, "em": 2426, "Secretariat ": 2427, "leadership": 2428, "imin": 2429, "ordinari": 2430, "ically ": 2431, "mother": 2432, "gi": 2433, "dad de ": 2434, "s have been ": 2435, "Estados Partes ": 2436, "objetivos de desarrollo del Mileni": 2437, "c\u00f3": 2438, "programme ": 2439, "natur": 2440, "ment and ": 2441, "arter ": 2442, "subray": 2443, "proporcionar ": 2444, "sup": 2445, "prac": 2446, "de la regi\u00f3n ": 2447, "Con": 2448, "2<eos>": 2449, "ado, ": 2450, "difu": 2451, "tiv": 2452, "solici": 2453, "Protocolo ": 2454, "<bos>C. ": 2455, "thro": 2456, "tel": 2457, "dirigida al ": 2458, "ion": 2459, "participar": 2460, "alleg": 2461, "a\u00f1os, ": 2462, "terms of ": 2463, "soluci\u00f3n ": 2464, "Agre": 2465, "a o ": 2466, "market ": 2467, "hacer frente ": 2468, "secretar\u00eda ": 2469, "ugh": 2470, "establ": 2471, "ligh": 2472, "tulo ": 2473, "Plan ": 2474, "ose ": 2475, "ment for ": 2476, "Nicaragu": 2477, "Jam": 2478, "Russian ": 2479, "capacidad ": 2480, "medid": 2481, "National ": 2482, "fully ": 2483, "elecciones ": 2484, "fer": 2485, "migr": 2486, "parties ": 2487, "less ": 2488, "<bos>Una ": 2489, "adequ": 2490, "asist": 2491, "facilities ": 2492, "<bos>En las ": 2493, "31, ": 2494, "note ": 2495, "Convenio de ": 2496, "subsequent ": 2497, "recommendations ": 2498, "<bos>Como ": 2499, "rather than ": 2500, "\u00d5": 2501, "Azerbai": 2502, "www.un.org/": 2503, "within the ": 2504, "gesti\u00f3n de ": 2505, "ni": 2506, "apon": 2507, "deud": 2508, "ation in the ": 2509, "ada.<eos>": 2510, "free ": 2511, "carri": 2512, "hici": 2513, "Estados, ": 2514, "ight ": 2515, "month": 2516, "conte": 2517, "agos": 2518, "situation in ": 2519, "anti": 2520, "serious ": 2521, "OP": 2522, "is not ": 2523, ", y ": 2524, "<bos>Sr. ": 2525, "ports ": 2526, "exercise ": 2527, "2006, ": 2528, "menores ": 2529, "parts of the ": 2530, "upon ": 2531, "ella ": 2532, "employ": 2533, "forest": 2534, "Basi": 2535, "luc": 2536, "lit": 2537, "held in ": 2538, "ness ": 2539, "convoc": 2540, "known ": 2541, "sustain": 2542, "<bos>Af": 2543, "incom": 2544, "Com": 2545, "con lo dispuesto ": 2546, "on behalf of the ": 2547, "s) ": 2548, "institution": 2549, "endi": 2550, "Nueva ": 2551, "celebr": 2552, "importanci": 2553, "Ti": 2554, "\u00e9n ": 2555, "lu": 2556, "cr\u00edtic": 2557, "measu": 2558, "Occident": 2559, "ater": 2560, "din": 2561, "selec": 2562, "seg": 2563, "date ": 2564, "Pr": 2565, "\u00e9l ": 2566, "territorios ": 2567, "tas ": 2568, "<bos>Los ": 2569, "res": 2570, "fail": 2571, "earch ": 2572, "substantial ": 2573, "request ": 2574, "61": 2575, "though ": 2576, "situ": 2577, "para ": 2578, "UNCITRAL ": 2579, "per cent": 2580, "establecimiento de ": 2581, "fac": 2582, "Siri": 2583, "initiativ": 2584, "acerca de ": 2585, "acuerdo ": 2586, "FA": 2587, "Ob": 2588, "der": 2589, "a de las ": 2590, "information ": 2591, "pr\u00f3xim": 2592, "mand": 2593, "ni\u00f1": 2594, "adic": 2595, "antly ": 2596, ", la ": 2597, "l": 2598, "Rep\u00fablica Chec": 2599, "48": 2600, "cop": 2601, "particip": 2602, "exist": 2603, "tambi\u00e9n se ": 2604, "appear": 2605, "or the ": 2606, "Wom": 2607, "dispu": 2608, "protocol": 2609, "Commission.<eos>": 2610, "DE": 2611, "will be ": 2612, "women's ": 2613, "13": 2614, "Oriente Medi": 2615, "debate ": 2616, "regional and ": 2617, "regionales ": 2618, "donantes ": 2619, "\u00e1 de ": 2620, "ting a ": 2621, "Representante Perman": 2622, "from ": 2623, "a e ": 2624, "today ": 2625, "documento ": 2626, "; y ": 2627, "o por ": 2628, "sult": 2629, "dificult": 2630, "ait": 2631, "du": 2632, "anced ": 2633, "F": 2634, "dign": 2635, "\u00e9l": 2636, "public": 2637, "cent": 2638, "VIH/S": 2639, "aci\u00f3n de una ": 2640, "that would ": 2641, "submitted ": 2642, "ley, ": 2643, "ar su ": 2644, "conformidad ": 2645, "conserv": 2646, "bal": 2647, "Great ": 2648, "parte ": 2649, "inter alia, ": 2650, "if": 2651, "mujer ": 2652, "organizaci\u00f3n ": 2653, "ation and the ": 2654, "G": 2655, "espacio ": 2656, "Fisc": 2657, "egu": 2658, "concentr": 2659, "that all ": 2660, "tivos ": 2661, "system.<eos>": 2662, "organizations.<eos>": 2663, "Dec": 2664, "call ": 2665, "Union ": 2666, "equival": 2667, "Venezu": 2668, "op": 2669, "y el ": 2670, "Islas ": 2671, "% de ": 2672, "Nueva Zel": 2673, "desde ": 2674, "concerning ": 2675, "tion, the ": 2676, "\u00da": 2677, "Sen": 2678, "Gesti\u00f3n ": 2679, "cuot": 2680, "Tri": 2681, "strategi": 2682, "ement of the ": 2683, "Beij": 2684, "creaci\u00f3n de ": 2685, "UNI": 2686, "particular, ": 2687, "Ministr": 2688, "cuarto ": 2689, "pueden ": 2690, "Servicio M\u00f3vil ": 2691, "Herzegovin": 2692, "GE": 2693, "univers": 2694, "offer": 2695, "ley": 2696, "Secretario ": 2697, "ties.<eos>": 2698, "proper": 2699, "iniciativ": 2700, "other": 2701, "attribu": 2702, "stic": 2703, "tuvo ": 2704, "nuestr": 2705, "nivel de ": 2706, "us.<eos>": 2707, "30": 2708, "<bos>It was ": 2709, "/7": 2710, "Secretary-General to ": 2711, "Apoy": 2712, "organizations ": 2713, "Rom": 2714, "advant": 2715, "force ": 2716, "<bos>Reaffirm": 2717, "esti\u00f3n ": 2718, "paz.<eos>": 2719, "Fifth Committee ": 2720, "a\u00e9re": 2721, "Nicar": 2722, "Mon": 2723, "sol": 2724, "plano ": 2725, "colaboraci\u00f3n ": 2726, "as de los ": 2727, "Convention ": 2728, "only ": 2729, "), el ": 2730, "Cz": 2731, "wid": 2732, "en march": 2733, "ind\u00edgen": 2734, "May ": 2735, "war": 2736, "<bos>El": 2737, "imiento de la ": 2738, "30 de junio de 200": 2739, "toco": 2740, "recib": 2741, ", in particular ": 2742, "tions, ": 2743, "cuesti\u00f3n de la ": 2744, "a de la ": 2745, "1/": 2746, "ked ": 2747, "2 of the ": 2748, "2.<eos>": 2749, "impact of ": 2750, "Mr. ": 2751, "entes.<eos>": 2752, "mujer, ": 2753, " de las ": 2754, "collective ": 2755, ".3 ": 2756, "iv": 2757, "<bos>According to ": 2758, "ture ": 2759, "sociales y ": 2760, "sh": 2761, "Bank": 2762, "requirement": 2763, "\u00edtulo ": 2764, "3 (2001": 2765, "legi": 2766, "Th": 2767, "cuyo ": 2768, "cal": 2769, "follow ": 2770, "ta ": 2771, "Refug": 2772, "workshop ": 2773, "mujeres ": 2774, "ili": 2775, "c\u00f3mo ": 2776, "b ": 2777, "/C": 2778, "ado por ": 2779, "abst": 2780, "Status of ": 2781, "Delin": 2782, "jer ": 2783, "ro ": 2784, "gr": 2785, "that, in ": 2786, "parties to ": 2787, "RC": 2788, "1999 ": 2789, "dam": 2790, "das ": 2791, ", ": 2792, "la de ": 2793, "a nivel ": 2794, "derecho al ": 2795, "Conferencia de las ": 2796, "constru": 2797, "Hun": 2798, "Junta ": 2799, "per\u00edodo de ": 2800, "]<eos>": 2801, "reclam": 2802, "ule ": 2803, "Chipre": 2804, "educational ": 2805, "African": 2806, "develop": 2807, "Costa ": 2808, "development of the ": 2809, "imp": 2810, "struc": 2811, "awarenes": 2812, "ancia, ": 2813, "Convenci\u00f3n de ": 2814, "Ambass": 2815, "able and ": 2816, "6.<eos>": 2817, "ity": 2818, "2, ": 2819, "al de las ": 2820, "fuerza ": 2821, "dangerous ": 2822, "intell": 2823, "Penal ": 2824, "a not": 2825, "zg": 2826, "21": 2827, "respect to ": 2828, "aspir": 2829, "Medio ": 2830, "\u00e7": 2831, "use of ": 2832, "met": 2833, "african": 2834, "abaj": 2835, "civil": 2836, "peacekeeping ": 2837, "tific": 2838, "dific": 2839, "tr\u00e1fic": 2840, "procedu": 2841, "consultation with the ": 2842, "Aug": 2843, "acerc": 2844, "terrorist ": 2845, "ork": 2846, "declar": 2847, "AC.105/": 2848, "support of the ": 2849, "entabl": 2850, "derechos ": 2851, "Estados Miembros ": 2852, "<bos>Record": 2853, "gen": 2854, "ar\u00e1 el ": 2855, "cer": 2856, "istr": 2857, "uel": 2858, "obtener ": 2859, "la en ": 2860, "ar los ": 2861, "know": 2862, "plement": 2863, "UNA": 2864, "tambi\u00e9n la ": 2865, "recor": 2866, "servicio ": 2867, "owever": 2868, "mites ": 2869, "\u00eda la ": 2870, "complete ": 2871, "ning ": 2872, "made ": 2873, "Cal": 2874, "ales y los ": 2875, "mantener ": 2876, "aran ": 2877, "Cro": 2878, "actividad ": 2879, "referencia ": 2880, "improve the ": 2881, "os de los ": 2882, "los de ": 2883, "current ": 2884, "2003": 2885, "s ": 2886, "i ": 2887, "examinar la ": 2888, "harm": 2889, "Econ\u00f3mic": 2890, "sobre los ": 2891, "1996": 2892, "<bos>En consecu": 2893, "\u00e1 ": 2894, "um ": 2895, "as to ": 2896, "regard ": 2897, "febr": 2898, "like to ": 2899, "despu\u00e9s ": 2900, "emiti": 2901, "sect": 2902, "femenin": 2903, "mandato ": 2904, "ability of ": 2905, "preced": 2906, "after the ": 2907, "ances": 2908, "juven": 2909, "encourag": 2910, "invol": 2911, "protect ": 2912, "phenomen": 2913, "ail": 2914, "Council, ": 2915, "Court ": 2916, "tores ": 2917, "per\u00edodo extraordinario de sesiones ": 2918, "forum ": 2919, "follow": 2920, " de julio de 200": 2921, "enfr": 2922, "compliance ": 2923, " de noviembre de ": 2924, "cargo ": 2925, "a de que ": 2926, "haz": 2927, "inf": 2928, "compl": 2929, "an international ": 2930, "polic\u00eda ": 2931, "eli": 2932, "ber": 2933, "and/": 2934, "contr": 2935, "derecho a ": 2936, "ild ": 2937, "capit": 2938, "interin": 2939, "que los ": 2940, "Sustainable ": 2941, "cus": 2942, "network": 2943, "guid": 2944, "idiom": 2945, "continuar ": 2946, "ement": 2947, "relativa a la ": 2948, "ff": 2949, "<bos>Cu": 2950, "responsible for ": 2951, "t": 2952, "encion": 2953, "acy ": 2954, "Per": 2955, "law ": 2956, "request": 2957, "author ": 2958, "Sud\u00e1": 2959, "forms of ": 2960, "solamente ": 2961, "had ": 2962, "ador": 2963, "character": 2964, "ist ": 2965, "__": 2966, "Def": 2967, "es for ": 2968, "att": 2969, "negativ": 2970, "Observ": 2971, "requer": 2972, "\u00e1": 2973, "ament ": 2974, "Arm": 2975, "one ": 2976, "55/2": 2977, "become ": 2978, "capacity-": 2979, "implement": 2980, "derecho del ": 2981, "5, ": 2982, "erc": 2983, "ref": 2984, "reconoce ": 2985, "typ": 2986, "mundial.<eos>": 2987, "liv": 2988, "a men": 2989, "p\u00fablico ": 2990, "development and ": 2991, "<eos>": 2992, "ail ": 2993, "econ\u00f3mic": 2994, "contra los ": 2995, "West ": 2996, "put": 2997, "Gh": 2998, "draft resolution A/C": 2999, "15": 3000, "puso ": 3001, "comunicaci\u00f3n ": 3002, "Convention.<eos>": 3003, "ante la ": 3004, "complement": 3005, "course ": 3006, "irse ": 3007, "transport ": 3008, "Internacional de ": 3009, "is also ": 3010, "recurs": 3011, "new ": 3012, "commitment to ": 3013, "contract": 3014, "e; ": 3015, "1999, ": 3016, "Plata": 3017, "mitted ": 3018, "%.<eos>": 3019, "crisis ": 3020, "manten": 3021, "cuper": 3022, "itori": 3023, "fair ": 3024, "Pl": 3025, "number ": 3026, "week": 3027, "memor": 3028, "mal": 3029, "<bos>- ": 3030, "product": 3031, "action ": 3032, "2004-": 3033, "coment": 3034, "obst\u00e1culos ": 3035, "ante.<eos>": 3036, "guerra ": 3037, "jurisdic": 3038, "Programme of ": 3039, "additional ": 3040, "autor": 3041, "fuera ": 3042, "ource ": 3043, "run": 3044, "results ": 3045, "a and the ": 3046, "asegurar la ": 3047, "trat": 3048, "Acci\u00f3n ": 3049, "lim": 3050, "da ": 3051, "contecimient": 3052, "ONUD": 3053, "clos": 3054, "a F": 3055, "fight against ": 3056, "member ": 3057, "podr\u00edan ": 3058, "Bo": 3059, "ages ": 3060, "P": 3061, "ela ": 3062, "las Naciones Unid": 3063, "Director ": 3064, "ality, ": 3065, "cambi": 3066, "a\u00f1o ": 3067, "Leagu": 3068, "econ": 3069, "C\u00f3di": 3070, "cases, ": 3071, "ing to ": 3072, "Consejo Econ\u00f3mic": 3073, "con una ": 3074, "compliance with ": 3075, "<bos>He ": 3076, "hor": 3077, "ties, ": 3078, "chapter ": 3079, "Burkina Fas": 3080, "insol": 3081, "legisl": 3082, "r ": 3083, "cuya ": 3084, "os (": 3085, "States Parties ": 3086, "rit": 3087, "veri": 3088, "agric": 3089, "vel": 3090, "con benepl": 3091, "Member States, ": 3092, "Junta Ejecutiv": 3093, "vali": 3094, "fru": 3095, "Gol": 3096, "0, ": 3097, "ampl": 3098, "remained ": 3099, "Uru": 3100, "grup": 3101, "Gobiern": 3102, "razon": 3103, "app": 3104, "upon the ": 3105, "programm": 3106, "patrocin": 3107, "peopl": 3108, "Fifth ": 3109, "exampl": 3110, "ileg": 3111, "cooperate ": 3112, "law": 3113, "I, ": 3114, "urg": 3115, "ten\u00eda ": 3116, "Internet ": 3117, "Programa ": 3118, "onic ": 3119, "hac": 3120, ")(": 3121, "internacionales de ": 3122, "acept": 3123, "Trabaj": 3124, "i) ": 3125, "Ministerio de ": 3126, "\u00e9xic": 3127, "shop": 3128, "a, the ": 3129, "audit": 3130, "Belar": 3131, "appropriate, ": 3132, "impos": 3133, "abor": 3134, "mee": 3135, "Ministeri": 3136, "pueblos ind\u00edgen": 3137, "Weapon": 3138, "Cor": 3139, "like ": 3140, "Iraqi ": 3141, "crim": 3142, "integr": 3143, "a: ": 3144, "manner": 3145, "secund": 3146, "appro": 3147, "during the ": 3148, "AC": 3149, "AC.2": 3150, "octubre de ": 3151, "Informe ": 3152, "\u00e1ne": 3153, " de may": 3154, "partidos ": 3155, "ent of the ": 3156, "importancia ": 3157, "risk": 3158, "ation (": 3159, "con ": 3160, "sobre el terren": 3161, "partnership": 3162, "Presidente del Consejo de Seguridad por el ": 3163, "og": 3164, "Representativ": 3165, "ed that ": 3166, "muerte ": 3167, "edly ": 3168, "in all ": 3169, "Kar": 3170, "estrategi": 3171, "<bos>The representative of ": 3172, "illegal ": 3173, "crucial ": 3174, "objetivo de ": 3175, "ombre ": 3176, "prest": 3177, "ilater": 3178, "cr\u00e9di": 3179, "grandes ": 3180, "P\u00fablic": 3181, "pad": 3182, "siendo ": 3183, "Mo": 3184, "ekeep": 3185, "sti": 3186, "idad de ": 3187, "ater ": 3188, "cell": 3189, "todos los Estados ": 3190, "budge": 3191, "especiales ": 3192, "ad, ": 3193, "ity to ": 3194, "m\u00e9todos de ": 3195, "model": 3196, "Human ": 3197, "asesin": 3198, "Declaration of ": 3199, "young ": 3200, "entes, ": 3201, "ecer ": 3202, "siguiente ": 3203, "effective ": 3204, "ii) ": 3205, "an los ": 3206, "acom": 3207, "carg": 3208, "ts.<eos>": 3209, "cnic": 3210, "ile ": 3211, "enfo": 3212, "s:<eos>": 3213, "con arreglo ": 3214, "achieving ": 3215, "sea ": 3216, "we are ": 3217, "), the ": 3218, "Viet ": 3219, "princip": 3220, "para.<eos>": 3221, "1 del art\u00edculo ": 3222, "further ": 3223, "is ": 3224, "educaci\u00f3n ": 3225, "CE": 3226, "ate, ": 3227, "lugar a ": 3228, "propuest": 3229, "e una ": 3230, "bserv": 3231, "inclu": 3232, "Partes ": 3233, "rap": 3234, "Al-": 3235, "derechos humanos ": 3236, "femen": 3237, "\u00e9": 3238, "lucha ": 3239, "example, ": 3240, "Banco ": 3241, "a ": 3242, "multilateral ": 3243, "#": 3244, "\u00b7": 3245, "have been ": 3246, "Uni\u00f3n ": 3247, "seguido ": 3248, "metr": 3249, "B\u00e9l": 3250, "<bos>Otr": 3251, "RP": 3252, "in particular ": 3253, "trend": 3254, "oper": 3255, "Col": 3256, "ative and ": 3257, "Office ": 3258, "fuerzas ": 3259, "inst": 3260, "manifi": 3261, "private sector ": 3262, "affirm": 3263, "visi\u00f3n de ": 3264, "expect": 3265, "lease ": 3266, "en particular ": 3267, "based ": 3268, "d\u00f3": 3269, "successful ": 3270, "a y el ": 3271, "aciones, ": 3272, "Mant": 3273, "recomi": 3274, "adul": 3275, "Global ": 3276, "mission of ": 3277, "At": 3278, "examen del ": 3279, "<bos>Decide ": 3280, "cimient": 3281, "improved ": 3282, "valor ": 3283, "list of ": 3284, "palestin": 3285, "o para ": 3286, "quincuag\u00e9simo ": 3287, "ensur": 3288, "sy": 3289, "anunci": 3290, "salud ": 3291, "mi": 3292, "support for the ": 3293, "eda ": 3294, "desplazados ": 3295, "Vice-": 3296, "financi": 3297, "opin": 3298, "parte, ": 3299, "<bos>The ": 3300, "ci\u00f3n de la ": 3301, "tom\u00f3 ": 3302, "efectos de la ": 3303, "idades.<eos>": 3304, "collec": 3305, "/12": 3306, "Sta": 3307, "Cultur": 3308, "vin": 3309, "arse ": 3310, "given to ": 3311, "subregional ": 3312, "ar en el ": 3313, "pap": 3314, "Minister": 3315, "gas": 3316, "Ambassador ": 3317, "work of the ": 3318, "a) (": 3319, "conferenci": 3320, "el": 3321, "Joh": 3322, "age, ": 3323, "vincul": 3324, "derecho a la ": 3325, "letter ": 3326, "de la Constitu": 3327, "therefore ": 3328, "pol\u00edtica ": 3329, "sean ": 3330, "invest": 3331, "ados en la ": 3332, "which are ": 3333, "se\u00f1al": 3334, "inversiones ": 3335, "os: ": 3336, "Welfare ": 3337, "Alem": 3338, "able, ": 3339, "di\u00e1lo": 3340, "ts and ": 3341, "PNU": 3342, "ser\u00eda ": 3343, "o, y ": 3344, "otorg": 3345, "ol\u00f3gic": 3346, "es:<eos>": 3347, "being ": 3348, "27 ": 3349, "human rights, ": 3350, "no ha ": 3351, "., ": 3352, "caso de ": 3353, "s, the ": 3354, "16": 3355, "agu": 3356, ".1": 3357, "entitl": 3358, "gip": 3359, "fic": 3360, "accused ": 3361, "se.<eos>": 3362, "Investig": 3363, "necesit": 3364, "respectiv": 3365, "OD": 3366, "s to the ": 3367, "criterios ": 3368, "primary ": 3369, "yet ": 3370, "penit": 3371, "ariat ": 3372, "pes": 3373, "ar": 3374, "activities, ": 3375, "hag": 3376, "a y de la ": 3377, "LA": 3378, "some": 3379, "tex": 3380, "enmiend": 3381, "Constitution ": 3382, "<bos>Ob": 3383, "them ": 3384, "reference ": 3385, "pending ": 3386, "recibido ": 3387, "alent": 3388, "programme budget ": 3389, "procedur": 3390, "indic": 3391, "penal ": 3392, "place ": 3393, "Beijing ": 3394, "\u00f3n<eos>": 3395, "otras organizaciones ": 3396, "wel": 3397, "ro.<eos>": 3398, "lugar en ": 3399, "miembr": 3400, "2001, ": 3401, "18": 3402, "Public": 3403, "it was ": 3404, "archiv": 3405, "penal": 3406, "<bos>Nevertheles": 3407, "en una ": 3408, "siv": 3409, "a<eos>": 3410, "Internacional ": 3411, "deb": 3412, "law and ": 3413, "crear un ": 3414, "y<eos>": 3415, "sociales ": 3416, "focu": 3417, "now ": 3418, "rai": 3419, "otra parte, ": 3420, "Nepal, ": 3421, "A/59/": 3422, "pa\u00eds": 3423, "/Add.2": 3424, "aci\u00f3n<eos>": 3425, "/COP": 3426, "Austri": 3427, "min": 3428, "es ": 3429, "consentimient": 3430, "mental ": 3431, "util": 3432, "ot": 3433, "displaced ": 3434, "former ": 3435, "\u00fasqued": 3436, "para el bienio ": 3437, "form": 3438, " de abril de ": 3439, "ayud": 3440, "adequately ": 3441, "irm": 3442, "Educ": 3443, "displaced person": 3444, "\u00c1fric": 3445, "<bos>The Committee ": 3446, "aplicaci\u00f3n ": 3447, "addi": 3448, "18 ": 3449, "mencion": 3450, "proc": 3451, "Comit\u00e9": 3452, "miras a ": 3453, "aleg": 3454, "rec": 3455, "offici": 3456, "r\u00e1p": 3457, "o de ses": 3458, "Der": 3459, "r. ": 3460, "poin": 3461, "es and ": 3462, "wish": 3463, "ede ": 3464, "respect": 3465, "nuestra ": 3466, "Justici": 3467, "estad": 3468, "itu": 3469, "lev": 3470, "Unit ": 3471, "6/": 3472, "ecu": 3473, "punish": 3474, "dissemin": 3475, "special ": 3476, "ados para ": 3477, "ing its ": 3478, "Geneva ": 3479, "obligations ": 3480, "financial and ": 3481, "estaba ": 3482, "2/": 3483, "Syst": 3484, "\u00f3nic": 3485, "40": 3486, "hosp": 3487, "Gaz": 3488, "Record": 3489, "led ": 3490, "considerar ": 3491, "<bos>3": 3492, "<bos>O": 3493, "manifest": 3494, "lo.<eos>": 3495, "bilater": 3496, "previ": 3497, "put ": 3498, "cep": 3499, "O ": 3500, "Amer": 3501, "ble.<eos>": 3502, "Initi": 3503, "Pa\u00edses ": 3504, "pa\u00ed": 3505, "Rights ": 3506, "instrument": 3507, "Chipre, ": 3508, "oug": 3509, "unilater": 3510, "remo": 3511, "ality and ": 3512, "de conformidad ": 3513, "seguir ": 3514, "Oficin": 3515, "amient": 3516, "r\u00e1n ": 3517, "production and ": 3518, "Alto Comision": 3519, "ed on ": 3520, "secret": 3521, "ocu": 3522, "proyecto de resoluci\u00f3n ": 3523, "to de las ": 3524, "/20": 3525, "is, ": 3526, "significant ": 3527, "\u201d.<eos>": 3528, "fore ": 3529, "ema ": 3530, "\u00f3 de ": 3531, "Venezuela ": 3532, "debe ": 3533, "State party ": 3534, "Government of the ": 3535, "ya que ": 3536, "\u00e1lo": 3537, "esferas ": 3538, "combat": 3539, "Executive ": 3540, "resoluci\u00f3n ": 3541, "et": 3542, "Trade ": 3543, "at ": 3544, "orig": 3545, "idad.<eos>": 3546, "r\u00e9gim": 3547, "bring ": 3548, "St": 3549, "o.<eos>": 3550, "oca": 3551, "del Secretario General ": 3552, "operations ": 3553, "<bos>F": 3554, "here ": 3555, "Apri": 3556, "disciplin": 3557, "soberan": 3558, "od": 3559, "submit ": 3560, "pa": 3561, "Presidente ": 3562, "kist": 3563, "number of ": 3564, "suficientes ": 3565, "Protocol": 3566, "afect": 3567, "pa\u00edses en desarrollo ": 3568, "atender ": 3569, "ence to ": 3570, "ing from ": 3571, "review ": 3572, "authorities ": 3573, "<bos>It ": 3574, "omb": 3575, "you": 3576, "uno de los ": 3577, "eran": 3578, "status ": 3579, "ar\u00edan ": 3580, "erl": 3581, "apel": 3582, "como consecu": 3583, "inclusive ": 3584, "Subcomisi\u00f3n ": 3585, "Preven": 3586, "ng the ": 3587, "mad": 3588, "arising ": 3589, "Naciones Unid": 3590, "esper": 3591, "E/": 3592, "recom": 3593, "all, ": 3594, ".9": 3595, "oni": 3596, "year, ": 3597, "Secretary-General ": 3598, "prop": 3599, "Serbi": 3600, "4.<eos>": 3601, "receiving ": 3602, "period": 3603, "minu": 3604, "uw": 3605, "Especi": 3606, "por su ": 3607, "shall ": 3608, "aciones y ": 3609, "Greci": 3610, "ha": 3611, "calidad de ": 3612, "A/CN": 3613, "\u00f3 a los ": 3614, "uer": 3615, "effici": 3616, "Develop": 3617, "impact of the ": 3618, "Conference Ro": 3619, "a reuni\u00f3n ": 3620, "es of the ": 3621, "pelig": 3622, "relaciones ": 3623, "11": 3624, "Ucr": 3625, "concern ": 3626, "\u00ed, ": 3627, "<bos>V": 3628, "Chi": 3629, "m": 3630, "all ": 3631, "e, the ": 3632, "An": 3633, "Mill": 3634, "ente, ": 3635, "Ley de ": 3636, "way": 3637, "ciud": 3638, "President of the ": 3639, "es, ": 3640, "dicha ": 3641, "remain": 3642, "otra \u00edndol": 3643, "stock": 3644, "<bos>W": 3645, "land ": 3646, "role ": 3647, "er for ": 3648, "Derecho ": 3649, "stop": 3650, "ent.<eos>": 3651, "d\u00e9": 3652, "eficac": 3653, "Fore": 3654, "<bos>This ": 3655, "exerci": 3656, "age and ": 3657, "required ": 3658, "ograph": 3659, "given ": 3660, "anexo ": 3661, "economic growth ": 3662, "stil": 3663, "Consejo de Seguridad, ": 3664, "individ": 3665, "vida ": 3666, "\u201c": 3667, "7 ": 3668, "pol\u00edticas y ": 3669, ".9/": 3670, "n\u00famero de ": 3671, "chemic": 3672, "Union": 3673, "them to ": 3674, "health": 3675, "s is ": 3676, "formas ": 3677, "per cent of ": 3678, "consultiv": 3679, "ej": 3680, "central ": 3681, "expressed ": 3682, "Oficina del ": 3683, "importante ": 3684, "repar": 3685, "consiguient": 3686, "Security ": 3687, "adas en la ": 3688, "itor": 3689, "Irland": 3690, "tud ": 3691, "atur": 3692, "vi": 3693, "attemp": 3694, "idd": 3695, "pro": 3696, "Ombud": 3697, "de las ": 3698, "intergovernmental ": 3699, "rules of ": 3700, "ener": 3701, "decisiones ": 3702, "vit": 3703, "\", ": 3704, "Administraci\u00f3n ": 3705, "siempre ": 3706, "ore, ": 3707, "presentaci\u00f3n de ": 3708, "conflict": 3709, "acuerdo con la ": 3710, "a f": 3711, "ov": 3712, ".4": 3713, "Committee's ": 3714, "Peacebuilding ": 3715, "empresas ": 3716, "al,<eos>": 3717, "tra": 3718, "ed and ": 3719, "mens": 3720, "delegation ": 3721, "principal ": 3722, "ado ": 3723, "la ": 3724, "existing ": 3725, "mayor\u00ed": 3726, "reason": 3727, "niz": 3728, "mission ": 3729, "informaci\u00f3n y ": 3730, "31 de diciembre de ": 3731, "Consejo Econ\u00f3mico y ": 3732, "informe del ": 3733, "\u00ed ": 3734, "lid": 3735, "equal ": 3736, "ganist": 3737, "debido ": 3738, "as (": 3739, "session<eos>": 3740, "son": 3741, "Headquarter": 3742, "a que se ": 3743, "asked ": 3744, "submission": 3745, "antes del ": 3746, "socioecon\u00f3mic": 3747, "appe": 3748, "ter": 3749, "supervis": 3750, "categori": 3751, "candidat": 3752, "a como ": 3753, "estrat": 3754, "contex": 3755, "gast": 3756, "e la ": 3757, "ank": 3758, "terrorism": 3759, "000 ": 3760, "Court of ": 3761, "as\u00ed como ": 3762, "sexu": 3763, "less than ": 3764, "Evalu": 3765, "Right": 3766, "recall": 3767, "tengan ": 3768, "investig": 3769, "Convention": 3770, "; ": 3771, "vot": 3772, "groups, ": 3773, "case of ": 3774, "donor ": 3775, "numer": 3776, "para el ": 3777, "therland": 3778, "in, ": 3779, "ada del ": 3780, "widespread ": 3781, "senti": 3782, "conver": 3783, "siguient": 3784, "tant": 3785, "art\u00edculo ": 3786, "<bos>Sin embarg": 3787, "recuper": 3788, "rein": 3789, "avail": 3790, "placed ": 3791, "peaceful ": 3792, "ere ": 3793, "\u00eda de ": 3794, "ed to the ": 3795, "with a view to ": 3796, "through ": 3797, "2009 ": 3798, "\u00e1mbit": 3799, "inter": 3800, "necesari": 3801, "apartado ": 3802, "State party to ": 3803, "<bos>Cre": 3804, "llam": 3805, "\u00fas": 3806, "phas": 3807, "cu\u00e1": 3808, "mortal": 3809, "vivi": 3810, "draw": 3811, "job": 3812, "Moldova, ": 3813, "tional ": 3814, "AID": 3815, "% del ": 3816, "2007": 3817, "e: ": 3818, ", which ": 3819, "ci\u00f3n<eos>": 3820, "ando su ": 3821, "dat": 3822, "o se ": 3823, "2006.<eos>": 3824, "mecanism": 3825, "fondos ": 3826, "Optional ": 3827, "Camer": 3828, "Russi": 3829, "atiz": 3830, "o o ": 3831, "rest": 3832, "eficaz ": 3833, "200 ": 3834, "direct ": 3835, "gres": 3836, "ing": 3837, "European ": 3838, "ould ": 3839, "buen": 3840, "Council": 3841, "ther": 3842, "56": 3843, "process ": 3844, "cuadr": 3845, "af": 3846, "concepto de ": 3847, "Secretary-General's ": 3848, "sure ": 3849, "atenci\u00f3n ": 3850, "iss": 3851, "del p\u00e1rrafo ": 3852, "to address ": 3853, "regionales y ": 3854, "1 of ": 3855, "Kosovo ": 3856, "d\u00f3la": 3857, "que se ": 3858, "ner": 3859, "entes de ": 3860, "capacity ": 3861, "\u00e9ric": 3862, "ellos ": 3863, "enfermedades ": 3864, "abar": 3865, "ana, ": 3866, "diffic": 3867, "amin": 3868, "parec": 3869, "deploy": 3870, "gic": 3871, "achi": 3872, "El": 3873, "se ha ": 3874, "en virtud ": 3875, "conven": 3876, "a new ": 3877, "etc": 3878, "las medidas ": 3879, "<bos>Di": 3880, "years of ": 3881, "entrevist": 3882, "33": 3883, "CC": 3884, "was ": 3885, "ending ": 3886, "\u00fablic": 3887, "area.<eos>": 3888, "* ": 3889, "ces ": 3890, "Yugoslav": 3891, "candi": 3892, "distintas ": 3893, "hy": 3894, "AN": 3895, "Pre": 3896, "detention ": 3897, "Ou": 3898, "prisi\u00f3n ": 3899, "bel": 3900, "Trans": 3901, "ee": 3902, "esfuerzos ": 3903, "ales que ": 3904, "Commis": 3905, "sons ": 3906, "Departament": 3907, "este ": 3908, "os a ": 3909, "assistance ": 3910, "2004 ": 3911, "ow ": 3912, "adolescent": 3913, "arles ": 3914, "tain": 3915, "\u2212": 3916, "technical ": 3917, "recogn": 3918, "of its ": 3919, "stain": 3920, "statements ": 3921, "ado por el ": 3922, "scri": 3923, "opiniones ": 3924, "information on the ": 3925, "100": 3926, "comend": 3927, "au ": 3928, "aff": 3929, "Man": 3930, "decide ": 3931, "mundi": 3932, "anian ": 3933, "Gobierno de la ": 3934, "producci\u00f3n de ": 3935, "enh": 3936, "k": 3937, "con el fin de ": 3938, "deal": 3939, "environ": 3940, "geograph": 3941, "prison": 3942, "proposal": 3943, "adem\u00e1s ": 3944, "Herzeg": 3945, "o m\u00e1s ": 3946, "uly ": 3947, "personn": 3948, "High": 3949, "exam": 3950, "occu": 3951, "ul ": 3952, "Constitu": 3953, "Commun": 3954, "<bos>Por otra parte, ": 3955, "civ": 3956, "a en las ": 3957, "eur": 3958, "sci": 3959, "natural ": 3960, "prueb": 3961, "later ": 3962, "ofrec": 3963, "field ": 3964, "se of ": 3965, "alities ": 3966, "resolution ": 3967, "People's ": 3968, "continuing ": 3969, "persons ": 3970, "divul": 3971, "those ": 3972, "inscrip": 3973, "\u00a1": 3974, "ar que ": 3975, "salud": 3976, "Nor": 3977, "operaciones de ": 3978, "unto de ": 3979, "cuestion": 3980, "gros": 3981, "nic": 3982, "gn": 3983, "discurs": 3984, "igur": 3985, "item ": 3986, "<bos>Se ha ": 3987, "esas ": 3988, "haber ": 3989, "desde el ": 3990, "aspectos ": 3991, "intended to ": 3992, "below": 3993, "estas ": 3994, "ed their ": 3995, "law enforcement ": 3996, "ongoing ": 3997, "explo": 3998, "internacionales, ": 3999, "body ": 4000, "har": 4001, "<bos>Al ": 4002, "d) ": 4003, "from the ": 4004, "K": 4005, "taking ": 4006, "policies and ": 4007, "10 a.m": 4008, "ation in ": 4009, "November ": 4010, "manera ": 4011, "ex ": 4012, "timient": 4013, "seven": 4014, "AD": 4015, "adas por el ": 4016, "WG": 4017, "hear": 4018, "Suiz": 4019, "Public ": 4020, "exp": 4021, "ability.<eos>": 4022, "bles ": 4023, "art\u00edculos ": 4024, "guard": 4025, "ond": 4026, "racism": 4027, "creciente ": 4028, "Belar\u00fa": 4029, "<bos>(c) ": 4030, "aci\u00f3n ": 4031, "<bos>Tod": 4032, "Fondo ": 4033, "New Ze": 4034, "Tr": 4035, "cannot be ": 4036, "mantenimiento de la ": 4037, "un": 4038, "5/Add": 4039, "Jun": 4040, "sist": 4041, "operaciones ": 4042, "Member ": 4043, "div": 4044, "capacity-building ": 4045, "ple ": 4046, "through the ": 4047, "ready ": 4048, "limit": 4049, "<bos>Anex": 4050, "judic": 4051, "compati": 4052, "associated ": 4053, "<bos>e) ": 4054, "bodies ": 4055, "B ": 4056, "2008, ": 4057, "Director": 4058, "as en la ": 4059, "amplia ": 4060, "conflictos arm": 4061, "RI": 4062, "tradicion": 4063, "necesidades ": 4064, "hood ": 4065, "ity and ": 4066, "II, ": 4067, "abri": 4068, "A/55/": 4069, "adoptado ": 4070, "Corr.1": 4071, "prob": 4072, "progres": 4073, "i": 4074, "Timor-L": 4075, "munici": 4076, "juris": 4077, "n\u00famer": 4078, "issue ": 4079, "polici": 4080, "The Committee ": 4081, "ma": 4082, "elig": 4083, "societ": 4084, "Democr": 4085, "conformity ": 4086, "tor ": 4087, "th session": 4088, "seem": 4089, "dicho ": 4090, "phen": 4091, "medi": 4092, "[A C E F ": 4093, "useful ": 4094, "Febr": 4095, "ondo ": 4096, "Moz": 4097, "provision": 4098, "Ver": 4099, "otr": 4100, "Mission in ": 4101, "remuner": 4102, "rais": 4103, "ales (": 4104, "surg": 4105, "fortalecimient": 4106, "do": 4107, "Palestin": 4108, "ci\u00f3n en ": 4109, "troop": 4110, "half": 4111, "sobre ": 4112, "dich": 4113, "consider ": 4114, "<bos>Reg": 4115, "salvagu": 4116, "\u00f4te ": 4117, "pursu": 4118, "ni ": 4119, "legislative ": 4120, "emos ": 4121, "L": 4122, "certain ": 4123, "adas de ": 4124, "reconocimient": 4125, "assessment ": 4126, "highest ": 4127, "lec": 4128, "ESC": 4129, "hombres ": 4130, "institutions, ": 4131, "u": 4132, "origin": 4133, "limited ": 4134, "Chang": 4135, "juici": 4136, "about ": 4137, "ysic": 4138, "direcci\u00f3n ": 4139, "asuntos ": 4140, "Asamblea Gener": 4141, "<bos>Table ": 4142, "harmoniz": 4143, "Organization ": 4144, "as por ": 4145, "stitu": 4146, "shown ": 4147, "strategic ": 4148, "<bos>Sin ": 4149, "difer": 4150, "bien ": 4151, "consultation ": 4152, "VIH/SIDA, ": 4153, "acuer": 4154, "ely, ": 4155, "<bos>Dur": 4156, "aris": 4157, "settl": 4158, "Govern": 4159, "telecom": 4160, "fuerz": 4161, "complej": 4162, "community ": 4163, "achiev": 4164, "o: ": 4165, "consumo de ": 4166, "g ": 4167, "dentr": 4168, "mejor": 4169, "39 ": 4170, "<bos>Recordando ": 4171, "desplaz": 4172, "y of ": 4173, "whether ": 4174, "Terrorism ": 4175, "t ": 4176, "udi": 4177, "No.<eos>": 4178, "Comi": 4179, "carrying out ": 4180, "con los ": 4181, "ti": 4182, "\u00c9": 4183, "estrateg": 4184, "acuerdos ": 4185, "has a ": 4186, "EC": 4187, "apart": 4188, "ingresos ": 4189, "uso de la ": 4190, "twenty-": 4191, "nombre ": 4192, "amente.<eos>": 4193, "o en la ": 4194, "inter ": 4195, "a fin de ": 4196, "los ": 4197, " y la ": 4198, "relevant ": 4199, "ecimient": 4200, "Desarrol": 4201, "llevar a ": 4202, "statu": 4203, "hospit": 4204, "ado y ": 4205, "not be ": 4206, "item": 4207, "Cub": 4208, "Nigeri": 4209, "Bel": 4210, "participation of ": 4211, "Be": 4212, "acces": 4213, "c) ": 4214, "31 ": 4215, "las Naciones Unidas y ": 4216, "estimated ": 4217, "Se": 4218, "if the ": 4219, "avo": 4220, "in its resolution ": 4221, "social y ": 4222, "idad y ": 4223, "del sistema de ": 4224, "je": 4225, "Sec": 4226, "Justice ": 4227, "joy": 4228, "exclu": 4229, "pur": 4230, "o, se ": 4231, "\u00f3ven": 4232, "III": 4233, ".4/": 4234, "increment": 4235, "representatives of ": 4236, "<bos>In addi": 4237, "affect": 4238, "for": 4239, "Ab": 4240, "1-": 4241, "lik": 4242, "financial resourc": 4243, "ation": 4244, "as: ": 4245, "support of ": 4246, "exper": 4247, "unt": 4248, "rael": 4249, "ambi": 4250, "Ge": 4251, "Chairperson ": 4252, "developing countries ": 4253, "<bos>Qu": 4254, "ver ": 4255, "pa\u00eds.<eos>": 4256, "<bos>UN": 4257, "<bos>Sec": 4258, "session of the ": 4259, "N": 4260, "as las ": 4261, "firm": 4262, "Rwand": 4263, ";<eos>": 4264, "promover ": 4265, "clearly ": 4266, "C) ": 4267, "entes ": 4268, "Work": 4269, "autor ": 4270, "Servic": 4271, "Depart": 4272, "13, ": 4273, "financial ": 4274, "como ": 4275, "cap.<eos>": 4276, "related to the ": 4277, "): ": 4278, "suggest": 4279, "<bos>At ": 4280, "ation of ": 4281, "another ": 4282, "e a la ": 4283, "de al ": 4284, "<bos>(e) ": 4285, "ogniz": 4286, "Tog": 4287, "national, ": 4288, "Germany, ": 4289, "Provision": 4290, "<bos>En": 4291, "State party's ": 4292, "over ": 4293, "advic": 4294, "medios de ": 4295, "las Naciones Unidas ": 4296, "van": 4297, "para el per\u00edodo ": 4298, "safet": 4299, "\u00f3 al ": 4300, "risk ": 4301, "personal ": 4302, "<bos>No obstante, ": 4303, "ion ": 4304, "Divisi\u00f3n de ": 4305, "Djibouti": 4306, "cuer": 4307, "Raci": 4308, "aron ": 4309, "al de su ": 4310, "logr": 4311, "egur": 4312, "are not ": 4313, "s its ": 4314, "Cri": 4315, "Derechos ": 4316, "engag": 4317, "al and ": 4318, "obligaciones ": 4319, "o a ": 4320, "ciudadanos ": 4321, "term": 4322, "e for ": 4323, "Coun": 4324, "dad ": 4325, "entre las ": 4326, "respective ": 4327, "spec": 4328, "es, including ": 4329, "Monterre": 4330, "report of the Secretary-General ": 4331, "2005.<eos>": 4332, "con benepl\u00e1cito ": 4333, "octa": 4334, "<bos>d) ": 4335, "Grup": 4336, "respect of ": 4337, "Georgi": 4338, "approxim": 4339, "factor ": 4340, "sobre la base ": 4341, "<bos>While ": 4342, "European Union ": 4343, "vec": 4344, "importantes ": 4345, "tan": 4346, "grave ": 4347, "TE": 4348, "of this ": 4349, "Estad": 4350, "men": 4351, "D ": 4352, "ousand": 4353, "histor": 4354, "his": 4355, "cust": 4356, "relativas a los ": 4357, "ence of ": 4358, "milit": 4359, "<bos>Rule ": 4360, "direct": 4361, "organizations and ": 4362, "facilitate the ": 4363, "determinado ": 4364, "oc": 4365, "mp": 4366, "Glob": 4367, "Jer": 4368, "tion.<eos>": 4369, "pornogr": 4370, "construc": 4371, "ly, ": 4372, "<bos>Article ": 4373, "ation, which ": 4374, "oti": 4375, "Kaz": 4376, "enty-": 4377, "small": 4378, "anu": 4379, "Treaty ": 4380, "de la Asamblea Gener": 4381, "reform": 4382, "as y los ": 4383, "proyectos ": 4384, "Jus": 4385, "as ": 4386, "<bos>En ": 4387, "come ": 4388, "Burkin": 4389, "<bos>All ": 4390, "en ": 4391, "vol": 4392, "context": 4393, "ome ": 4394, "re, ": 4395, "eb": 4396, "that, ": 4397, "terrorism.<eos>": 4398, "tempor": 4399, "puebl": 4400, "contra la ": 4401, "62": 4402, "<bos>Observ": 4403, "government ": 4404, "fundament": 4405, "resp": 4406, "disarm": 4407, "Found": 4408, "\u00f4te d'": 4409, "cip": 4410, "building ": 4411, "apoy": 4412, "ru": 4413, "cipl": 4414, "return": 4415, "victims of ": 4416, "Forum ": 4417, "y.<eos>": 4418, "ensay": 4419, "ue ": 4420, "ame": 4421, "obligatori": 4422, "es in the ": 4423, "Consejo de Seguridad ": 4424, "estaban ": 4425, "s who ": 4426, "out of ": 4427, "ser ": 4428, "ht": 4429, "0 ": 4430, "ed that the ": 4431, "Des": 4432, "guil": 4433, "tasa de ": 4434, "Nucle": 4435, "examinar ": 4436, "\u0160": 4437, "membership ": 4438, "adores ": 4439, "peacekeep": 4440, "actualmente ": 4441, "asociaci\u00f3n ": 4442, "comp": 4443, "\u00eda, ": 4444, "represent": 4445, "grav": 4446, "] ": 4447, "vo": 4448, "called ": 4449, "ere": 4450, "entre la ": 4451, "UNICE": 4452, "educ": 4453, "tro": 4454, "acus": 4455, "cour": 4456, "MA": 4457, "primari": 4458, "empe\u00f1": 4459, "preci": 4460, "asent": 4461, "no ": 4462, "\uf031": 4463, "anterior": 4464, "Im": 4465, "ciplin": 4466, "billi": 4467, "Committe": 4468, "pued": 4469, "objetivo ": 4470, "F ": 4471, "x": 4472, "age of ": 4473, "col": 4474, "prohibi": 4475, "African ": 4476, "3).<eos>": 4477, "dealing ": 4478, "emal": 4479, "trans": 4480, "ugosla": 4481, "s)<eos>": 4482, "oment": 4483, "ital ": 4484, "EA ": 4485, "importance ": 4486, "welfare ": 4487, "made by the ": 4488, "esos ": 4489, "Egip": 4490, "\u00f3rganos ": 4491, "play": 4492, "ants ": 4493, "arrol": 4494, "ato de ": 4495, ", de ": 4496, "consecuencias ": 4497, "Convenci": 4498, "tern": 4499, "under the ": 4500, "recommendations of the ": 4501, "Comision": 4502, "stand": 4503, "encia de la ": 4504, "action.<eos>": 4505, "x ": 4506, "conci": 4507, "related ": 4508, "making ": 4509, "lan": 4510, "services ": 4511, "aliment": 4512, "oto ": 4513, "promulg": 4514, "ation to ": 4515, "vo ": 4516, "como el ": 4517, "summary ": 4518, "explor": 4519, "that it ": 4520, "b) ": 4521, "acknowledg": 4522, "a para ": 4523, "adelant": 4524, "or, ": 4525, "cooperation, ": 4526, "per\u00edodo de sesiones, ": 4527, "const": 4528, "labour ": 4529, "tasas de ": 4530, "sigui": 4531, "for the period ": 4532, "divi": 4533, "voluntari": 4534, "misiones ": 4535, "cada vez ": 4536, "sta ": 4537, "cual ": 4538, "August ": 4539, "fy the ": 4540, "practic": 4541, "\u00e4": 4542, "Plan of ": 4543, "secur": 4544, "stated that ": 4545, "25 ": 4546, "durante los ": 4547, "cambio clim": 4548, "todo el ": 4549, "flow": 4550, "tory ": 4551, "ary, ": 4552, "below ": 4553, "econom\u00eda ": 4554, "ite ": 4555, "a), ": 4556, "s\u00ed ": 4557, "reun": 4558, "of the United Nations, ": 4559, "previst": 4560, "pertinentes ": 4561, "ive ": 4562, "\u00e1, ": 4563, "ne": 4564, "und ": 4565, "<bos>Pi": 4566, "authoriz": 4567, "<bos>T": 4568, "labor de la ": 4569, "lleg": 4570, "indi": 4571, "eron ": 4572, "per\u00edodo ": 4573, "<bos>I": 4574, "medio ": 4575, "Other ": 4576, "de la Carta de ": 4577, "justice ": 4578, "prestar ": 4579, "either ": 4580, "a and ": 4581, "S/AC.26/": 4582, "behalf of the ": 4583, "full ": 4584, "2002.<eos>": 4585, "subst": 4586, "\u00e9mic": 4587, "dis": 4588, "\u00f3n ": 4589, "ick": 4590, "16 ": 4591, "g": 4592, "a\u00f1os.<eos>": 4593, "ethnic ": 4594, "ado en ": 4595, "ares, ": 4596, "without ": 4597, "encia de ": 4598, "arms ": 4599, "Secret": 4600, "their respective ": 4601, "materia de ": 4602, "ado en el ": 4603, "que se han ": 4604, "titulado \u201c": 4605, "ugh ": 4606, "reg": 4607, "two ": 4608, "Isl\u00e1mic": 4609, "United Kingdom": 4610, "more effective ": 4611, "opportun": 4612, "control ": 4613, "modern": 4614, "Law": 4615, "view ": 4616, "Child": 4617, "responsabilidad ": 4618, "network ": 4619, "incluir ": 4620, "f ": 4621, "es de ": 4622, "<bos>Des": 4623, "ogether ": 4624, "Costa Ric": 4625, "esp": 4626, "human rights and fundamental freedom": 4627, "paz ": 4628, "demn": 4629, "Comisi\u00f3n de ": 4630, "uso ": 4631, "Guat": 4632, ") and ": 4633, "de un ": 4634, "convenci": 4635, "ply ": 4636, "d the ": 4637, "descri": 4638, "tech": 4639, "bil": 4640, "conson": 4641, "down ": 4642, ", the Committee ": 4643, "defens": 4644, "constituy": 4645, "children.<eos>": 4646, "e ": 4647, "to, ": 4648, "co-": 4649, "to the United Nations ": 4650, "segundo ": 4651, "fiere ": 4652, "fin": 4653, "suma de ": 4654, "Special Rapporteur on the ": 4655, "p\u00e1rrafo ": 4656, "establece ": 4657, "Ghana, ": 4658, "exha": 4659, "ena ": 4660, "i\u00f3n, ": 4661, "e.<eos>": 4662, "21 ": 4663, "influ": 4664, "tos ": 4665, "israel\u00ed": 4666, "funding ": 4667, "or": 4668, "diversos ": 4669, "promover la ": 4670, "Popular ": 4671, "oles": 4672, "that ": 4673, "T": 4674, "Crime ": 4675, "asu": 4676, "work": 4677, "ources": 4678, "view to ": 4679, "nific": 4680, "debat": 4681, "curr": 4682, "section ": 4683, "rul": 4684, "pide ": 4685, "afirm": 4686, "UNCITRA": 4687, "50 ": 4688, "h) ": 4689, "articles ": 4690, "deben ": 4691, "ato ": 4692, "reduction ": 4693, "Cy": 4694, "previsto ": 4695, "eni": 4696, "ados por la ": 4697, "sis ": 4698, "ratific": 4699, "a con": 4700, "report.<eos>": 4701, "Om": 4702, "sex": 4703, "Lib": 4704, "\u2217": 4705, "el, ": 4706, "including the ": 4707, "productos ": 4708, "osov": 4709, "ruec": 4710, "purpose ": 4711, "much": 4712, "Bah": 4713, "environment ": 4714, "s and the ": 4715, "kill": 4716, "participants ": 4717, "precis": 4718, "familiares ": 4719, "obligaci\u00f3n de ": 4720, "visto ": 4721, "project": 4722, "reclut": 4723, "sponsor": 4724, "would ": 4725, "deber\u00eda ": 4726, "certific": 4727, "estern ": 4728, "Espa\u00f1": 4729, "between ": 4730, "g\u00e9nero ": 4731, "fl": 4732, "pow": 4733, "ally, ": 4734, "les ": 4735, "religi": 4736, "economic and social ": 4737, "Internacion": 4738, "commitment": 4739, "fomento de la capacidad ": 4740, "proteg": 4741, "varios ": 4742, "how ": 4743, "para que ": 4744, "indemnizaci\u00f3n ": 4745, "a.m": 4746, "Ex": 4747, "basic ": 4748, "provisional ": 4749, "ni\u00f1os ": 4750, "Rep\u00fablica ": 4751, "millones de ": 4752, "a se ": 4753, "os de la ": 4754, "reforz": 4755, "Ethiop": 4756, "sexag\u00e9simo ": 4757, "prepared ": 4758, "sob": 4759, "per\u00edodo de sesion": 4760, "cabo ": 4761, "Sur": 4762, "situaciones ": 4763, "<bos>Ello ": 4764, "Georgia, ": 4765, "ed with the ": 4766, "d\u00ed": 4767, "terrorism ": 4768, "<bos>Accord": 4769, "spac": 4770, "fuerzas de ": 4771, "Tim": 4772, "an.<eos>": 4773, "favor ": 4774, "responder ": 4775, "cab": 4776, "pren": 4777, "car": 4778, "inten": 4779, "operational ": 4780, "ci\u00f3n.<eos>": 4781, "Econ": 4782, "unc": 4783, "anto ": 4784, "<bos>Alg": 4785, "they ": 4786, "toda ": 4787, "conoci": 4788, ");<eos>": 4789, "ia, ": 4790, "Board": 4791, "quien ": 4792, "freedom of ": 4793, "derechos y ": 4794, "63": 4795, "Ru": 4796, "regul": 4797, "ong": 4798, "pay ": 4799, "judg": 4800, "pr\u00f3": 4801, "ores, ": 4802, "amiento de las ": 4803, "sel": 4804, "\u00f3 el ": 4805, "an ": 4806, "end ": 4807, "\u00e9tnic": 4808, "had a ": 4809, "Misi\u00f3n de ": 4810, "conflictos ": 4811, "Estados ": 4812, "Jo": 4813, "reuni": 4814, "prev\u00e9 ": 4815, "<bos>They ": 4816, "correspondientes ": 4817, "extradi": 4818, "Reg": 4819, "year": 4820, "some ": 4821, "2006-": 4822, "varias ": 4823, "W": 4824, "scho": 4825, "igh ": 4826, "enes ": 4827, "ahora ": 4828, "caso ": 4829, "justici": 4830, "Monterrey ": 4831, "ice ": 4832, "isc": 4833, "recover": 4834, "utilizaci\u00f3n de ": 4835, "cuando ": 4836, "Consejo Econ\u00f3mico y Social ": 4837, "EM": 4838, "understand": 4839, "X": 4840, "programa provision": 4841, "position ": 4842, "Governments ": 4843, "courts ": 4844, "incre": 4845, "appl": 4846, "abr": 4847, "evelop": 4848, "@": 4849, "formaci\u00f3n ": 4850, "rendici\u00f3n de cuent": 4851, "world.<eos>": 4852, "mechan": 4853, "improvement ": 4854, "ci\u00f3n": 4855, "Assistance ": 4856, "____": 4857, "Pol": 4858, "ados en el ": 4859, "encarg": 4860, "ha ": 4861, "decla": 4862, "1997": 4863, "OPS": 4864, "<bos>Tambi\u00e9n ": 4865, "population ": 4866, "legitimate ": 4867, "Isra": 4868, "derechos humanos y las ": 4869, "strategy ": 4870, "ability to ": 4871, "Advisory Committee on Administr": 4872, "ejecuci\u00f3n ": 4873, "\u00ea": 4874, "pr\u00e1ctica ": 4875, "rem": 4876, "profesion": 4877, "Discrimination ": 4878, "ties and ": 4879, "Covenant": 4880, "per\u00edodo de ses": 4881, "res.<eos>": 4882, "am ": 4883, "desempe\u00f1": 4884, "inmediat": 4885, "strengthening the ": 4886, "est": 4887, "ound ": 4888, "Senegal, ": 4889, "100 ": 4890, "system of ": 4891, "ado por la ": 4892, "correspon": 4893, "ara ": 4894, "aller": 4895, "raft ": 4896, "including ": 4897, "a\u00fan ": 4898, "as, ": 4899, "appropri": 4900, "ven ": 4901, "os de las ": 4902, "Popul": 4903, "Australia, ": 4904, "o y las ": 4905, "en relaci\u00f3n ": 4906, "resultados ": 4907, "Ejecu": 4908, "empresari": 4909, "sido ": 4910, "A/C.5/": 4911, "a de ": 4912, "ed a ": 4913, "las Naciones Unidas": 4914, "violence ": 4915, "iniciativas ": 4916, "epid": 4917, "Uni\u00f3n Europea ": 4918, "e (": 4919, "conocimientos ": 4920, "that are ": 4921, "L\u00ed": 4922, "oci": 4923, "arbitr": 4924, "Cooperation ": 4925, "victim": 4926, "elop": 4927, "despit": 4928, "out ": 4929, "UNEP": 4930, "lam": 4931, "e to ": 4932, "Protection of ": 4933, "proveed": 4934, "cumb": 4935, "gastos ": 4936, "long ": 4937, "Afganist": 4938, "partir del ": 4939, "tic": 4940, "encuentr": 4941, "notific": 4942, "provide ": 4943, "Cap": 4944, "en su resoluci\u00f3n ": 4945, "ub": 4946, "solid": 4947, "mundial ": 4948, "biennium ": 4949, "ent ": 4950, "ho": 4951, "civiles ": 4952, "tiz": 4953, "bo": 4954, "habilit": 4955, "living ": 4956, "king ": 4957, "simo ": 4958, "ting ": 4959, "ted and ": 4960, "armoniz": 4961, "sistemas ": 4962, "disposici\u00f3n ": 4963, "view of the ": 4964, "estados ": 4965, "<bos>Informe ": 4966, "comments ": 4967, "con cargo ": 4968, "Consejo de Seguridad.<eos>": 4969, "Rw": 4970, "ed in a ": 4971, "Sala ": 4972, "in": 4973, "\u00f3n, ": 4974, "padres ": 4975, "R": 4976, "present": 4977, "Derech": 4978, "ously ": 4979, "approach to ": 4980, "sit": 4981, "estu": 4982, "aci\u00f3n y ": 4983, "UU": 4984, "old": 4985, "Cru": 4986, "acci\u00f3n ": 4987, "Terror": 4988, "<bos>Por lo ": 4989, "suffer": 4990, "show": 4991, "cam": 4992, "material ": 4993, "tribun": 4994, "Reglament": 4995, "participaron ": 4996, "secu": 4997, "ground ": 4998, "lif": 4999, "evalu": 5000, "up ": 5001, "partir ": 5002, "/Add": 5003, "akist": 5004, "dang": 5005, "ist": 5006, ".6": 5007, "plazo ": 5008, "Isl": 5009, "hous": 5010, "regard": 5011, "implementation ": 5012, "Uk": 5013, "cabe ": 5014, "zbe": 5015, "pursuant to ": 5016, "art\u00ed": 5017, "analy": 5018, "prim": 5019, "fel": 5020, "aci\u00f3n de la ": 5021, "organizaciones ": 5022, "project ": 5023, "gran ": 5024, "relacionadas ": 5025, "<bos>Requests the ": 5026, "erci": 5027, "in paragraph ": 5028, "II ": 5029, "regarding the ": 5030, "os que ": 5031, "VIH": 5032, "equili": 5033, "<bos>C": 5034, "y a ": 5035, "qu": 5036, "continuaci\u00f3n ": 5037, "specific ": 5038, "Protoco": 5039, "must ": 5040, "pal": 5041, "Security Council ": 5042, "eridi": 5043, "distribu": 5044, "Sy": 5045, "2 del ": 5046, "es, el ": 5047, "rain": 5048, "directric": 5049, "Police ": 5050, "\u00ba": 5051, "con respecto al ": 5052, "grand": 5053, "conflict, ": 5054, "ado.<eos>": 5055, "which was ": 5056, "embre ": 5057, "a los Estados ": 5058, "evolu": 5059, "<bos>El Comit\u00e9 ": 5060, "/2": 5061, "es that ": 5062, "regim": 5063, "procurement ": 5064, "plen": 5065, "solidar": 5066, "Australi": 5067, "aster ": 5068, "United Nations High Commissioner for ": 5069, "Rev.1": 5070, "amenaz": 5071, "estrecha ": 5072, "Argentin": 5073, "brief": 5074, "os o ": 5075, ".00 ": 5076, "to ensure that ": 5077, "seas": 5078, "untos ": 5079, "s, and ": 5080, "Trat": 5081, "me of ": 5082, "os por ": 5083, "such as the ": 5084, "Croaci": 5085, "es with ": 5086, "Political ": 5087, "realizar ": 5088, "has been ": 5089, "<bos>Introduction<eos>": 5090, "Commission on the ": 5091, "adoles": 5092, "personas con discapacidad ": 5093, "rian ": 5094, "todo el mund": 5095, "arc": 5096, "<bos>Medi": 5097, "United Nations ": 5098, "read": 5099, "echtenste": 5100, "ected ": 5101, "<bos>Item ": 5102, "ab": 5103, "parte de ": 5104, "Grupo de Trabaj": 5105, "draft ": 5106, "Civil": 5107, "til ": 5108, "implementation of the ": 5109, "weapon": 5110, "an en el ": 5111, "sembl": 5112, "focused ": 5113, "campa\u00f1": 5114, "gel": 5115, "popul": 5116, "ta, ": 5117, "unci": 5118, "del Comit\u00e9": 5119, "establec": 5120, "Ses": 5121, "Panel ": 5122, "food ": 5123, "\u00a7": 5124, "ning": 5125, "iz": 5126, "significativ": 5127, "ing and ": 5128, "<bos>Asimismo, ": 5129, "Agreement ": 5130, "ison ": 5131, "refugee ": 5132, "evaluation ": 5133, "once ": 5134, "enes": 5135, "ofici": 5136, "ely.<eos>": 5137, "obiliz": 5138, "relacion": 5139, "financiera ": 5140, "Organiz": 5141, "ismo ": 5142, "<bos>15": 5143, "tiempo ": 5144, "clar": 5145, "social and ": 5146, "depend": 5147, "es;<eos>": 5148, "C\u00f4te d'Ivoire, ": 5149, "apoyo ": 5150, "Statis": 5151, "pp": 5152, "2005, ": 5153, "capaci": 5154, "preparaci\u00f3n de ": 5155, "require": 5156, "/L": 5157, "consistent ": 5158, "dem\u00e1s ": 5159, "es a ": 5160, "\u201d y ": 5161, "ales": 5162, "adi": 5163, "Minist": 5164, "sec": 5165, "gu": 5166, ".5": 5167, "<bos>El Presidente ": 5168, "more than ": 5169, "9 ": 5170, "viol": 5171, "sexto ": 5172, "nes": 5173, "\u00e9t": 5174, "podr\u00e1n ": 5175, "ables.<eos>": 5176, "delit": 5177, ". S": 5178, "de": 5179, "group": 5180, "cho": 5181, "representative of ": 5182, "encia de los ": 5183, "compri": 5184, "conf": 5185, "foment": 5186, "eleg": 5187, "ICE": 5188, "ya, ": 5189, "neighb": 5190, "genous ": 5191, "cuestiones ": 5192, "V ": 5193, "ant ": 5194, "lideraz": 5195, ".2": 5196, "uni": 5197, "000": 5198, "in de ": 5199, "Migr": 5200, "<bos>Agenda ": 5201, "Conferencia de ": 5202, "Eslo": 5203, "bid": 5204, "org\u00e1nic": 5205, "fond": 5206, "pas": 5207, "a trav\u00e9s ": 5208, "Forest": 5209, "Ric": 5210, "casi": 5211, "comunic": 5212, "line ": 5213, "aprobado el ": 5214, "juli": 5215, "representative ": 5216, "eful ": 5217, "rights of ": 5218, "claim ": 5219, "carried out ": 5220, " y ": 5221, "duties ": 5222, "sustainable ": 5223, "tive ": 5224, "conditions ": 5225, "L ": 5226, "Gobierno del ": 5227, "garantizar la ": 5228, "libertades ": 5229, "dido ": 5230, "o, los ": 5231, "Desarrollo Sosteni": 5232, "sesiones ": 5233, "socio": 5234, ".4 ": 5235, "fire": 5236, "Staff ": 5237, "physical ": 5238, "better ": 5239, "Tor": 5240, "<bos>En este ": 5241, "ante": 5242, "identi": 5243, "iduci": 5244, "dur": 5245, "participate in the ": 5246, "es to the ": 5247, "decision-making ": 5248, "\u2014": 5249, "sm": 5250, "State part": 5251, "area of ": 5252, "almente, ": 5253, "established ": 5254, "February ": 5255, "regiones ": 5256, "South-": 5257, "ar que se ": 5258, "annex ": 5259, "avances ": 5260, "junto ": 5261, "Assist": 5262, "num": 5263, "con benepl\u00e1ci": 5264, "nacional, ": 5265, "describ": 5266, "implement ": 5267, "o no ": 5268, "safegu": 5269, "mente, ": 5270, "se celebr": 5271, "yec": 5272, "hope that ": 5273, "llev": 5274, "ul": 5275, "as the ": 5276, "can ": 5277, "Subcom": 5278, "cuyos ": 5279, "appropriate ": 5280, "miento ": 5281, "\u00f3 a la ": 5282, "Protocolo de ": 5283, "UNHCR ": 5284, "criminal ": 5285, "mecanismo ": 5286, "incu": 5287, "which, ": 5288, "implemen": 5289, "Qat": 5290, ") of ": 5291, "produc": 5292, "tenido ": 5293, "does ": 5294, "crisi": 5295, "Clim": 5296, "instal": 5297, "ario ": 5298, "Europe": 5299, "Irlanda del Nor": 5300, "z ": 5301, "genocidi": 5302, "girl": 5303, "compro": 5304, "Bud": 5305, "a,<eos>": 5306, "proced": 5307, "escol": 5308, "S/AC.2": 5309, "Millennium ": 5310, "auth": 5311, "\u00e0": 5312, "collabor": 5313, "source ": 5314, "os y las ": 5315, "Instituto ": 5316, "Thail": 5317, "con el ": 5318, "Octob": 5319, "ar un ": 5320, "Vi": 5321, "tions and ": 5322, "7 (": 5323, "<bos>4": 5324, "Women": 5325, "plic": 5326, "conex": 5327, "to ensure the ": 5328, "o los ": 5329, "Ne": 5330, "Consejo Econ\u00f3mico y Soci": 5331, "23 ": 5332, "te ": 5333, ", we ": 5334, "<bos>2": 5335, "every": 5336, "General ": 5337, "Junt": 5338, "need to ": 5339, "and to ": 5340, "s of ": 5341, "ani": 5342, "tent": 5343, "; and (": 5344, "Consejo de ": 5345, "Fi": 5346, "water ": 5347, "Add": 5348, "off": 5349, "andia, ": 5350, "impedi": 5351, "H": 5352, "primer ": 5353, "remains ": 5354, "\u00eda ": 5355, "9/": 5356, "ados a ": 5357, "undertak": 5358, "wom": 5359, "del Comit\u00e9 ": 5360, "space ": 5361, "que\u00f1": 5362, "institutions ": 5363, "grad": 5364, "play ": 5365, "compar": 5366, "sed ": 5367, "de los ": 5368, "General Assembl": 5369, "ala ": 5370, "\u00f4te d'Ivo": 5371, "gric": 5372, "Doha ": 5373, "Support ": 5374, "Nairobi": 5375, "abril de ": 5376, "cure": 5377, "with": 5378, "recibi": 5379, "de la Convenci\u00f3n ": 5380, "inspec": 5381, "abilities ": 5382, "support to ": 5383, "de la C": 5384, "topic": 5385, "Secretary ": 5386, "amente la ": 5387, "recommends that the State party ": 5388, "Law on ": 5389, ").<eos>": 5390, "skill": 5391, "en cuenta las ": 5392, "combin": 5393, "Go": 5394, "o de ": 5395, "periodic ": 5396, "pri": 5397, "contain": 5398, "grupos de ": 5399, "\u00e1rab": 5400, "Exteri": 5401, "cost": 5402, "me, ": 5403, "long": 5404, "mecanismos ": 5405, "val": 5406, "era ": 5407, "tan ": 5408, "them": 5409, "dirigid": 5410, "ement of ": 5411, "stri": 5412, "subsequ": 5413, "adopt": 5414, "fin de ": 5415, "social, ": 5416, "aud": 5417, "2004, ": 5418, "Tema ": 5419, "mic": 5420, "vigor ": 5421, "reiter": 5422, "Island": 5423, "process.<eos>": 5424, "<bos>Ac": 5425, "acti": 5426, "destr": 5427, "er ": 5428, "verb": 5429, "<bos>Wel": 5430, "podr\u00eda ": 5431, "speci": 5432, "ados en ": 5433, "observer": 5434, "Committee ": 5435, "escu": 5436, "in this ": 5437, "importancia de ": 5438, "ag": 5439, "ministr": 5440, "net": 5441, "October ": 5442, "Maur": 5443, "vol. ": 5444, "a que ": 5445, "respecto de ": 5446, "als, ": 5447, "ollow": 5448, "primor": 5449, "Presidente del Consejo de Seguridad ": 5450, "sistema ": 5451, "included ": 5452, "voluntarios internacionales de ": 5453, "<bos>H": 5454, "otras ": 5455, "Programme ": 5456, "contin\u00fa": 5457, "Nov": 5458, "Filipin": 5459, "transmit": 5460, "ch": 5461, "impact ": 5462, "entre otras ": 5463, "1\u00b0 de julio de 200": 5464, "asociados ": 5465, "de sus ": 5466, "mit ": 5467, "Office of the United Nations High Commissioner for ": 5468, "ed in the ": 5469, "Declaration ": 5470, "coordin": 5471, "amo": 5472, "Inf": 5473, "proyecto ": 5474, "organiz": 5475, "mandate ": 5476, "Tanz": 5477, "tom": 5478, "aciones de ": 5479, "word": 5480, "estric": 5481, "Asamblea General ": 5482, "Plan de ": 5483, "constitu": 5484, "ol": 5485, "addres": 5486, "poblaci\u00f3n ": 5487, "reproductive ": 5488, "electoral ": 5489, "presid": 5490, "osi": 5491, "public ": 5492, "perman": 5493, "vul": 5494, "pue": 5495, "expres": 5496, "estrat\u00e9gic": 5497, "estrechamente ": 5498, "consul": 5499, "|": 5500, "comprometi": 5501, "achieve ": 5502, "offic": 5503, "The": 5504, "relativos ": 5505, "ain": 5506, " L": 5507, "confirm": 5508, "sou": 5509, "empl": 5510, "can be ": 5511, "attention to the ": 5512, "Jord": 5513, "di\u00e1logo ": 5514, "for a ": 5515, "real ": 5516, "Corte ": 5517, "algun": 5518, "cuesti": 5519, "56/2": 5520, "Ofici": 5521, "th ": 5522, "amiento de los ": 5523, "parent": 5524, "total de ": 5525, "aci\u00f3n de un ": 5526, "def": 5527, "approximately ": 5528, "autoriz": 5529, "delegations ": 5530, " de juni": 5531, "ship": 5532, "gre": 5533, "Som": 5534, "esi\u00f3n ": 5535, "eva ": 5536, "society ": 5537, "XV": 5538, "perten": 5539, "labor del ": 5540, "agrap": 5541, "ow": 5542, "responsibility ": 5543, "Syrian ": 5544, "train": 5545, "conflict ": 5546, "Bra": 5547, "role of ": 5548, "increase in ": 5549, "ity of ": 5550, "consequ": 5551, "ation, the ": 5552, "every ": 5553, "no se ": 5554, "libertad de ": 5555, "esencial ": 5556, "ESCO ": 5557, "an (": 5558, "AP": 5559, "ocr": 5560, "work for ": 5561, "pa\u00edses en ": 5562, "relations ": 5563, "cuadro de ": 5564, "as an ": 5565, "refuge": 5566, "decid": 5567, "hut": 5568, "underst": 5569, "abi": 5570, "there were ": 5571, "ados, ": 5572, "Dinam": 5573, "Records of the ": 5574, "esfer": 5575, "ques ": 5576, "foreign ": 5577, "but ": 5578, "also ": 5579, "en este ": 5580, "Mauriti": 5581, "adapt": 5582, "amiento, ": 5583, "son ": 5584, "dr": 5585, "Member States ": 5586, "tori": 5587, "pa\u00edses de ": 5588, "inv": 5589, "ional ": 5590, "THE ": 5591, "v\u00edctim": 5592, "aci\u00f3n de los ": 5593, ",3": 5594, "en las ": 5595, "<bos>On": 5596, "dice ": 5597, "orden": 5598, "Arab": 5599, "de la Ley ": 5600, "as it ": 5601, "mer": 5602, "ates the ": 5603, "Myan": 5604, "Conference ": 5605, "y ": 5606, "return to ": 5607, "pl": 5608, "<bos>The President": 5609, "queda ": 5610, "cul": 5611, "2001.<eos>": 5612, "set up ": 5613, "dichos ": 5614, "1 ": 5615, "lar": 5616, "han ": 5617, "issues ": 5618, "as de las ": 5619, ".g": 5620, "agot": 5621, "198": 5622, "at the ": 5623, "sistemas de ": 5624, "propos": 5625, "decision": 5626, "subsidi": 5627, "international humanitarian ": 5628, "other than ": 5629, "<bos>As": 5630, "owner": 5631, "e of the ": 5632, "embar": 5633, "8": 5634, "ations and ": 5635, "peligr": 5636, "Strateg": 5637, "Conveni": 5638, "Azerbaiy": 5639, "Eritre": 5640, "novi": 5641, "\u00ba ": 5642, "Soci": 5643, "agr\u00ed": 5644, "produci": 5645, "to provide ": 5646, "transl": 5647, "correspondiente ": 5648, "activi": 5649, "condi": 5650, "as a result of ": 5651, "level": 5652, "Bulg": 5653, "bre": 5654, "de la mujer ": 5655, "plazo de ": 5656, "bon": 5657, "thir": 5658, "peti": 5659, "tortur": 5660, "os se ": 5661, "\u00c1": 5662, "abuse ": 5663, "Frame": 5664, "ism ": 5665, "almente ": 5666, "preventiv": 5667, "adoptar ": 5668, "establishment of the ": 5669, "E ": 5670, "priv": 5671, "accoun": 5672, "ably ": 5673, "e the ": 5674, "Ori": 5675, "Distric": 5676, "2000.<eos>": 5677, "out the ": 5678, "establish ": 5679, "requisi": 5680, "as; ": 5681, "expert": 5682, "m\u00e9tod": 5683, "2009": 5684, "had been ": 5685, "idas ": 5686, "anz": 5687, "Marruec": 5688, "mos ": 5689, "workers ": 5690, "ative ": 5691, "en materia de ": 5692, "armas de destrucci\u00f3n en ": 5693, "OC": 5694, "te, ": 5695, "La ": 5696, "en and ": 5697, "live ": 5698, "Action ": 5699, "\u00c1r": 5700, "Tok": 5701, "take place ": 5702, "\u00e9gic": 5703, "ost ": 5704, "just": 5705, "o y la ": 5706, "resolutions ": 5707, "cruel": 5708, "treaty ": 5709, "island ": 5710, "nerg": 5711, "acompa\u00f1": 5712, "crit": 5713, "es del ": 5714, "del": 5715, "m\u00e1s de ": 5716, "areas ": 5717, "respe": 5718, "before the ": 5719, "headquarter": 5720, "\u00e1ci": 5721, "\u00f3 que el ": 5722, "Sm": 5723, "$": 5724, "hab": 5725, "\u00e9s ": 5726, "ator ": 5727, "go ": 5728, "mir": 5729, "data ": 5730, "refugiados ": 5731, "New ": 5732, "e un ": 5733, "minas ": 5734, "2004": 5735, "faci": 5736, "s": 5737, "principalmente ": 5738, "tercera ": 5739, "comercio ": 5740, "en ese ": 5741, "ign ": 5742, "lat": 5743, "Form": 5744, "terrorismo ": 5745, "school": 5746, "period of ": 5747, "domestic ": 5748, "aci\u00f3n, el ": 5749, "incluy": 5750, "formas de ": 5751, "<bos>While the ": 5752, "governmental ": 5753, "ador ": 5754, "\u00edndol": 5755, "Millennium Development Go": 5756, "me": 5757, "recommend": 5758, "arlos ": 5759, "Development": 5760, "<bos>N": 5761, "tail": 5762, "during ": 5763, "ales ": 5764, "envi": 5765, "cooperation and ": 5766, "Afghanist": 5767, "<bos>To ": 5768, "session.<eos>": 5769, "PNUMA ": 5770, "grow": 5771, "entire ": 5772, "Econom": 5773, "Ad": 5774, "shar": 5775, "ess ": 5776, "day": 5777, "above, ": 5778, "55/": 5779, "scienti": 5780, "decir": 5781, "es, la ": 5782, "diversas ": 5783, "favour": 5784, "im": 5785, "escala ": 5786, "\u00f3 a ": 5787, "% de los ": 5788, "State ": 5789, "ada en ": 5790, "ida cuent": 5791, "ed an ": 5792, "actor": 5793, "rez": 5794, "recomienda que el ": 5795, "5 ": 5796, "abord": 5797, "derechos humanos y las libertades ": 5798, "Seguridad ": 5799, "provided by the ": 5800, "her ": 5801, "<bos>Tema ": 5802, "Grupo ": 5803, "arrangement": 5804, "ator": 5805, "imb": 5806, "dated ": 5807, "ory ": 5808, "mutu": 5809, "s' ": 5810, "civilian ": 5811, "25 (": 5812, "a report ": 5813, "t\u00e9": 5814, "prevenir ": 5815, "autoridad ": 5816, "Sal": 5817, "decidi\u00f3 ": 5818, "ra\u00ed": 5819, "reproduc": 5820, "Fam": 5821, "raise ": 5822, "a que el ": 5823, "o;<eos>": 5824, "2003, ": 5825, "establecido ": 5826, "muchos ": 5827, "comprome": 5828, "Vol": 5829, "a la Asamblea General ": 5830, "contributions ": 5831, "sostenibl": 5832, "\u00f3gic": 5833, "aplicaci\u00f3n del ": 5834, "leader": 5835, "o del ": 5836, "ari": 5837, "red": 5838, "<bos>Particip": 5839, "&": 5840, "l\u00ed": 5841, "ci\u00f3n y la ": 5842, "<bos>Organiz": 5843, "progresos realiz": 5844, "cr\u00e9": 5845, "fer of ": 5846, "adopci\u00f3n de ": 5847, "might ": 5848, "Tas": 5849, " de febrer": 5850, "\u00f3n": 5851, "\u00edfic": 5852, "dos ": 5853, "vent": 5854, "EN": 5855, "fal": 5856, "en a los ": 5857, "Court.<eos>": 5858, "Group ": 5859, "G ": 5860, "Do": 5861, "submitted to the ": 5862, "drog": 5863, "internacion": 5864, "ser": 5865, "\u00ef": 5866, "ocimient": 5867, "list": 5868, "2008 ": 5869, "alu": 5870, "ences and ": 5871, "ente del ": 5872, "jur": 5873, "2007.<eos>": 5874, "women.<eos>": 5875, "ation by ": 5876, "tak": 5877, "self": 5878, "ra": 5879, "desarrollo, ": 5880, "al de la ": 5881, "women in ": 5882, "not only ": 5883, "ve ": 5884, "edi": 5885, "aci\u00f3n que ": 5886, "Centr": 5887, "ch ": 5888, "nacional ": 5889, "es y ": 5890, "ember ": 5891, "main": 5892, "ofrecer ": 5893, "org": 5894, "relativas ": 5895, "education and ": 5896, "ast": 5897, "acuerd": 5898, "fifty-": 5899, "efficient ": 5900, "destac": 5901, "ries": 5902, "1 y ": 5903, "Fac": 5904, "reporting ": 5905, "challeng": 5906, "enterpri": 5907, "emen": 5908, "(": 5909, "consci": 5910, "bas": 5911, "attend": 5912, "<bos>Invit": 5913, " de su ": 5914, "First ": 5915, "communi": 5916, "Democr\u00e1tic": 5917, "y out ": 5918, "Chairman ": 5919, "Venez": 5920, "Conse": 5921, "tions of ": 5922, "=": 5923, "/AID": 5924, "at its fifty-": 5925, "igual": 5926, "incluidos ": 5927, "allow ": 5928, "programas de ": 5929, "ordinary ": 5930, "siguientes ": 5931, "liter": 5932, "urban ": 5933, "mediante la ": 5934, "ania, ": 5935, "work of ": 5936, "debates ": 5937, "Braz": 5938, "succes": 5939, "importance of ": 5940, "ciudadan": 5941, "Bosnia and Herzegovin": 5942, "IP": 5943, "<": 5944, "respect ": 5945, "include ": 5946, "commitments ": 5947, "v\u00edn": 5948, "dev": 5949, "right": 5950, "ich": 5951, "<bos>P": 5952, "cr\u00e9dit": 5953, "poco ": 5954, "use ": 5955, "EE.UU": 5956, "plac": 5957, "ities ": 5958, "indigenous ": 5959, "<bos>D": 5960, "violencia ": 5961, "embol": 5962, "artic": 5963, "through its ": 5964, "complet": 5965, "ado para ": 5966, "d\u00eda ": 5967, "P-": 5968, "no.<eos>": 5969, "\u00f4": 5970, "es<eos>": 5971, "te": 5972, "care": 5973, "referred ": 5974, "far ": 5975, "ting": 5976, "key ": 5977, "se\u00f1": 5978, "<bos>It also ": 5979, "appreciation ": 5980, "asyl": 5981, "<bos>The United Nations ": 5982, "provi": 5983, "an": 5984, "retir": 5985, "alien": 5986, "nu": 5987, "implementation of ": 5988, "preneur": 5989, "ic ": 5990, "nuestros ": 5991, "Declaraci\u00f3n del Mileni": 5992, "categor\u00edas ": 5993, "teng": 5994, "Lati": 5995, "prior": 5996, "hace ": 5997, "pon": 5998, "circunstanci": 5999, "ok": 6000, "even": 6001, "human": 6002, "ado de la ": 6003, "flo": 6004, "tin": 6005, "New Z": 6006, "promotion of ": 6007, "administrativ": 6008, "las organizaciones ": 6009, "receiv": 6010, "since ": 6011, "ish ": 6012, "financing ": 6013, "<bos>Cap": 6014, "any ": 6015, "Presid": 6016, "<bos>": 6017, "aj": 6018, "tion ": 6019, "Force ": 6020, "L\u00edban": 6021, "nov": 6022, "el ": 6023, "fect": 6024, "consultas ": 6025, "\u00ba per\u00edodo de sesiones ": 6026, "promo": 6027, "with respect to ": 6028, "Uni": 6029, "adas.<eos>": 6030, "Dinamarc": 6031, "Co": 6032, "report": 6033, "pa\u00f1": 6034, "itari": 6035, "a number of ": 6036, "igualdad de ": 6037, "Convention on ": 6038, "United Stat": 6039, "principi": 6040, "mak": 6041, "human ": 6042, "resources": 6043, "representante ": 6044, "substan": 6045, "es and the ": 6046, "ones de ": 6047, "m ": 6048, "alogu": 6049, "hecho de ": 6050, "problem ": 6051, "Gu": 6052, "intensific": 6053, "course, ": 6054, "countries, ": 6055, "States parties ": 6056, "against ": 6057, "es for the ": 6058, "mech": 6059, "SP": 6060, "racial ": 6061, "Trin": 6062, "e": 6063, "UNCTAD": 6064, "ure ": 6065, "ores de ": 6066, "hic": 6067, "recomendaciones ": 6068, "sustan": 6069, "Jur\u00eddic": 6070, "countries and ": 6071, "commission": 6072, "B": 6073, "CO": 6074, "sustitu": 6075, "y: ": 6076, "a\u00f1o.<eos>": 6077, "tion": 6078, "pread ": 6079, "a y la ": 6080, "dose ": 6081, "these ": 6082, "forward ": 6083, "A (": 6084, "v": 6085, "?": 6086, "respal": 6087, "from 1 ": 6088, "fe": 6089, "toma not": 6090, "p": 6091, "cid": 6092, "autoridades ": 6093, "contrac": 6094, "tion in ": 6095, "TA": 6096, ".<eos>": 6097, "supervisi\u00f3n ": 6098, "adap": 6099, "nogr": 6100, "2005 ": 6101, "civil ": 6102, "char": 6103, "9, ": 6104, "danger": 6105, "adamente ": 6106, "rup": 6107, "as<eos>": 6108, "itself ": 6109, "cuad": 6110, "ando los ": 6111, "ados.<eos>": 6112, "centres ": 6113, "devo": 6114, "alizaci\u00f3n ": 6115, "asegur": 6116, "19 ": 6117, "encia y ": 6118, "ish": 6119, "diferentes ": 6120, "concrete ": 6121, "Afric": 6122, "juni": 6123, "or de ": 6124, "conclu": 6125, "tim": 6126, "ing a ": 6127, "Asi": 6128, "os para ": 6129, "a por ": 6130, "despli": 6131, "pertin": 6132, "orld": 6133, "langu": 6134, "inter ali": 6135, "seguimiento ": 6136, "estat": 6137, "taken by ": 6138, "peque\u00f1": 6139, "Parties ": 6140, "international community ": 6141, "Gr": 6142, "sed the ": 6143, "ig": 6144, "Advisory ": 6145, "rob": 6146, "actos de ": 6147, "s (": 6148, "legitim": 6149, "equi": 6150, "process and ": 6151, "or other ": 6152, "active ": 6153, "volunt": 6154, "<bos>Estas ": 6155, "Rusi": 6156, " and ": 6157, "de al Secretario General que ": 6158, "<bos>Por consiguiente, ": 6159, "event": 6160, "/6": 6161, "gesti\u00f3n ": 6162, "aged ": 6163, "texto ": 6164, "<bos>Ad": 6165, "party ": 6166, "echten": 6167, "Super": 6168, "totalmente ": 6169, "\u0176": 6170, "preciso ": 6171, "\".<eos>": 6172, "should be ": 6173, "procedures ": 6174, "ectiv": 6175, "Counci": 6176, "role in ": 6177, "\u00faltimos ": 6178, "Division ": 6179, "regular ": 6180, "migration ": 6181, "Conferencia ": 6182, "still ": 6183, "Pri": 6184, "e el ": 6185, "per cent ": 6186, "ante, ": 6187, "con sus ": 6188, "on of ": 6189, "processes ": 6190, "c": 6191, "protec": 6192, "participar ": 6193, "compet": 6194, "ci\u00f3n del ": 6195, "Nig": 6196, "pertur": 6197, "<bos>El ": 6198, "Geor": 6199, "ton": 6200, "organizations, ": 6201, "rules of procedur": 6202, "h\u00ed": 6203, "suficiente ": 6204, "structur": 6205, "pot": 6206, "posible ": 6207, "lo que respect": 6208, "ales;<eos>": 6209, "garantizar el ": 6210, "bet": 6211, "desech": 6212, "Mar": 6213, "lov": 6214, "econ\u00f3mica ": 6215, "perpe": 6216, "UND": 6217, "colectiv": 6218, "votaci\u00f3n ": 6219, "Macedonia, ": 6220, "set": 6221, "govern": 6222, "como la ": 6223, "<bos>Com": 6224, "ejecutiv": 6225, "2000 ": 6226, "\u00b0 ": 6227, "development.<eos>": 6228, "ject": 6229, "UNCTAD ": 6230, "hum": 6231, "IN": 6232, "t.<eos>": 6233, "castig": 6234, "delito ": 6235, "ingl": 6236, "Tokel": 6237, "comb": 6238, "osteni": 6239, "r\u00e1 ": 6240, "compromisos ": 6241, "do a ": 6242, "Ci": 6243, "system": 6244, "bien": 6245, "atori": 6246, "objective ": 6247, "reservations ": 6248, "Mil": 6249, "presupuest": 6250, "deleg": 6251, "tion and ": 6252, "stric": 6253, "lista de ": 6254, "s are ": 6255, "oportunidades de ": 6256, "ated the ": 6257, "fil ": 6258, "unities ": 6259, "s<eos>": 6260, "series of ": 6261, "Estonia, ": 6262, "ro": 6263, "\u00edci": 6264, "estrech": 6265, "emente ": 6266, "te.<eos>": 6267, "procedimientos ": 6268, "Op": 6269, "Indones": 6270, "asistieron ": 6271, "are": 6272, "vulnerable ": 6273, "<bos>a) ": 6274, "received ": 6275, "son los ": 6276, "IR": 6277, "15, ": 6278, "muc": 6279, "sobre las ": 6280, "destruc": 6281, "o de las Naciones Unidas ": 6282, "bodies and ": 6283, "et ": 6284, "Facultativ": 6285, "UNF": 6286, "egr": 6287, "mat": 6288, "consigu": 6289, "oficial ": 6290, "aplicaci\u00f3n de la ": 6291, "personnel ": 6292, "v\u00ed": 6293, "address": 6294, "report, ": 6295, "<bos>During the ": 6296, "Panam": 6297, "Oper": 6298, "indemn": 6299, "<bos>The State party should ": 6300, "utiliz": 6301, "report ": 6302, "knowledg": 6303, "para los ": 6304, "\u00eda y ": 6305, "esfuerzos para ": 6306, "nacionales ": 6307, "coming ": 6308, "37 ": 6309, "regist": 6310, "it is ": 6311, "mun": 6312, "cual": 6313, "to": 6314, "bi": 6315, "eas": 6316, "ros": 6317, "<bos>Art\u00edculo ": 6318, "\u00f3, ": 6319, "\u0107": 6320, ". ": 6321, "ever ": 6322, "ONF": 6323, "j": 6324, "part ": 6325, "directrices ": 6326, "implement the ": 6327, "american": 6328, "miti": 6329, "pr": 6330, "medidas adoptadas ": 6331, "there are ": 6332, "children ": 6333, "CA": 6334, "versi": 6335, "reintegr": 6336, "195": 6337, "ed of ": 6338, "<bos>Para ": 6339, "Mantenimiento de la Paz": 6340, " de ener": 6341, "los": 6342, "intereses ": 6343, "\u00edr": 6344, "Los ": 6345, "igualdad ": 6346, "competi": 6347, "modific": 6348, "ations<eos>": 6349, "197": 6350, "s,<eos>": 6351, "eridion": 6352, "rang": 6353, "United Nations, ": 6354, "al nivel ": 6355, "\u00c1rab": 6356, "and/or ": 6357, "nacionales de ": 6358, "vigil": 6359, "saber ": 6360, "per\u00edodo de sesiones<eos>": 6361, "to de la ": 6362, "Pol\u00edtica ": 6363, "\u011f": 6364, "oportunidad de ": 6365, "<bos>Es": 6366, "traffick": 6367, "acuerdo de ": 6368, "Tec": 6369, "continu": 6370, "arta de ": 6371, "potenci": 6372, "presupuesto por ": 6373, "urs": 6374, "gentin": 6375, "my ": 6376, "Reuni\u00f3n ": 6377, "HIV": 6378, "cifr": 6379, "debemos ": 6380, "empe": 6381, "ainst ": 6382, "Pro": 6383, "pa\u00edses.<eos>": 6384, "ily ": 6385, "encias de ": 6386, "sane": 6387, "conditions for ": 6388, "'": 6389, "aten": 6390, "Consejo de Segur": 6391, "3 y ": 6392, "asses": 6393, "year.<eos>": 6394, "z": 6395, "members of the ": 6396, "fare ": 6397, "-L": 6398, "delegaci\u00f3n ": 6399, "ng ": 6400, "/CP": 6401, "bar": 6402, "orientaci\u00f3n ": 6403, "centre ": 6404, "alternativ": 6405, "at": 6406, "justicia ": 6407, "apoyo a las ": 6408, "urgente ": 6409, "resoluciones ": 6410, "proposed ": 6411, "United ": 6412, "en a ": 6413, "adoption of the ": 6414, "accord": 6415, "Dis": 6416, "commercial ": 6417, "2": 6418, "diom": 6419, ", el ": 6420, "low": 6421, "<bos>In the ": 6422, "intern": 6423, "Nueva York": 6424, "they are ": 6425, "muner": 6426, "camp": 6427, " (": 6428, "*<eos>": 6429, "act ": 6430, "p\u00e1r": 6431, "<bos>Hab": 6432, "58": 6433, "mary ": 6434, "DE ": 6435, "Mongol": 6436, "having ": 6437, "deser": 6438, "ehol": 6439, "Burundi": 6440, "ality of ": 6441, "incluso ": 6442, "a y ": 6443, "os ": 6444, "members of ": 6445, "as\u00ed ": 6446, "Civ": 6447, "sets ": 6448, "y de la ": 6449, "ado con ": 6450, "based on the ": 6451, "role of the ": 6452, "<bos>Please ": 6453, "fue ": 6454, "s: ": 6455, "aba ": 6456, "<bos>That ": 6457, "resources ": 6458, "p\u00e9r": 6459, "comm": 6460, "agenda item ": 6461, "on a ": 6462, "<bos>(a) The ": 6463, "<bos>Si ": 6464, "sch": 6465, "44": 6466, "<bos>UNICEF ": 6467, "paragrap": 6468, "a": 6469, "<bos>Al": 6470, "advisory ": 6471, "alto nivel ": 6472, "sufficient ": 6473, "anci": 6474, "difficul": 6475, "36": 6476, "access to ": 6477, "self ": 6478, "e.g": 6479, "human or ": 6480, "admi": 6481, "A/59/5/Add": 6482, "se\u00f1ala ": 6483, "experiencia ": 6484, "ciones de ": 6485, "pic": 6486, "concerned ": 6487, "de la ": 6488, "consu": 6489, "ci\u00f3n, ": 6490, "establecidos ": 6491, "clu": 6492, "do not ": 6493, "<bos>Call": 6494, "ex": 6495, "hombre ": 6496, "tip": 6497, "ts ": 6498, "more ": 6499, "ocup": 6500, "vaqui": 6501, "international cooperation ": 6502, "de los Estados ": 6503, "bey": 6504, "As": 6505, "tema ": 6506, "endo ": 6507, "alloc": 6508, "per cent.<eos>": 6509, "emergency ": 6510, "\"": 6511, "Di": 6512, "Argentina, ": 6513, "aprob": 6514, "y las ": 6515, "declaraciones ": 6516, "is a ": 6517, "crecimient": 6518, "assist ": 6519, "<bos>Ha ": 6520, "antes ": 6521, "futu": 6522, "disarmament ": 6523, "ebr": 6524, "por ejempl": 6525, "disposiciones ": 6526, "es are ": 6527, "p\u00e1rrafos ": 6528, "regarding ": 6529, "mujer": 6530, "urges the ": 6531, "regi\u00f3n ": 6532, "rur": 6533, "comunicaciones ": 6534, "health, ": 6535, "arta ": 6536, "intoler": 6537, "ector": 6538, "es para ": 6539, "Rights of the ": 6540, "incen": 6541, "mant": 6542, "conducted ": 6543, "cuadro ": 6544, "aci\u00f3n y la ": 6545, "efectu": 6546, "consequenc": 6547, "principles of ": 6548, "\u00e9an": 6549, "Central ": 6550, "nowledg": 6551, "fec": 6552, "criteri": 6553, "recent ": 6554, "Foro ": 6555, "independi": 6556, "s\u201d.<eos>": 6557, "advoc": 6558, "Ph": 6559, "Cam": 6560, "a todos los ": 6561, "mandat": 6562, "into the ": 6563, "tr": 6564, "derecho ": 6565, "informal ": 6566, "yan": 6567, "hos": 6568, "del Pact": 6569, "-scale ": 6570, "aci\u00f3n de ": 6571, "rimon": 6572, "arta de fecha ": 6573, "cross-": 6574, "ine": 6575, "tir": 6576, "were ": 6577, "Sosteni": 6578, "\u00ba per\u00edodo de sesiones, ": 6579, "), ": 6580, "Bang": 6581, "ans ": 6582, "t with ": 6583, "December 199": 6584, "as, el ": 6585, "'s ": 6586, "ada ": 6587, "ateg": 6588, "anno": 6589, "coher": 6590, "siti": 6591, "underl": 6592, "encia del ": 6593, "ACI\u00d3N ": 6594, "gener": 6595, "agricultur": 6596, "do entre el ": 6597, "of the ": 6598, "ron": 6599, "portun": 6600, "irst ": 6601, "sion of ": 6602, "dem": 6603, "pens": 6604, "inclus": 6605, "provision of ": 6606, "-up ": 6607, "pecial ": 6608, "al, la ": 6609, "extr": 6610, "Republic of the ": 6611, "as se ": 6612, "os y el ": 6613, "growing ": 6614, "Security Council": 6615, "or.<eos>": 6616, "specific": 6617, "legal ": 6618, "0.<eos>": 6619, "parte de la ": 6620, "UNCIT": 6621, "alidad ": 6622, "comprendi": 6623, "Oficina ": 6624, "rights ": 6625, "gratu": 6626, "address the ": 6627, "view": 6628, "d ": 6629, "deliber": 6630, "medidas para ": 6631, "Consultiv": 6632, "milli": 6633, "Am\u00e9rica ": 6634, "o, que ": 6635, "*": 6636, "conference ": 6637, "ong ": 6638, "ana ": 6639, "lo ": 6640, "demand": 6641, "trabajo.<eos>": 6642, "u ": 6643, "posible, ": 6644, "<bos>Examen ": 6645, "observ": 6646, "Ginebr": 6647, "approved by the ": 6648, "1) ": 6649, "humanitarian ": 6650, "venciones ": 6651, "tub": 6652, "naci": 6653, "national and ": 6654, "contained in the ": 6655, "bir": 6656, "ec": 6657, "into account the ": 6658, "tam": 6659, "Secretario Gener": 6660, "Austria, ": 6661, "Red ": 6662, "did ": 6663, "he": 6664, "en que se ": 6665, "8 ": 6666, "reat": 6667, "did": 6668, "go de ": 6669, "intergubernament": 6670, "abog": 6671, "arios ": 6672, "Estado Parte ": 6673, "matrimoni": 6674, "Agency ": 6675, "esca": 6676, "propi": 6677, "sanciones ": 6678, "programmes.<eos>": 6679, "ings ": 6680, "sigu": 6681, "ales de la ": 6682, "Moroc": 6683, "aproxim": 6684, "s, to ": 6685, "tal ": 6686, "ticip": 6687, "Rel": 6688, "Forum": 6689, "alud ": 6690, "open": 6691, "en nombre ": 6692, "/": 6693, "NE": 6694, "march": 6695, "program": 6696, "es in ": 6697, ", and ": 6698, "ore": 6699, "sion": 6700, "reduce the ": 6701, "\u00fa": 6702, "jecu": 6703, "adas": 6704, "entor": 6705, "component": 6706, "abilidad ": 6707, "Federal ": 6708, "Min": 6709, "om": 6710, "encu": 6711, "amen": 6712, "\u00f3ric": 6713, "will ": 6714, "standing ": 6715, "adel": 6716, "States, ": 6717, "per ": 6718, "confid": 6719, "Jamaica, ": 6720, "se ": 6721, "tare": 6722, "gain": 6723, "eg": 6724, "sesi\u00f3n ": 6725, "cumplir ": 6726, "projects ": 6727, "pobl": 6728, "umb": 6729, "treati": 6730, "S ": 6731, "obl": 6732, "personas con ": 6733, "dedic": 6734, "fer ": 6735, "Malaysi": 6736, "mobiliz": 6737, "36 ": 6738, "sin ": 6739, "when ": 6740, "increase ": 6741, "colabor": 6742, "carry out ": 6743, "instruments ": 6744, "av": 6745, "margin": 6746, "ship ": 6747, "9": 6748, "1\u00ba": 6749, "este respect": 6750, "OS ": 6751, "r.<eos>": 6752, "applic": 6753, "vic": 6754, "sab": 6755, "afric": 6756, "Person": 6757, "en el \u00e1mbi": 6758, "mo": 6759, "a, la ": 6760, "law, ": 6761, "37": 6762, "puedan ": 6763, "by a ": 6764, "development": 6765, "cos": 6766, "ales, ": 6767, "able.<eos>": 6768, "activiti": 6769, "incompati": 6770, "media ": 6771, "s in the ": 6772, "ea ": 6773, "Nacional de ": 6774, "combating ": 6775, "Promo": 6776, "mil": 6777, "as a resul": 6778, "lifer": 6779, "York": 6780, "well": 6781, "explot": 6782, "connection with the ": 6783, "range of ": 6784, "os en el ": 6785, "octub": 6786, "a \u201c": 6787, "bienni": 6788, "armas nucle": 6789, "lucha contra el ": 6790, "1999": 6791, "<bos>En los ": 6792, "experiment": 6793, "ofes": 6794, "following ": 6795, "pregunt": 6796, "new": 6797, "\u00d1": 6798, "women, ": 6799, "l\u00edne": 6800, "ity.<eos>": 6801, "freedom": 6802, "elector": 6803, "own": 6804, "relacionados ": 6805, "poy": 6806, "ombi": 6807, "ingres": 6808, "<bos>De ": 6809, "Namibi": 6810, " de junio de 200": 6811, "idades ": 6812, "objeto de ": 6813, "pobrez": 6814, "(C": 6815, "open ": 6816, "V": 6817, "Gro": 6818, "informaci\u00f3n, ": 6819, "acros": 6820, "\u00b4": 6821, "lis": 6822, "o, las ": 6823, "ve": 6824, "r\u00edan ": 6825, "on-": 6826, "ras ": 6827, "gender ": 6828, "South ": 6829, "<bos>Recon": 6830, "sobre el Desarrollo Sosteni": 6831, "hay ": 6832, "Canada, ": 6833, "it": 6834, "sub-": 6835, "contribu": 6836, "s to ": 6837, "currently ": 6838, "% en ": 6839, "erse ": 6840, "business ": 6841, "Y": 6842, "Paci": 6843, "<bos>El Gobierno ": 6844, "support for ": 6845, "especialmente ": 6846, "tuvi": 6847, "edades ": 6848, "<bos>The Committee also ": 6849, "equipment, ": 6850, "si se ": 6851, "provoc": 6852, "efecto ": 6853, "arrest": 6854, "istic": 6855, "embre de ": 6856, "tomar ": 6857, " of its ": 6858, "26 ": 6859, "of the Secretary-General ": 6860, "dispens": 6861, "study ": 6862, "ture, ": 6863, "port ": 6864, "ing in ": 6865, "en": 6866, "<bos>El art\u00edculo ": 6867, "atic ": 6868, "Oficina de ": 6869, "al del ": 6870, "doc": 6871, "by ": 6872, "wides": 6873, "ulteri": 6874, "ados y ": 6875, " de septiembre de ": 6876, "dispar": 6877, "las necesidades ": 6878, "Tail": 6879, "<bos>B": 6880, "Or": 6881, "incluidas las ": 6882, "de la Asamblea General ": 6883, "incluida la ": 6884, "Afgh": 6885, "enjoyment of ": 6886, "clear": 6887, "muestr": 6888, "Israel": 6889, "jan ": 6890, "Nairo": 6891, "uc": 6892, "materi": 6893, "valu": 6894, "<bos>Under ": 6895, "Legal ": 6896, "de las Naciones Unidas ": 6897, "y of the ": 6898, "mediante el ": 6899, "sur": 6900, "aci\u00f3n para ": 6901, "ww": 6902, "a y los ": 6903, "3), ": 6904, "tico": 6905, "dra": 6906, "side ": 6907, "have the ": 6908, "reflej": 6909, "Joint ": 6910, "threat": 6911, "\u00f3 un ": 6912, "tion<eos>": 6913, "com": 6914, "Israel, ": 6915, "28 ": 6916, "political ": 6917, "ar a la ": 6918, "reclamaciones ": 6919, "creating ": 6920, "Cour": 6921, "by the ": 6922, "reduce ": 6923, "meeting, on ": 6924, "eri": 6925, "ai": 6926, "maintain": 6927, "jo": 6928, "Burkina F": 6929, "O": 6930, "Institu": 6931, "funcionarios ": 6932, "Cent": 6933, "sig": 6934, ", que ": 6935, "determin": 6936, "\u00e1ndose ": 6937, ", for ": 6938, "nol\u00f3gic": 6939, "Ch": 6940, "stat": 6941, "entr": 6942, "tiemp": 6943, "ance ": 6944, "gol": 6945, "ted to the ": 6946, "comunidad ": 6947, "nacional y ": 6948, "fund": 6949, "leg": 6950, "miembros de la ": 6951, "\u00fan": 6952, "draft resolution ": 6953, "dentro del ": 6954, "UNMIK": 6955, "Iraq.<eos>": 6956, "lad": 6957, "ly.<eos>": 6958, "vulner": 6959, "inci": 6960, "/5": 6961, "principales ": 6962, "tecnolog\u00eda ": 6963, "Her": 6964, "Comit": 6965, "contro": 6966, "Tribun": 6967, "d\u00f3lares, ": 6968, "eder": 6969, "programme of ": 6970, "ando ": 6971, "requi": 6972, "adoption of ": 6973, "<bos>We ": 6974, "<bos>An": 6975, "maintenance of ": 6976, "gan": 6977, "equ": 6978, "evidence ": 6979, "design ": 6980, "ed from ": 6981, "N ": 6982, "ers and ": 6983, "armas de ": 6984, "hayan ": 6985, "be ": 6986, "C": 6987, "southern ": 6988, "Misi\u00f3n ": 6989, "fortalecer ": 6990, "al;<eos>": 6991, "<bos>En la ": 6992, "e, and ": 6993, "7<eos>": 6994, "todo ": 6995, "mill": 6996, "Pacto ": 6997, "yl": 6998, "welcomed the ": 6999, "stres": 7000, "discrimin": 7001, "while ": 7002, "uncion": 7003, "build": 7004, "resul": 7005, "anex": 7006, "mitte": 7007, "ori": 7008, "Forms of ": 7009, "resolu": 7010, "UNCTA": 7011, "capital ": 7012, "indigenous peopl": 7013, "<bos>Esta ": 7014, "at its ": 7015, "% ": 7016, "Israel ": 7017, "Working Group ": 7018, "2007<eos>": 7019, "itario ": 7020, "expertos ": 7021, "ational ": 7022, "Su": 7023, "Middle ": 7024, "r\u00eda ": 7025, "ati": 7026, "vie": 7027, "perspectiva de ": 7028, "aim": 7029, "4": 7030, "pr\u00e1ctic": 7031, "depriv": 7032, "explain": 7033, "people ": 7034, "en un ": 7035, "Ma": 7036, "forw": 7037, "our": 7038, "xen": 7039, "\u00bf": 7040, "2000/": 7041, "\u00faltim": 7042, "Cab": 7043, "fabr": 7044, "publish": 7045, "<bos>His ": 7046, "estar ": 7047, "ting in ": 7048, "ren": 7049, "tanto ": 7050, "agg": 7051, "puesto de ": 7052, "pover": 7053, "os, y ": 7054, "lanz": 7055, "opport": 7056, "ations of ": 7057, "tercer ": 7058, "I": 7059, "Intergovernmental ": 7060, "prison ": 7061, "mujeres de ": 7062, "etap": 7063, "sibil": 7064, "ept": 7065, "erra ": 7066, "common ": 7067, "19": 7068, "con arreglo al ": 7069, "e y ": 7070, "<bos>Pro": 7071, "health and ": 7072, "DA": 7073, "a al ": 7074, "niv": 7075, "lack": 7076, "A ": 7077, "promoting ": 7078, "assum": 7079, "Kuwait ": 7080, "con": 7081, "ty of ": 7082, "purpose of ": 7083, "ation or ": 7084, "res, ": 7085, "red ": 7086, "clim": 7087, "respons": 7088, "<bos>Decid": 7089, "aciones ": 7090, "ann": 7091, "Africa ": 7092, "process": 7093, "opl": 7094, "Ques": 7095, "us ": 7096, "ob": 7097, "Programa de Ac": 7098, "management of ": 7099, " (2003": 7100, "tow": 7101, "Rep\u00fablic": 7102, "Haiti": 7103, "ain ": 7104, "<bos>El Sr. ": 7105, "citizen": 7106, "Republic": 7107, "lugares ": 7108, "personal de ": 7109, "bast": 7110, "apporteur": 7111, "trabajo ": 7112, "+": 7113, "spir": 7114, "base de ": 7115, "necesario ": 7116, "a m\u00e1s ": 7117, "arbitrary ": 7118, "parte de los ": 7119, "Al": 7120, "point ": 7121, "quisi": 7122, "idos ": 7123, "quej": 7124, "child ": 7125, "de la Comisi\u00f3n de ": 7126, "/27": 7127, "necesarias para ": 7128, "aprobada por la ": 7129, "consulta ": 7130, "and in ": 7131, "o, ": 7132, "en la regi\u00f3n ": 7133, "serve ": 7134, "to re": 7135, "igu": 7136, "il": 7137, "que han ": 7138, "Sub": 7139, "cur": 7140, "palabr": 7141, "government": 7142, "hizo ": 7143, "respald": 7144, "go": 7145, "enmi": 7146, "tend": 7147, "s\u00f3": 7148, "took ": 7149, "Ministry of ": 7150, "log": 7151, "anual ": 7152, " de enero de 200": 7153, "medidas de ": 7154, "o para la ": 7155, "Pu": 7156, "ff ": 7157, "sever": 7158, "municip": 7159, "good": 7160, "ensure ": 7161, "por la ": 7162, "Communic": 7163, "dic": 7164, "tierr": 7165, "called upon ": 7166, "profession": 7167, "Institute ": 7168, "con miras a ": 7169, "prop\u00f3": 7170, "red, ": 7171, "ement ": 7172, "argu": 7173, "create ": 7174, "Milit": 7175, "llegar a ": 7176, "Economic ": 7177, "Sri Lank": 7178, "\u00e1l": 7179, "acy, ": 7180, "Unid": 7181, "expend": 7182, " of the ": 7183, "of": 7184, "Gener": 7185, "orl": 7186, "e that ": 7187, "situaci\u00f3n de los ": 7188, "plant": 7189, "uls": 7190, "previous ": 7191, "modal": 7192, "efectos ": 7193, "s, in ": 7194, "quiz": 7195, "po": 7196, "meeting ": 7197, "Fif": 7198, "Urugu": 7199, "pobreza.<eos>": 7200, "recomiend": 7201, "atribu": 7202, "constr": 7203, "increase in the ": 7204, "<bos>Ag": 7205, "ado en la ": 7206, "ales<eos>": 7207, "our ": 7208, "El ": 7209, "recommendation ": 7210, "recogni": 7211, "element": 7212, "patro": 7213, "is to ": 7214, "pobres ": 7215, "e al ": 7216, "to the ": 7217, "mitig": 7218, "orn": 7219, "os del ": 7220, "contribute ": 7221, "alth ": 7222, "labor de ": 7223, " of ": 7224, "technolog": 7225, "es el ": 7226, "al, ": 7227, "agencies, ": 7228, "NGO": 7229, "evertheles": 7230, "<bos>Resolu": 7231, "ing on ": 7232, "Distr": 7233, "tes": 7234, "suc": 7235, "rel": 7236, "casi ": 7237, "www": 7238, "\u00f3 los ": 7239, "\u00eda.<eos>": 7240, "reper": 7241, "for its ": 7242, "atos ": 7243, "Grupo de los ": 7244, "ret": 7245, "Convenci\u00f3n.<eos>": 7246, "ales del ": 7247, "os.<eos>": 7248, ".000 ": 7249, "si\u00f3n.<eos>": 7250, "self-": 7251, "Member States and ": 7252, "-20": 7253, "a de los ": 7254, "deber\u00edan ": 7255, "locales ": 7256, "y-": 7257, "hemos ": 7258, "datos ": 7259, "sam": 7260, "Sr.<eos>": 7261, "with a ": 7262, "defini": 7263, "guerr": 7264, "<bos>Y": 7265, "ten ": 7266, "ers, ": 7267, "\u2015": 7268, "expert ": 7269, "jet": 7270, "pudi": 7271, "Committee.<eos>": 7272, "prior to ": 7273, "World Summit ": 7274, "in that ": 7275, "ual": 7276, "cover": 7277, "dad": 7278, "is the ": 7279, "Hungr": 7280, "in their ": 7281, "ION": 7282, "Por": 7283, "funciones ": 7284, "Presidente de la ": 7285, "est ": 7286, "efec": 7287, "cooperaci\u00f3n internacional ": 7288, "Bur": 7289, "\u00f3dic": 7290, "ali": 7291, "ou": 7292, "erra Le": 7293, "a; ": 7294, "Bi": 7295, "air ": 7296, "y and ": 7297, "cuadro de servicios ": 7298, "cover ": 7299, "performance ": 7300, "om ": 7301, "tur": 7302, "A) ": 7303, ";": 7304, "sanci": 7305, "Direc": 7306, "a en la ": 7307, "Chapter ": 7308, "A/C.2": 7309, "Vien": 7310, "workshop": 7311, "cumpl": 7312, "categ": 7313, "interest": 7314, "recursos ": 7315, "people.<eos>": 7316, "diseas": 7317, "creation of ": 7318, "ying ": 7319, "Human Rights ": 7320, ") and the ": 7321, "satis": 7322, "long-term ": 7323, "las Naciones Unidas para la ": 7324, "Sw": 7325, "m\u00e1xim": 7326, "web": 7327, "set out ": 7328, "children, ": 7329, "concern": 7330, "attention ": 7331, "elin": 7332, "quali": 7333, "minor": 7334, "inter-": 7335, "pues": 7336, "internacionales ": 7337, "reas": 7338, "hin": 7339, "Alb": 7340, "internally ": 7341, "partid": 7342, "Comit\u00e9 de ": 7343, "dichas ": 7344, "ordin": 7345, "air": 7346, "Ben": 7347, "destin": 7348, "dif\u00edcil ": 7349, "satisfaction ": 7350, "desaf": 7351, "High Commission": 7352, "ante los ": 7353, "fight ": 7354, "correspondi": 7355, "reserv": 7356, "then ": 7357, "ts of ": 7358, "derechos human": 7359, "todos los ": 7360, "office ": 7361, "de una ": 7362, "th": 7363, "o con ": 7364, "10 ": 7365, "terren": 7366, "concert": 7367, "world ": 7368, "mention": 7369, "implementing ": 7370, "areas.<eos>": 7371, "\u00e9 ": 7372, "trust ": 7373, " de mayo de 200": 7374, "wor": 7375, "arms and ": 7376, "Monten": 7377, "septiembre de ": 7378, "os y de ": 7379, "ord": 7380, "programme": 7381, "ity, ": 7382, "ght ": 7383, "Conference Room ": 7384, "ence in ": 7385, "imprison": 7386, "terror": 7387, "sched": 7388, "support the ": 7389, "1, ": 7390, "on the basis of ": 7391, "are ": 7392, "8 (": 7393, "poder ": 7394, "crecimiento ": 7395, "subjec": 7396, "taken to ": 7397, "proceed": 7398, "sub": 7399, "vil ": 7400, "Perman": 7401, "equit": 7402, "necesidades de ": 7403, "vien": 7404, "order to ": 7405, "respuesta ": 7406, "que no ": 7407, "close ": 7408, "NG": 7409, "busin": 7410, "sistencia ": 7411, "las Naciones Unidas para ": 7412, "Conferenc": 7413, "<bos>As ": 7414, "en su ": 7415, "visi": 7416, "s; ": 7417, "Departamento de ": 7418, "raz\u00f3n ": 7419, "tox": 7420, "ely ": 7421, "labor": 7422, "discriminaci\u00f3n ": 7423, "del Consejo de Seguridad ": 7424, "elec": 7425, "grupo de ": 7426, "countri": 7427, "aci\u00f3n de las ": 7428, "<bos>With ": 7429, "combati": 7430, "violaciones ": 7431, "clear ": 7432, "do de ": 7433, "service ": 7434, "adop": 7435, "\u00e1n": 7436, "Discrimin": 7437, "desarrol": 7438, "bu": 7439, "cuando se ": 7440, "<bos>Cor": 7441, "av\u00eda ": 7442, "a de un ": 7443, "naturalez": 7444, "ap": 7445, "mayor ": 7446, "par": 7447, "ross-": 7448, "health ": 7449, "help": 7450, "effectively ": 7451, "ed with ": 7452, "intercambi": 7453, "<bos>I ": 7454, "Orient": 7455, "una ": 7456, "aria, ": 7457, ".5 ": 7458, "pay": 7459, "fair": 7460, "years.<eos>": 7461, "Sept": 7462, "Estados Unid": 7463, "y;<eos>": 7464, "hen": 7465, "70": 7466, "outside ": 7467, "con respecto a la ": 7468, "pledg": 7469, "an and ": 7470, "considered ": 7471, "<bos>Un": 7472, "conditions of ": 7473, "largo ": 7474, "apoyo a la ": 7475, "measures, ": 7476, "; (": 7477, "sanctions ": 7478, "maxim": 7479, "s from ": 7480, "Turk": 7481, "desarrollo ": 7482, "<bos>Aco": 7483, "arto ": 7484, "Sri": 7485, "ild": 7486, "es.<eos>": 7487, "10": 7488, "orld ": 7489, "desarrollo.<eos>": 7490, "ump": 7491, "f": 7492, "remiti": 7493, "<bos>The State party ": 7494, "ados por el ": 7495, "consi": 7496, "operacion": 7497, "there ": 7498, "terr": 7499, "embarg": 7500, "cooperation.<eos>": 7501, "could be ": 7502, "members ": 7503, "iliz": 7504, "task": 7505, "su ": 7506, "provides ": 7507, "consider": 7508, "er of ": 7509, "cuales ": 7510, "o a los ": 7511, "nucleares ": 7512, "necesidad de ": 7513, "dispon": 7514, "esp\u00edritu": 7515, "propon": 7516, "le": 7517, "il, ": 7518, "en los pa\u00edses ": 7519, "pres": 7520, "mecanismos de ": 7521, "agosto de ": 7522, "ar al ": 7523, "ven": 7524, "objetivos de ": 7525, "peli": 7526, ".30 ": 7527, "ercial ": 7528, "ata": 7529, "rig": 7530, "group ": 7531, "ley.<eos>": 7532, "she ": 7533, "compon": 7534, "ci\u00f3n de un ": 7535, "Special Rapporteur ": 7536, "register": 7537, "terre": 7538, "Bosnia and ": 7539, "23, ": 7540, "il\u00edci": 7541, "que se re": 7542, "contribute to ": 7543, "trata de ": 7544, "if ": 7545, "fy ": 7546, "acilit": 7547, "ste": 7548, "ci\u00f3n de los ": 7549, "improv": 7550, "Secretary-Gener": 7551, "practical ": 7552, ":": 7553, "Ecu": 7554, "next ": 7555, "poor ": 7556, "adequate ": 7557, "an la ": 7558, "o y ": 7559, "De": 7560, "instituciones ": 7561, "ciert": 7562, "aw": 7563, "ous ": 7564, "defin": 7565, "under article ": 7566, "moment": 7567, "protection of ": 7568, "half ": 7569, "syst": 7570, "Naciones ": 7571, "als.<eos>": 7572, "Child ": 7573, "Pa\u00ed": 7574, "territorio ": 7575, "a. ": 7576, "neighbour": 7577, "women and ": 7578, "adicion": 7579, "itory ": 7580, "Montre": 7581, "<bos>At the ": 7582, "80 ": 7583, "pti": 7584, "ance, ": 7585, "ic and Social ": 7586, "\u00f3 que, ": 7587, "democraci": 7588, "\u2026": 7589, "administrative ": 7590, "establishment of ": 7591, "addressed ": 7592, ", as ": 7593, "sw": 7594, "t\u00e9cnic": 7595, "right to ": 7596, "altern": 7597, "ations of the ": 7598, "kin": 7599, "en la esfer": 7600, "record ": 7601, "visi\u00f3n ": 7602, "Azer": 7603, "jef": 7604, "gin": 7605, "curso ": 7606, "o M": 7607, "acredit": 7608, "No. ": 7609, "o de 200": 7610, "Indonesia, ": 7611, "com\u00fan ": 7612, "aplicaci\u00f3n de las ": 7613, "Nuclear ": 7614, "use": 7615, "ares ": 7616, "effec": 7617, "las Naciones Unidas, ": 7618, "Disarmament ": 7619, "do ": 7620, "podr\u00e1 ": 7621, "podr": 7622, "Ital": 7623, ".7": 7624, "ostr": 7625, "al of ": 7626, "n\u00famero ": 7627, "mundo ": 7628, "lograr ": 7629, "str": 7630, "recomendaci\u00f3n ": 7631, "hal": 7632, "ido de ": 7633, "aid": 7634, "sible ": 7635, "ar de ": 7636, "satisfacci\u00f3n ": 7637, "O) ": 7638, "Asia ": 7639, "TH": 7640, "Rul": 7641, "you ": 7642, "ance and ": 7643, "ual ": 7644, "2 ": 7645, "aking ": 7646, "pied ": 7647, "v\u00e9ase ": 7648, "sus ": 7649, "AC.10": 7650, "with disabiliti": 7651, "parties, ": 7652, "Official ": 7653, "good ": 7654, "benefici": 7655, "survey": 7656, "celebrado en ": 7657, "dialogue ": 7658, "ocument": 7659, "studi": 7660, "quinto ": 7661, "Pap": 7662, "ares.<eos>": 7663, "and ": 7664, "up to ": 7665, "dij": 7666, "cri": 7667, "pu\u00e9s ": 7668, "es; ": 7669, "Au": 7670, "), and ": 7671, "29 ": 7672, "r la ": 7673, "proyect": 7674, "enhance ": 7675, "due ": 7676, "ir, ": 7677, "Decre": 7678, "sobre la ": 7679, "Group": 7680, "http": 7681, "cont": 7682, "question ": 7683, "/W": 7684, "Secretario General ": 7685, "contrataci\u00f3n ": 7686, "transactions ": 7687, "New Zeal": 7688, "UNC": 7689, "tras ": 7690, "lin": 7691, "<bos>Pu": 7692, "diplom": 7693, "longer ": 7694, "strengthen ": 7695, "\u00cd": 7696, "Par": 7697, "high-level ": 7698, "pueb": 7699, "J": 7700, "s were ": 7701, "en \u00c1fric": 7702, "presi\u00f3n ": 7703, "garant": 7704, "sp": 7705, "a\u00f1os de ": 7706, "ment or ": 7707, "has also ": 7708, "od ": 7709, "countries.<eos>": 7710, "Women ": 7711, "prioridades ": 7712, "o, por ": 7713, "sulares en ": 7714, "<bos>\u00bf": 7715, "Intern": 7716, "tenti": 7717, "ejercicio ": 7718, "origen ": 7719, "<bos>For example, ": 7720, "India, ": 7721, "refer": 7722, "fecha ": 7723, "mujeres y ": 7724, "Informaci\u00f3n ": 7725, "seven ": 7726, "rehabilit": 7727, "cases of ": 7728, "untos de ": 7729, ", 2": 7730, "overn": 7731, "tipo de ": 7732, "os, ": 7733, "permiti": 7734, "3<eos>": 7735, "Dep": 7736, "effect ": 7737, "libr": 7738, "establishment of a ": 7739, "violence against ": 7740, "Gen": 7741, "60": 7742, "Congo ": 7743, "Ni": 7744, "tribunales ": 7745, "mem": 7746, "problem": 7747, "Sud": 7748, "analysi": 7749, "febrer": 7750, "ar.<eos>": 7751, "ones ": 7752, "efforts ": 7753, "United N": 7754, "os, los ": 7755, "education, ": 7756, "chang": 7757, "conformidad con la ": 7758, "rural ": 7759, "para su ": 7760, "deliver": 7761, "schem": 7762, ".6 ": 7763, "lear": 7764, "Profes": 7765, "anco ": 7766, "<bos>Elec": 7767, "ado el ": 7768, "aus": 7769, "Information ": 7770, "<bos>La ": 7771, "Euro": 7772, "absolu": 7773, "Fr": 7774, "Y ": 7775, "kind ": 7776, "as a ": 7777, "complain": 7778, "Jap\u00f3n, ": 7779, "por": 7780, "ep": 7781, "agr": 7782, "conting": 7783, "Dji": 7784, "and that ": 7785, "permanent ": 7786, "in accordance with the ": 7787, "not to ": 7788, "http:": 7789, "pru": 7790, "menores de ": 7791, "5,": 7792, "osas ": 7793, "ciones, ": 7794, "exchange of ": 7795, "Af": 7796, "care ": 7797, "Member": 7798, "ulture ": 7799, "dit": 7800, "posi": 7801, "Jerusal": 7802, "programas y ": 7803, "ET": 7804, "corrup": 7805, "States to ": 7806, "ing.<eos>": 7807, "matters ": 7808, "evaluaci\u00f3n ": 7809, "C\u00f3digo de ": 7810, "en la Convenci\u00f3n ": 7811, "(O": 7812, "ambl": 7813, "paragraph": 7814, "an\u00e1lisis ": 7815, "oportunidades ": 7816, "ancia ": 7817, "genoci": 7818, "a los ": 7819, "den": 7820, "over the ": 7821, "Servicio M\u00f3": 7822, "edad": 7823, "the": 7824, "aplicaci\u00f3n de ": 7825, "<bos>V\u00e9ase ": 7826, "hop": 7827, "quality of ": 7828, "accommod": 7829, "re de ": 7830, "day, ": 7831, "bur": 7832, "strong ": 7833, "tas": 7834, "Hab": 7835, "<bos>My ": 7836, "Armen": 7837, "Nacion": 7838, "/L.2": 7839, "specialized ": 7840, "vici": 7841, "declaraci\u00f3n ": 7842, "respon": 7843, "l ": 7844, "an a ": 7845, "5": 7846, "stru": 7847, "M\u00e9xic": 7848, "atel": 7849, "Bar": 7850, "Inv": 7851, "evid": 7852, "orient": 7853, "grat": 7854, "Br": 7855, "Drug": 7856, "1<eos>": 7857, "ogr": 7858, "suministr": 7859, "tales ": 7860, "est\u00e1n ": 7861, "instruc": 7862, "extranjer": 7863, "Nic": 7864, "Financi": 7865, "water": 7866, "bass": 7867, "adverse ": 7868, "israel\u00edes ": 7869, ")<eos>": 7870, "entre otras cos": 7871, "Government ": 7872, "aiti": 7873, "hol": 7874, "plan ": 7875, "v\u00edctimas de ": 7876, "Medio Amb": 7877, "ban": 7878, "ew": 7879, "hazard": 7880, "ia ": 7881, "have a ": 7882, "statement ": 7883, "testig": 7884, "Irel": 7885, "h": 7886, "titulado ": 7887, "Meeting ": 7888, "enunci": 7889, "ated ": 7890, "ingly ": 7891, "young people ": 7892, "relaci\u00f3n ": 7893, "s-": 7894, "recently ": 7895, "their ": 7896, "Representante ": 7897, "Kuw": 7898, "ext": 7899, "ativ": 7900, "System": 7901, "v\u00edc": 7902, "ejempl": 7903, "judici": 7904, "Re": 7905, "Ju": 7906, "\u00e1re": 7907, "arias ": 7908, "entre otras cosas, ": 7909, "Ac": 7910, "prestaci\u00f3n de ": 7911, "ji": 7912, "20": 7913, "there": 7914, "giving ": 7915, "d\u00f3lares ": 7916, "plante": 7917, "No": 7918, "ONG": 7919, "provision ": 7920, "e in ": 7921, "agreement": 7922, "dro": 7923, "corrupci\u00f3n, ": 7924, "ated to ": 7925, "ble ": 7926, "firm ": 7927, "ity of the ": 7928, "ales y ": 7929, "\u00edtic": 7930, "territori": 7931, "Secretar\u00eda ": 7932, "al<eos>": 7933, "1996, ": 7934, "ia and ": 7935, "comprendido entre el ": 7936, "o": 7937, "an de ": 7938, "affected by ": 7939, "All ": 7940, "tem ": 7941, "desarrollo de ": 7942, "ecer": 7943, "S-": 7944, "plom": 7945, "Mis": 7946, "epresid": 7947, "nueva ": 7948, "on": 7949, "IT": 7950, "s in ": 7951, "ok ": 7952, "in accordance with ": 7953, "; el ": 7954, "conc": 7955, "largo plaz": 7956, "tr\u00e1fico ": 7957, "alg": 7958, "ando el ": 7959, "br": 7960, "Committee<eos>": 7961, "funcion": 7962, "paras.<eos>": 7963, "Commission on Human Rights ": 7964, "\u00aa": 7965, "efforts to ": 7966, "mu": 7967, "ean": 7968, "idad de la ": 7969, "World ": 7970, "lug": 7971, "\u00e1lisis ": 7972, "to take ": 7973, "ados de ": 7974, "<bos>Con": 7975, "prosecu": 7976, "por ": 7977, "in the context of ": 7978, "luchar ": 7979, "Guinea, ": 7980, "fic ": 7981, "Asamble": 7982, "unable to ": 7983, "accordance ": 7984, "act": 7985, "consideration of ": 7986, "Sh": 7987, "Islam": 7988, "fall": 7989, "least developed ": 7990, "en el art\u00edculo ": 7991, "Corr": 7992, "enabl": 7993, "primordi": 7994, "Sud\u00e1fric": 7995, "/L.3": 7996, "es. ": 7997, "<bos>L": 7998, "tener ": 7999, "igual ": 8000, "mo ": 8001, "Pres": 8002, "medios ": 8003, "m\u00e9dic": 8004, "independent ": 8005, "Sierra Le": 8006, "oun": 8007, "aliz": 8008, "fuer": 8009, " de marz": 8010, "in connection with the ": 8011, "prostitu": 8012, "Inter-": 8013, "sanc": 8014, "idades, ": 8015, "ello ": 8016, "identified ": 8017, "m\u00f3": 8018, "spon": 8019, "ating ": 8020, "can": 8021, "tico.<eos>": 8022, "procure": 8023, "arter": 8024, "<bos>Wh": 8025, "essenti": 8026, "<bos>Est": 8027, "cambio ": 8028, "Cu": 8029, "igualdad de g\u00e9ner": 8030, "comerci": 8031, "mach": 8032, "Social ": 8033, "context of the ": 8034, "enior ": 8035, "Si": 8036, "technical assistance ": 8037, "ada a ": 8038, "United Nations Development ": 8039, "economic and ": 8040, "ament": 8041, "capacidad": 8042, "aph": 8043, "medio ambient": 8044, "reuni\u00f3n de ": 8045, "ses": 8046, "serv": 8047, "MA ": 8048, "ough ": 8049, "Preparatory ": 8050, "voc": 8051, "stakeholder": 8052, "<bos>E": 8053, "as y ": 8054, "itarios ": 8055, "asum": 8056, "Comerci": 8057, "\u00e1li": 8058, "CEDA": 8059, "igualdad entre los g\u00e9ner": 8060, "Judici": 8061, "sobre su ": 8062, "o; ": 8063, "t to ": 8064, "hom": 8065, "inebr": 8066, "acontecimient": 8067, "; the ": 8068, "very ": 8069, "Labour ": 8070, "best ": 8071, "financiaci\u00f3n ": 8072, "falt": 8073, "fundamental freedom": 8074, "han sido ": 8075, "2), ": 8076, "Convention on the Rights of the ": 8077, "0": 8078, "en el p\u00e1rrafo ": 8079, "Fuerz": 8080, "52 ": 8081, "no es ": 8082, "said that the ": 8083, "ence ": 8084, "ty ": 8085, "tambi\u00e9n ": 8086, "<bos>Also ": 8087, "Embaj": 8088, "Ref": 8089, "revis": 8090, "ate ": 8091, "\u00f3mic": 8092, "ation; ": 8093, "hast": 8094, "s for the ": 8095, "prehen": 8096, "ation.<eos>": 8097, "s or ": 8098, "heal": 8099, "leyes ": 8100, "\u00edan ": 8101, "pit": 8102, "derecho de ": 8103, "<bos>For the ": 8104, "an el ": 8105, "no gubernament": 8106, "Jap": 8107, "trav": 8108, "compared ": 8109, "es of ": 8110, "issues.<eos>": 8111, "anteriores ": 8112, "a que los ": 8113, "gar": 8114, "alized ": 8115, "cada ": 8116, "Phili": 8117, "Universid": 8118, "espec\u00edfic": 8119, "a\u00e9": 8120, "I\u00d3": 8121, "administraci\u00f3n de ": 8122, "conclud": 8123, "teniendo en cuent": 8124, "lej": 8125, "ers ": 8126, "ACNU": 8127, "adquir": 8128, "int": 8129, "tres ": 8130, "ing of the ": 8131, "al: ": 8132, "calidad ": 8133, "mujeres, ": 8134, "ula ": 8135, "cern": 8136, "sk": 8137, "out": 8138, "prelimin": 8139, "_": 8140, "assist": 8141, "examen ": 8142, "a una ": 8143, "p\u00fablic": 8144, "de la Asamblea General, ": 8145, "limin": 8146, "future ": 8147, "amiento ": 8148, "to a ": 8149, "ic": 8150, "ar\u00e1 ": 8151, "explic": 8152, "apport": 8153, "child": 8154, "Kenya, ": 8155, "en el ": 8156, "Cong": 8157, "International ": 8158, "<bos>Asimism": 8159, "\u201d (": 8160, "property ": 8161, "tri": 8162, "Feder": 8163, "<bos>No": 8164, "comit": 8165, "to achieve ": 8166, "Gobierno ": 8167, "\u00e1p": 8168, "ace ": 8169, "anza ": 8170, "<bos>Im": 8171, "ate the ": 8172, "Le": 8173, "ve the ": 8174, "<bos>In ": 8175, "mejorar el ": 8176, "medio ambiente ": 8177, "aci": 8178, "correspond": 8179, "mid": 8180, "que en ": 8181, "pen": 8182, "concerns ": 8183, "1373 (2001": 8184, "del P": 8185, "bilateral ": 8186, "neces": 8187, "A": 8188, "because ": 8189, "obern": 8190, "caracter": 8191, "aria ": 8192, "deriv": 8193, "<bos>Por ": 8194, "El Salv": 8195, "IM": 8196, "sociedad": 8197, "aut": 8198, "porque ": 8199, "r\u00e9gimen ": 8200, "discre": 8201, "wide ": 8202, "ded.<eos>": 8203, "prefer": 8204, "E/CN.4/": 8205, "developed ": 8206, "en el marc": 8207, "p ": 8208, "23": 8209, "`": 8210, "candidatos ": 8211, "s a ": 8212, "p.m": 8213, "frecu": 8214, "energ\u00eda ": 8215, "positiv": 8216, ", and to ": 8217, "responsibil": 8218, "acad\u00e9mic": 8219, "52": 8220, "informes ": 8221, "erg": 8222, "context of ": 8223, "que ha ": 8224, "We": 8225, "t\u00e9r": 8226, "relig": 8227, "super": 8228, "mod": 8229, "\u2022 ": 8230, "to promote ": 8231, "war ": 8232, "<bos>It is ": 8233, "o<eos>": 8234, "ris": 8235, "activities.<eos>": 8236, "movil": 8237, "1998": 8238, "refugi": 8239, "domes": 8240, "terc": 8241, "ades ": 8242, "coun": 8243, "to de ": 8244, "ird ": 8245, "benefit ": 8246, "Working ": 8247, "matern": 8248, "similar ": 8249, "mund": 8250, "reconoci": 8251, "ced": 8252, "ter ": 8253, "statis": 8254, "jur\u00eddic": 8255, "presupuesto por programas ": 8256, "<bos>b) ": 8257, "circun": 8258, "raf": 8259, "document ": 8260, "fr": 8261, "o, el ": 8262, "campament": 8263, "hij": 8264, "time": 8265, "relationship ": 8266, "form of ": 8267, "lack of ": 8268, "Commission": 8269, "economi": 8270, "habit": 8271, "imient": 8272, "ation, ": 8273, "light ": 8274, "Leg": 8275, "Un": 8276, "b\u00e1sic": 8277, "general, ": 8278, "surve": 8279, "as que ": 8280, "article ": 8281, "Lu": 8282, "propor": 8283, "o de un ": 8284, "Bure": 8285, "\u00e9simo ": 8286, "degrad": 8287, "nacionales.<eos>": 8288, "olivi": 8289, "ffic": 8290, "algunas ": 8291, "pod": 8292, "ed \u201c": 8293, "review": 8294, "enforcement ": 8295, "vision ": 8296, "no": 8297, "una de las ": 8298, "amount of ": 8299, "copi": 8300, "aplicable ": 8301, "comenz": 8302, "ank ": 8303, "Charter ": 8304, "objetivos ": 8305, "ada por el ": 8306, "mechanisms ": 8307, "consolid": 8308, "session ": 8309, "dieron ": 8310, "<bos>Con respecto ": 8311, "es,<eos>": 8312, "derecho internacional, ": 8313, "law.<eos>": 8314, "8, ": 8315, "antiz": 8316, "coordination ": 8317, "sectores ": 8318, "For": 8319, "Prim": 8320, "assess": 8321, "po.<eos>": 8322, "e a ": 8323, "recogniz": 8324, "sixty-": 8325, "presente ": 8326, "ciones.<eos>": 8327, "\u010d": 8328, "administraci\u00f3n p\u00fablic": 8329, "tion of the ": 8330, "system ": 8331, "China ": 8332, ".m": 8333, "Depend": 8334, "regional ": 8335, "2005": 8336, "os, la ": 8337, "China, ": 8338, "A/5": 8339, "ation and ": 8340, "ill": 8341, "o a la ": 8342, "que se ha ": 8343, "IG": 8344, "of a ": 8345, "tion or ": 8346, ", the ": 8347, "clari": 8348, "espec": 8349, "11, ": 8350, "communic": 8351, "o, la ": 8352, "Let": 8353, "court ": 8354, "rule ": 8355, "Oficina del Alto Comision": 8356, "Rec": 8357, "Turkish ": 8358, "enable ": 8359, "por los ": 8360, "dif\u00edci": 8361, "dici": 8362, "electronic ": 8363, "en los ": 8364, ".org": 8365, "Coven": 8366, "dones": 8367, "mar ": 8368, "/0": 8369, "to 30 June ": 8370, "desarrollo del ": 8371, "nomb": 8372, "al y ": 8373, "Pakist": 8374, "respond ": 8375, "of the Convention ": 8376, "Leban": 8377, "entities ": 8378, "Bu": 8379, "deci": 8380, "Esloven": 8381, "democr": 8382, "oniz": 8383, "israel": 8384, "exchang": 8385, "ino ": 8386, "ariat": 8387, "amos ": 8388, "y de ": 8389, "establecer ": 8390, "<bos>With regard ": 8391, "recl": 8392, "Peopl": 8393, "Guinea-B": 8394, "sequ": 8395, "matrimon": 8396, "9,": 8397, "Manag": 8398, "v\u00edctimas ": 8399, "Fili": 8400, "or ": 8401, "aly": 8402, "Burundi, ": 8403, "undertaken ": 8404, "Operaciones de ": 8405, "Exper": 8406, "requisitos ": 8407, "<bos>Resolution ": 8408, "d": 8409, "Assembl": 8410, "personas ": 8411, "j\u00f3ven": 8412, "respet": 8413, "porting ": 8414, "pass": 8415, "ado los ": 8416, "resulted ": 8417, "on this ": 8418, "chap.<eos>": 8419, "interrog": 8420, "we": 8421, ", en ": 8422, "informed ": 8423, "Is": 8424, "cional ": 8425, "order ": 8426, "Administr": 8427, "- ": 8428, "competitiv": 8429, "h, ": 8430, "<bos>Asi": 8431, "<bos>Fur": 8432, "Energ": 8433, "Integr": 8434, "os<eos>": 8435, "infra": 8436, "\u00f4te d'Ivoi": 8437, "Singap": 8438, "venc": 8439, "pa\u00eds, ": 8440, "World Bank": 8441, "an las ": 8442, "Cop": 8443, "tl": 8444, "ado la ": 8445, "e del ": 8446, "a recomend": 8447, "tal": 8448, "th and ": 8449, "con ben": 8450, "donor": 8451, "proposals for ": 8452, "ip": 8453, "hand": 8454, "<bos>One ": 8455, "todav\u00eda ": 8456, "paragraphs ": 8457, "with dis": 8458, "es que ": 8459, "demogr\u00e1fic": 8460, "atten": 8461, "atu": 8462, "cumplimient": 8463, "2009, ": 8464, "Caribbe": 8465, "equitable ": 8466, "establish": 8467, "ed, ": 8468, "justific": 8469, "Am\u00e9ric": 8470, "asi": 8471, "Sra. ": 8472, "field of ": 8473, "possibil": 8474, "cooperation between the ": 8475, "tre ": 8476, "as, las ": 8477, "cident": 8478, "estim": 8479, "\u00e1bit": 8480, "rights and ": 8481, "everth": 8482, "; (b) ": 8483, "low ": 8484, "<bos>Per": 8485, "security ": 8486, "nivel ": 8487, "\u00e9s": 8488, "reuniones ": 8489, "ated by ": 8490, "Advisory Committee on ": 8491, "energ": 8492, "ganiz": 8493, "enter": 8494, "terrorist": 8495, "especi": 8496, "ecutive ": 8497, "comi": 8498, "inter\u00e9s ": 8499, "Represent": 8500, "signific": 8501, "aci\u00f3n.<eos>": 8502, "management ": 8503, "damag": 8504, "conform": 8505, "estos ": 8506, "ser\u00e1 ": 8507, "41": 8508, "sourc": 8509, "er the ": 8510, "a, en ": 8511, "tran": 8512, "fied ": 8513, "aily ": 8514, "elev": 8515, "ef ": 8516, "Sea ": 8517, "lugar de ": 8518, "sen": 8519, "conflicts ": 8520, "cultur": 8521, "ac": 8522, "democr\u00e1tic": 8523, "ality ": 8524, "total ": 8525, "owever, ": 8526, "considera que ": 8527, "Article ": 8528, "to del ": 8529, "normativ": 8530, "able to ": 8531, "estrec": 8532, "hou": 8533, "least ": 8534, "call": 8535, "ar a las ": 8536, "registr": 8537, "designed to ": 8538, "dado ": 8539, "Asamblea ": 8540, "perpetrator": 8541, "lades": 8542, "rog": 8543, "lament": 8544, "Rep\u00fablica de Core": 8545, "vis": 8546, "fo": 8547, "national ": 8548, "ech": 8549, "ado una ": 8550, "ar a los ": 8551, "about the ": 8552, "organismos ": 8553, "proceso ": 8554, "1.1": 8555, "purpo": 8556, "endor": 8557, "\u00e3": 8558, "<bos>Furthermore, ": 8559, "nex ": 8560, "provided ": 8561, "de los pa\u00edses ": 8562, "ad ": 8563, "contribuciones ": 8564, "www.": 8565, "<bos>Re": 8566, "htt": 8567, "Gab": 8568, "respond": 8569, "Especial ": 8570, "great ": 8571, "Zel": 8572, "puesto ": 8573, "amiento de ": 8574, "Dem": 8575, "<bos>Rec": 8576, "question": 8577, "situation ": 8578, "announc": 8579, "occupied ": 8580, "m\u00e1": 8581, "conflict.<eos>": 8582, "var": 8583, "July ": 8584, "Estados Unidos de Am\u00e9ric": 8585, "A/58": 8586, "final ": 8587, "erv": 8588, "Bos": 8589, "highligh": 8590, "Afganist\u00e1n ": 8591, "impac": 8592, "contin": 8593, "ared ": 8594, "expedi": 8595, "ario de ": 8596, "trade ": 8597, "abiliz": 8598, "seguimient": 8599, "alization ": 8600, "perform": 8601, "habla en ": 8602, "40 ": 8603, "<bos>Se ": 8604, "e to be ": 8605, "<bos>Ex": 8606, "00 d\u00f3lares ": 8607, "temp": 8608, "on.<eos>": 8609, "D-": 8610, "wast": 8611, "posibles ": 8612, "compromiso ": 8613, "requ": 8614, "taken ": 8615, "ahor": 8616, "lab": 8617, "initi": 8618, "connection ": 8619, "Conference of the ": 8620, "dud": 8621, "canti": 8622, "Philippin": 8623, "enerse ": 8624, "Pe": 8625, "culp": 8626, "integral ": 8627, "s of the ": 8628, "puede ": 8629, "septi": 8630, "spo": 8631, "p\u00e1rraf": 8632, "efic": 8633, "Minister ": 8634, "Council.<eos>": 8635, "4, ": 8636, "aison ": 8637, "time ": 8638, "/S": 8639, "a) ": 8640, "entitled \u201c": 8641, "conduc": 8642, "enda ": 8643, "perjuici": 8644, "children": 8645, "teniendo ": 8646, "ciones ": 8647, "bro": 8648, "Fin": 8649, "sil": 8650, "ensuring ": 8651, "EE": 8652, "annu": 8653, "de ": 8654, "person": 8655, "encia ": 8656, "unos ": 8657, "ac\u00edfic": 8658, "pag": 8659, "used ": 8660, "ity ": 8661, "anj": 8662, "ado un ": 8663, "refu": 8664, "development, ": 8665, "cen": 8666, "b\u00fasqued": 8667, "ther ": 8668, "been ": 8669, "services, ": 8670, "chem": 8671, "Ken": 8672, "done ": 8673, "direc": 8674, "a a la ": 8675, "increasing ": 8676, "tul": 8677, "adem": 8678, "said that ": 8679, "contained in ": 8680, "M\u00e9xico, ": 8681, "intent": 8682, "ugos": 8683, "hacen ": 8684, "dol": 8685, "follow-up ": 8686, "monitor": 8687, "selv": 8688, "\u00e1mbi": 8689, "posteri": 8690, "n": 8691, "del ": 8692, "6 (": 8693, "despu\u00e9s de ": 8694, "dict": 8695, "a fin": 8696, "Polic": 8697, "ting and ": 8698, "especializ": 8699, "uci": 8700, "getary ": 8701, "qued": 8702, "Fund": 8703, "resources, ": 8704, "\u00f3 que ": 8705, "States and ": 8706, "countries ": 8707, "\u00f4te d'I": 8708, "institu": 8709, "tard": 8710, "them.<eos>": 8711, "antes, ": 8712, "development ": 8713, "ido el ": 8714, "dades ": 8715, "sociedad civil ": 8716, "uni\u00f3n ": 8717, "59": 8718, "to make ": 8719, "Committee, ": 8720, "bus": 8721, "odi": 8722, "sistem\u00e1tic": 8723, "just ": 8724, "Republic of Kore": 8725, "Convenci\u00f3n ": 8726, "Disarm": 8727, "facilitate ": 8728, "Mi": 8729, "income ": 8730, "fun": 8731, "clud": 8732, "denunci": 8733, "reports ": 8734, "<bos>Cuando ": 8735, "Servicio M": 8736, "Advisory Committee on Administrative and Budgetary ": 8737, "intenci\u00f3n de ": 8738, ".3": 8739, "emphasiz": 8740, "Fuer": 8741, "merg": 8742, "tribu": 8743, "jurisdicci\u00f3n ": 8744, "Sci": 8745, "activ": 8746, "mechanism": 8747, "Relator Especial ": 8748, "pac\u00edfic": 8749, "\u2022": 8750, "\" ": 8751, "approv": 8752, ":<eos>": 8753, "w": 8754, "Cari": 8755, "referred to ": 8756, "ci\u00f3n de ": 8757, "eradic": 8758, "reli": 8759, "pol\u00edticas, ": 8760, "ren ": 8761, "] [": 8762, "gobiern": 8763, "questions ": 8764, "Res": 8765, "hood": 8766, "armas nucleares ": 8767, "mon": 8768, "employment ": 8769, "p\u00e1rr": 8770, "ty-": 8771, "planes de ": 8772, "misma ": 8773, "fisc": 8774, "ultativ": 8775, "als ": 8776, "whol": 8777, "t\u00e9cnicos de ": 8778, "before ": 8779, "everthel": 8780, "atory ": 8781, "control": 8782, "Q": 8783, "vez ": 8784, "Republic ": 8785, "aint ": 8786, "Ad Hoc ": 8787, "humanitari": 8788, "<bos>Request": 8789, "orr": 8790, "Rep\u00fablica Democr\u00e1tic": 8791, "aron el ": 8792, "Li": 8793, "recomienda ": 8794, "cifras ": 8795, "claim": 8796, "ro, ": 8797, "\u00aa sesi\u00f3n, ": 8798, "\u00edod": 8799, "information on ": 8800, "actualiz": 8801, "Yugosla": 8802, "Asambl": 8803, "area ": 8804, "measures to ": 8805, "Ven": 8806, "build ": 8807, "a su ": 8808, "affec": 8809, "culo ": 8810, "al de ": 8811, "\u00e1s, ": 8812, "Management ": 8813, "Righ": 8814, "las Naciones Unidas.<eos>": 8815, "in terms of ": 8816, "should ": 8817, "6, ": 8818, "enth ": 8819, "structure ": 8820, "Sing": 8821, "require ": 8822, "orden ": 8823, "que las ": 8824, "a)<eos>": 8825, "delegaci\u00f3n de ": 8826, "ensu": 8827, "Cuba, ": 8828, "EP": 8829, "hincapi": 8830, "-related ": 8831, "gobierno ": 8832, "adas ": 8833, "arly ": 8834, "lugar, ": 8835, "ah": 8836, "sostenible ": 8837, "hacer ": 8838, "and": 8839, "personas que ": 8840, "General Assembly ": 8841, "al ": 8842, "author": 8843, "istic ": 8844, "gender equ": 8845, "exploit": 8846, "substantive ": 8847, "en la ": 8848, "ation, and ": 8849, "growth ": 8850, "alo": 8851, "196": 8852, "vers": 8853, "Convention on the ": 8854, "accordance with the ": 8855, "co": 8856, "ell": 8857, "marri": 8858, "p.m. ": 8859, "ent": 8860, "iter": 8861, "\u00f3": 8862, "ID": 8863, "tec": 8864, "much ": 8865, "tipos de ": 8866, "tratados ": 8867, "that": 8868, "proceso de ": 8869, "term ": 8870, "Ky": 8871, "simil": 8872, "alivi": 8873, "chi": 8874, "remedi": 8875, "imposi": 8876, "a el ": 8877, "tienen ": 8878, "in article ": 8879, "Chap": 8880, "condiciones ": 8881, "Oct": 8882, ",9": 8883, "make ": 8884, "thank ": 8885, "a;<eos>": 8886, "dialogu": 8887, "y (": 8888, "mediante ": 8889, "King": 8890, "hon": 8891, "cruci": 8892, "feder": 8893, "abarc": 8894, "y's ": 8895, "toda la ": 8896, "impuest": 8897, "<bos>\u2022 ": 8898, "sultiv": 8899, "5.<eos>": 8900, "human right": 8901, "p\u00e1": 8902, "a, los ": 8903, "ptim": 8904, "f\u00ed": 8905, "reduc": 8906, "<bos>At its ": 8907, "\u00c1frica ": 8908, "arm": 8909, "this ": 8910, "informe ": 8911, "pob": 8912, "erno ": 8913, "question of ": 8914, "edg": 8915, "Amb": 8916, "mag": 8917, "estr": 8918, "encia, ": 8919, "nuevos ": 8920, "Mold": 8921, "coll": 8922, "fre": 8923, "reach ": 8924, "asimismo ": 8925, "with regard ": 8926, "os, el ": 8927, "d\u00f3lares": 8928, "peac": 8929, "both ": 8930, ") ": 8931, "e<eos>": 8932, "amiento del ": 8933, "adopted by the ": 8934, "hi": 8935, "rendici\u00f3n de ": 8936, "isi\u00f3n ": 8937, "prove ": 8938, "response ": 8939, "ary.<eos>": 8940, "onia ": 8941, "27": 8942, "Congo, ": 8943, "HCH": 8944, "reco": 8945, "<bos>Welcom": 8946, "manu": 8947, "Mes": 8948, "re": 8949, "strali": 8950, "ign": 8951, "<bos>* ": 8952, "Armenia, ": 8953, "<bos>Requ": 8954, "mend": 8955, "s on ": 8956, "Regul": 8957, "a que la ": 8958, "ence.<eos>": 8959, "entre los ": 8960, "jud": 8961, "im ": 8962, "Gobierno de ": 8963, "e and ": 8964, "an en ": 8965, "found ": 8966, "2000, the ": 8967, "exc": 8968, "guar": 8969, "esa ": 8970, "os y ": 8971, "fici": 8972, "para ayud": 8973, "tical ": 8974, "sem": 8975, "in order to ": 8976, "whic": 8977, "incid": 8978, "Council's ": 8979, "VIH/SIDA": 8980, "embros ": 8981, "Eg": 8982, "protection ": 8983, "ffici": 8984, "<bos>The Council ": 8985, "Colombi": 8986, "por lo ": 8987, "os, en ": 8988, "Dr": 8989, "VI": 8990, "major": 8991, "det": 8992, "ember": 8993, "few ": 8994, "order": 8995, "E/C": 8996, "contamin": 8997, "cuesti\u00f3n ": 8998, "<bos>Las ": 8999, "anti-": 9000, "s/": 9001, "obje": 9002, "desast": 9003, "ES": 9004, "des ": 9005, "imparti": 9006, "expand": 9007, "strengthening ": 9008, "terior": 9009, "erradic": 9010, "al (": 9011, "Eslovaqui": 9012, "Manten": 9013, "derecho internacional ": 9014, "into ": 9015, "ently ": 9016, "luch": 9017, "si el ": 9018, "Serv": 9019, "<bos>However, ": 9020, "lo dispuesto ": 9021, "<bos>En el ": 9022, "curs": 9023, "cion": 9024, "deber\u00e1n ": 9025, "deten": 9026, "UN": 9027, "ful ": 9028, "so": 9029, "pidi\u00f3 ": 9030, "IS": 9031, "programmes ": 9032, "Comit\u00e9 ": 9033, "m\u00ednim": 9034, "seguridad ": 9035, "compromis": 9036, "es' ": 9037, "stream": 9038, "AL": 9039, "decision-": 9040, "Advisory Committee on Administrative and Bud": 9041, "vil": 9042, "identific": 9043, "Democratic ": 9044, "agenda.<eos>": 9045, "dirigentes ": 9046, "ida ": 9047, "level of ": 9048, "os Estados ": 9049, "RA": 9050, "consult": 9051, "inam": 9052, "ada de ": 9053, "unte": 9054, "ather": 9055, "Review ": 9056, "supports ": 9057, ",000 ": 9058, "paci": 9059, "reconstruc": 9060, "<bos>Draft ": 9061, "amend": 9062, "f\u00edsic": 9063, "ada por ": 9064, "demonstr": 9065, "internacional ": 9066, "sign": 9067, "ir\u00e1 ": 9068, "niveles ": 9069, "Midd": 9070, "marc": 9071, "<bos>Document": 9072, "a en ": 9073, "armed ": 9074, "1999.<eos>": 9075, "%": 9076, "22": 9077, "temas ": 9078, "caus": 9079, "lugar ": 9080, "us": 9081, "substanti": 9082, "delivery ": 9083, "<bos>Inform": 9084, "Government's ": 9085, "contra el ": 9086, "investigaci\u00f3n ": 9087, "espaci": 9088, "Vic": 9089, "y la ": 9090, "result": 9091, "sim": 9092, "del Consejo de ": 9093, "ad": 9094, "prevent ": 9095, "trafficking in ": 9096, "port": 9097, "ales de los ": 9098, "human rights ": 9099, "cas": 9100, "oportun": 9101, "associ": 9102, "en de ": 9103, "budget": 9104, "laun": 9105, "asoci": 9106, "gram": 9107, "ayuda ": 9108, "be": 9109, "ton ": 9110, "nivel": 9111, "gobern": 9112, "14, ": 9113, "also be ": 9114, "unic": 9115, "acts ": 9116, "resultados del ": 9117, "capacity to ": 9118, "hist": 9119, "ellas ": 9120, "<bos>Further ": 9121, "perspectiv": 9122, "tercer": 9123, "consultations ": 9124, "icit": 9125, "thre": 9126, "religios": 9127, "o que se ": 9128, "eran ": 9129, ".\u201d<eos>": 9130, "difundi": 9131, "ang": 9132, "alestin": 9133, "as de la ": 9134, "age ": 9135, "Protec": 9136, "\u00fanicamente ": 9137, "Ms. ": 9138, "fact ": 9139, "U": 9140, "intro": 9141, "car\u00e1c": 9142, "ada, ": 9143, "estruc": 9144, "m\u00edn": 9145, "Kyoto ": 9146, "million ": 9147, "stated ": 9148, "iii) ": 9149, "staff": 9150, "histori": 9151, "institutional ": 9152, "so ": 9153, "own ": 9154, "VIH/SIDA ": 9155, "scale ": 9156, "Relaciones ": 9157, "such a ": 9158, "t, ": 9159, "Republic of ": 9160, "<bos>G": 9161, "languag": 9162, "<bos>A": 9163, "ando la ": 9164, "encias ": 9165, "text of ": 9166, "e en ": 9167, "recur": 9168, "1994": 9169, "5 (": 9170, "ether ": 9171, "<bos>c) ": 9172, "Fund ": 9173, "<bos>(d) ": 9174, "Sueci": 9175, "tion to ": 9176, "sider": 9177, "\u00e9s): ": 9178, "a's ": 9179, ": ": 9180, "me ": 9181, "tion of ": 9182, "emp": 9183, "organ": 9184, "cuy": 9185, "en la que ": 9186, "proh\u00ed": 9187, "nuev": 9188, "civil society ": 9189, "conjunt": 9190, "<bos>By ": 9191, "etter ": 9192, "ated.<eos>": 9193, "forz": 9194, "epl": 9195, "fech": 9196, "199": 9197, "adecu": 9198, "plenary ": 9199, "Fo": 9200, "izo ": 9201, "sufici": 9202, "todas las ": 9203, "Tech": 9204, "mos": 9205, "return ": 9206, "encamin": 9207, "prop\u00f3si": 9208, "Convention, ": 9209, "convin": 9210, "related to ": 9211, "primera ": 9212, "re, the ": 9213, "disminu": 9214, "MI": 9215, "th meeting, on ": 9216, "UNMI": 9217, "Pen": 9218, "UNID": 9219, "after ": 9220, "o de sesiones ": 9221, "CD": 9222, "stakehol": 9223, "Crimin": 9224, "within ": 9225, "in accordance ": 9226, "mainten": 9227, "las ": 9228, "Sou": 9229, "na ": 9230, "onia, ": 9231, "aysi": 9232, "gender": 9233, "S/": 9234, "communications ": 9235, "5/": 9236, "seis ": 9237, "versity ": 9238, "Guid": 9239, "ost": 9240, "Programa de ": 9241, "High Commissioner for ": 9242, "<bos>Such ": 9243, "datab": 9244, "\u00eddic": 9245, "rol": 9246, "enfoque ": 9247, "Disaster ": 9248, "Grupo de Trabajo ": 9249, "del art\u00edculo ": 9250, "mit": 9251, "Committee on ": 9252, "pe": 9253, "pre": 9254, "Parte ": 9255, "ens": 9256, "ejercici": 9257, "Inform": 9258, "presu": 9259, "beg": 9260, "t the ": 9261, "ear": 9262, "to ensure ": 9263, ": (a) ": 9264, "o en el ": 9265, "plann": 9266, "recibir ": 9267, "haci": 9268, "a sus ": 9269, "alt": 9270, "and other ": 9271, "ar sus ": 9272, "en relaci\u00f3n con la ": 9273, "ar, ": 9274, "reci": 9275, "A/CN.9/": 9276, "trabaj": 9277, "Northern Irel": 9278, "les": 9279, "ean ": 9280, "impl": 9281, "\u00e1c": 9282, "-term ": 9283, "facili": 9284, ".7 ": 9285, "suf": 9286, "Representante Especial ": 9287, "ador, ": 9288, "applicable ": 9289, "power": 9290, "en el marco del ": 9291, "HC": 9292, "US": 9293, "comun": 9294, "there is a ": 9295, "Federaci\u00f3n de ": 9296, "design": 9297, "account ": 9298, "UNIF": 9299, "traf": 9300, "self-determin": 9301, "an B": 9302, "2008": 9303, "ci": 9304, "financier": 9305, "orities ": 9306, "q": 9307, "]": 9308, "statement": 9309, "an a los ": 9310, "anific": 9311, "p\u00e1rr.<eos>": 9312, "aplicar ": 9313, "together ": 9314, "Ad H": 9315, "ence, ": 9316, "ance.<eos>": 9317, "productive ": 9318, "indicated ": 9319, "ada en la ": 9320, "Western ": 9321, "anc": 9322, "mediat": 9323, "[A ": 9324, "sosp": 9325, "ente de la ": 9326, "desaf\u00ed": 9327, "aci\u00f3n del ": 9328, "Chair": 9329, "propone ": 9330, "ing to the ": 9331, "as\u00ed como la ": 9332, "<bos>Report ": 9333, "innov": 9334, "occur": 9335, "acc": 9336, "Party ": 9337, "organizaciones no gubernament": 9338, "sul": 9339, "ales.<eos>": 9340, "custom": 9341, "initial ": 9342, "sal": 9343, "needs of ": 9344, "\u200e": 9345, "assign": 9346, "nex": 9347, "jus": 9348, "and, ": 9349, "corpor": 9350, "olog": 9351, "Medi": 9352, "ar o ": 9353, "Liberi": 9354, "AS": 9355, "productiv": 9356, "period ": 9357, "held ": 9358, "work ": 9359, "interpre": 9360, "agenda ": 9361, "d'": 9362, "tali": 9363, "extend": 9364, "delincu": 9365, "guidance ": 9366, "with other ": 9367, "taking into account the ": 9368, "ground": 9369, "39": 9370, "empres": 9371, "all": 9372, "investigaciones ": 9373, "decisiv": 9374, "problems ": 9375, "who were ": 9376, "ago, ": 9377, "s and ": 9378, "participaci\u00f3n ": 9379, "express": 9380, "negotiations ": 9381, "mes": 9382, "reconci": 9383, "of ": 9384, "al, que ": 9385, "integrated ": 9386, "region.<eos>": 9387, "dimen": 9388, "arch": 9389, "las Naciones Unidas para el ": 9390, "April ": 9391, "ando de ": 9392, "que es ": 9393, "above ": 9394, "er.<eos>": 9395, "insta ": 9396, "se": 9397, "principio de ": 9398, "someti": 9399, "as": 9400, "Technolog": 9401, "need for ": 9402, "contribuy": 9403, "ed by ": 9404, "prioritari": 9405, "ar en ": 9406, "ning\u00fan ": 9407, "projec": 9408, "Asuntos ": 9409, "debt ": 9410, "24 ": 9411, "Implement": 9412, "Corrup": 9413, "cob": 9414, "ince ": 9415, "peace ": 9416, "Ugand": 9417, "ses ": 9418, "norm": 9419, "asistencia ": 9420, "y se ": 9421, "a del Nor": 9422, "Core": 9423, "sor ": 9424, "aport": 9425, "such ": 9426, "dif": 9427, "escal": 9428, "enc": 9429, "ation for ": 9430, "<bos>States ": 9431, "olu": 9432, "Coordin": 9433, "pueda ": 9434, "show ": 9435, "aciones del ": 9436, "<bos>Wi": 9437, "stud": 9438, "economic, ": 9439, "legislativ": 9440, "Agric": 9441, "uld ": 9442, "ici": 9443, "ast ": 9444, "regi\u00f3n.<eos>": 9445, "Peac": 9446, "la Comisi\u00f3n ": 9447, "creci": 9448, "preocupaci\u00f3n ": 9449, "Estado ": 9450, "tilater": 9451, "ting the ": 9452, "ence and ": 9453, "deport": 9454, "por el ": 9455, "posibil": 9456, "programa ": 9457, "que, ": 9458, "oficin": 9459, "ond ": 9460, "capacit": 9461, "indicator": 9462, "1 (": 9463, "2000, ": 9464, "\u00e1ctic": 9465, "' ": 9466, "ey ": 9467, "al": 9468, "aumento de la ": 9469, "escri": 9470, "s for ": 9471, "Johan": 9472, "12": 9473, "region ": 9474, "sigue siendo ": 9475, " y el ": 9476, "to ": 9477, "United Nations system ": 9478, "2007, ": 9479, "relating to ": 9480, "back": 9481, "acceso ": 9482, "ay, ": 9483, "sobre el ": 9484, "Act ": 9485, "with ": 9486, "excep": 9487, "plan de ": 9488, "e;<eos>": 9489, "al, el ": 9490, "bienes ": 9491, "raising ": 9492, "apli": 9493, "\u00edmen": 9494, "Luc": 9495, "bou": 9496, "per cent of the ": 9497, "general ": 9498, "<bos>Some ": 9499, "promul": 9500, "oc ": 9501, "ST": 9502, "oce ": 9503, "sus": 9504, "Cooperaci\u00f3n ": 9505, "Timor": 9506, "President": 9507, "Hum": 9508, "staf": 9509, "prohi": 9510, "<bos>Paragraph ": 9511, "marz": 9512, "Governing ": 9513, "Guinea-": 9514, "do, ": 9515, "EE.": 9516, "s with ": 9517, " de marzo de 200": 9518, "Americ": 9519, "ments ": 9520, "posibilidad de ": 9521, "ensure the ": 9522, "<bos>After ": 9523, "ended ": 9524, "as en ": 9525, "derechos humanos, ": 9526, "pp. ": 9527, "\u00e9xi": 9528, "estabilidad ": 9529, "real": 9530, "dispute ": 9531, "situaci\u00f3n ": 9532, "/P": 9533, "Report ": 9534, "Ad ": 9535, "research ": 9536, "lares ": 9537, "\u00fan ": 9538, "radio ": 9539, "sexual ": 9540, ",<eos>": 9541, "participate ": 9542, "federal ": 9543, " de ": 9544, "<bos>Esto ": 9545, "tocol": 9546, "t\u00e9rmin": 9547, "funds ": 9548, "rendi": 9549, "success": 9550, "basi": 9551, "contrat": 9552, "important ": 9553, "vital ": 9554, "ables ": 9555, "ade ": 9556, "particular ": 9557, "44 ": 9558, "Permanent ": 9559, "zon": 9560, "case ": 9561, "dependi": 9562, "agr\u00edcol": 9563, "minim": 9564, "ycl": 9565, "ci\u00f3n y ": 9566, "servicios de ": 9567, "sufr": 9568, "relating to the ": 9569, "a, que ": 9570, "cu": 9571, "[A C E ": 9572, "46": 9573, "educativ": 9574, "categor\u00eda ": 9575, "up": 9576, "positive ": 9577, "22 ": 9578, "an's ": 9579, "ada el ": 9580, "En": 9581, "encia y la ": 9582, "siz": 9583, "oph": 9584, "Government of ": 9585, "amp": 9586, "\u00e1men": 9587, "ejecut": 9588, "parti": 9589, "oli": 9590, "ello, ": 9591, "education ": 9592, "<bos>U": 9593, "ation of the ": 9594, "efect": 9595, "meth": 9596, "scal": 9597, "Bolivi": 9598, "rug ": 9599, "representantes ": 9600, "M": 9601, "University ": 9602, "4 ": 9603, " de novi": 9604, "treatment ": 9605, "si": 9606, "eed": 9607, "overall ": 9608, ".": 9609, "st ": 9610, "militar ": 9611, "civili": 9612, "ciudad": 9613, "consign": 9614, "Gobi": 9615, "Chil": 9616, "omen": 9617, "abov": 9618, "Millen": 9619, "independ": 9620, "manag": 9621, "different ": 9622, "ONU": 9623, "st": 9624, "obst\u00e1": 9625, " de agosto de ": 9626, "em ": 9627, "Service ": 9628, "49": 9629, "back ": 9630, "school ": 9631, "internacional, ": 9632, "cum": 9633, "noted that the ": 9634, "distri": 9635, "tric": 9636, "on the basi": 9637, "prot": 9638, "legislaci\u00f3n ": 9639, "major ": 9640, "<bos>She ": 9641, "partes ": 9642, "incluidos los ": 9643, "aci\u00f3n, ": 9644, "coordinaci\u00f3n ": 9645, "ly, the ": 9646, "countries to ": 9647, "lead ": 9648, "Desarrollo ": 9649, "fronter": 9650, "s and other ": 9651, "t and ": 9652, "supuest": 9653, "Prosecu": 9654, "o (": 9655, "Congres": 9656, "individual ": 9657, "preg": 9658, "con las ": 9659, "its ": 9660, "women": 9661, "outcome of the ": 9662, "Sup": 9663, "Sra": 9664, "uch ": 9665, "eter ": 9666, "enci": 9667, "fu": 9668, "hasta el ": 9669, ".00 hor": 9670, "<bos>Par": 9671, "wit": 9672, "di\u00f3 ": 9673, "obstante, ": 9674, "2004.<eos>": 9675, "custodi": 9676, "\u00fatil ": 9677, "regres": 9678, "h ": 9679, "quality ": 9680, "35": 9681, "s;<eos>": 9682, "pos": 9683, "conformidad con el ": 9684, "neigh": 9685, "OI": 9686, "ores": 9687, "realiz": 9688, "off ": 9689, "cier": 9690, "Secretary-General for ": 9691, "interest ": 9692, "para el desarrollo ": 9693, "women ": 9694, "ever": 9695, "31": 9696, "siemp": 9697, "adqu": 9698, "responsible ": 9699, "fur": 9700, "extern": 9701, "dificultades ": 9702, "\u201d ": 9703, "The ": 9704, "add": 9705, "termin": 9706, "all the ": 9707, "communities ": 9708, "torture ": 9709, "t of ": 9710, "desarme ": 9711, "as, y ": 9712, "religious ": 9713, "idades de ": 9714, "1.<eos>": 9715, "of the International ": 9716, "may ": 9717, "gro": 9718, "mainly ": 9719, "may": 9720, "en relaci\u00f3n con el ": 9721, "de la sociedad civil ": 9722, "per\u00edod": 9723, "ability and ": 9724, "Elec": 9725, "o que ": 9726, "Indi": 9727, "arg": 9728, "cooperaci\u00f3n ": 9729, "Acuer": 9730, "Saudit": 9731, "entreg": 9732, "ventaj": 9733, "alto ": 9734, "culos ": 9735, "a, y ": 9736, "os en la ": 9737, "Am": 9738, "ni\u00f1os y ": 9739, "Reduc": 9740, "towards the ": 9741, "discapacidad ": 9742, "Pover": 9743, "cel": 9744, "international commun": 9745, "arios.<eos>": 9746, "k ": 9747, "ek ": 9748, "United States of ": 9749, "<bos>Por lo tant": 9750, "o, el Comit\u00e9 ": 9751, "Ap": 9752, "said ": 9753, "possi": 9754, "ninguna ": 9755, "loc": 9756, "<bos>Or": 9757, "restric": 9758, "spok": 9759, "cases ": 9760, "Secretary-General, ": 9761, "arreglo ": 9762, "available ": 9763, "pueblos ": 9764, "combat ": 9765, "mor": 9766, "March ": 9767, "I) ": 9768, "dom": 9769, "ern ": 9770, "s that the ": 9771, "adas en ": 9772, "ween ": 9773, "reducci\u00f3n de la ": 9774, "\u00f6": 9775, "t of the ": 9776, "rule of ": 9777, "three ": 9778, "per\u00edodo de sesiones.<eos>": 9779, "tor": 9780, "develop ": 9781, "sosteni": 9782, "a a las ": 9783, "<bos>Entre ": 9784, "function": 9785, "\u00e9s, ": 9786, "s\u00f3lo ": 9787, "fam": 9788, "Hait": 9789, "States.<eos>": 9790, "14 ": 9791, "\u00e1nic": 9792, "millones de d\u00f3lares ": 9793, "abiliti": 9794, "aid ": 9795, "; and ": 9796, "Commission for ": 9797, "alc": 9798, "incuag\u00e9simo ": 9799, "depen": 9800, "approach": 9801, "os; ": 9802, "paragraph ": 9803, "Segur": 9804, "trial ": 9805, "ation's ": 9806, "bl": 9807, "os de ": 9808, "<bos>An ": 9809, "providing ": 9810, "statistic": 9811, "domin": 9812, "official ": 9813, "factor": 9814, "aumentar la ": 9815, "que no se ": 9816, "employe": 9817, "generales ": 9818, "\uf091": 9819, "mej": 9820, "grupos ": 9821, "o en ": 9822, "forum": 9823, "segu": 9824, "al y el ": 9825, "equipo ": 9826, "der ": 9827, "Sant": 9828, "E/CN": 9829, "presupuesto ": 9830, "most ": 9831, "information and ": 9832, "s, ": 9833, "especially ": 9834, "izaci\u00f3n ": 9835, "included in the ": 9836, "manner ": 9837, "funci\u00f3n ": 9838, "whom ": 9839, "30 June ": 9840, "Advisory Committee ": 9841, "salv": 9842, "Operaciones de Mantenimiento de la Paz": 9843, "edimient": 9844, "fol": 9845, "por un ": 9846, "Pa\u00edses B": 9847, "que": 9848, "gather": 9849, "sha": 9850, "preven": 9851, "<bos>Other ": 9852, "n Americ": 9853, "authority ": 9854, "ust ": 9855, "\u00edstic": 9856, "informe de la ": 9857, "Human": 9858, "celebrada el ": 9859, "Internacional sobre la ": 9860, "un ": 9861, "<bos>a ": 9862, "vac": 9863, "thor": 9864, "obstac": 9865, "contribuir ": 9866, "es decir": 9867, "en que ": 9868, "ort": 9869, "relating ": 9870, "apoyo a los ": 9871, "casti": 9872, "eep": 9873, "um": 9874, "Herz": 9875, "alist": 9876, "ticle ": 9877, "os": 9878, "abril ": 9879, "compr": 9880, "materials ": 9881, "contact ": 9882, "ansi": 9883, "Federaci\u00f3n de Rusi": 9884, "prior ": 9885, "necesarios ": 9886, "s to be ": 9887, "balance ": 9888, "incumplimient": 9889, "Afghanistan ": 9890, "repercu": 9891, "meeting": 9892, "police ": 9893, "respuest": 9894, "emi": 9895, "execu": 9896, "to de los ": 9897, "saf": 9898, "confi": 9899, "among ": 9900, "bun": 9901, "account": 9902, "Office for ": 9903, "welcom": 9904, "<bos>(": 9905, "proceeding": 9906, "<bos>Seg\u00fan ": 9907, "escuela ": 9908, "resid": 9909, "cuatro ": 9910, "mentioned ": 9911, "junt": 9912, "labor ": 9913, "esta ": 9914, "ada en los ": 9915, "R ": 9916, "link": 9917, "past ": 9918, "Comunidad ": 9919, "refl": 9920, "st, ": 9921, "Law ": 9922, "II": 9923, "ew ": 9924, "strength": 9925, "a a ": 9926, "sider ": 9927, "suces": 9928, "short": 9929, "amen ": 9930, "agreement ": 9931, "U ": 9932, "Six": 9933, "instrumentos ": 9934, "was a ": 9935, "respecto ": 9936, "Declar": 9937, "o de los ": 9938, "ment, ": 9939, "gub": 9940, "not ": 9941, "drug ": 9942, "Caribe ": 9943, "lograr la ": 9944, "versi\u00f3n ": 9945, "escuel": 9946, "per\u00edodos de sesiones ": 9947, "25": 9948, "55": 9949, "consideration of the ": 9950, "asesor": 9951, "framework": 9952, "UNITA": 9953, "ribu": 9954, "incluido el ": 9955, "illicit ": 9956, "human rights and ": 9957, "descrip": 9958, "<bos>Adem\u00e1s, ": 9959, "small ": 9960, "ble, ": 9961, "que el ": 9962, "Nai": 9963, "method": 9964, "aument": 9965, "him": 9966, "provinci": 9967, "/4": 9968, "es, the ": 9969, "Jur": 9970, "sion, ": 9971, "miembros ": 9972, "who ": 9973, "viv": 9974, "lead": 9975, "outcom": 9976, "pointed out ": 9977, ">": 9978, "homb": 9979, "<bos>There ": 9980, "usu": 9981, "United States of Americ": 9982, "efici": 9983, "ores ": 9984, "noted ": 9985, "derech": 9986, "situation of ": 9987, "Associ": 9988, "car\u00e1cter ": 9989, "Pol\u00edtic": 9990, "map": 9991, "agencies and ": 9992, "asistencia t\u00e9cnic": 9993, "duci": 9994, "11 ": 9995, "German": 9996, "poner ": 9997, "solu": 9998, "sent ": 9999, "<bos>Moreover": 10000, "comienz": 10001, "militares ": 10002, "trav\u00e9s ": 10003, "as y las ": 10004, "o, as\u00ed como ": 10005, "uso de ": 10006, "<bos>Estos ": 10007, "Turqu": 10008, "plement ": 10009, "delincuencia ": 10010, "ester": 10011, "circ": 10012, "climate chang": 10013, "Int": 10014, "<bos>Res": 10015, "<bos>Not": 10016, "17": 10017, "initiatives ": 10018, "proces": 10019, "Art\u00edculo ": 10020, "reflec": 10021, "aunque ": 10022, "dollar": 10023, "Herzegov": 10024, "3.<eos>": 10025, "Zimb": 10026, "amer": 10027, "resol": 10028, "cours": 10029, "venci": 10030, "promoci\u00f3n de la ": 10031, "PA": 10032, "condiciones de ": 10033, "<bos>El Grupo ": 10034, "ations ": 10035, "fore the ": 10036, "response to ": 10037, "e in": 10038, "incluid": 10039, "es la ": 10040, "Guine": 10041, "relativas al ": 10042, "Paz": 10043, "ir\u00e1n ": 10044, "a de los Estados ": 10045, "level ": 10046, "security.<eos>": 10047, "Derechos del ": 10048, "ev": 10049, "es (": 10050, "crime ": 10051, "Regional ": 10052, "\u00e9tic": 10053, "emin": 10054, "oportunidad ": 10055, "\u00e9st": 10056, "documento de ": 10057, "ese ": 10058, "Monteneg": 10059, "alleng": 10060, "aci\u00f3n en ": 10061, "agre": 10062, "particularly ": 10063, "guidelin": 10064, "eth": 10065, "entorno ": 10066, "ada y ": 10067, "that the ": 10068, "antil ": 10069, "desarroll": 10070, "mis": 10071, "confer": 10072, "o las ": 10073, "libert": 10074, "<bos>Desde ": 10075, "Centro de ": 10076, "cons": 10077, "accu": 10078, "ar las ": 10079, "nam": 10080, "person ": 10081, "peace and ": 10082, "effectiv": 10083, "parlament": 10084, "proporcion": 10085, "deal ": 10086, "func": 10087, "industri": 10088, "osp": 10089, "peci": 10090, "aspec": 10091, "with the ": 10092, "ofreci": 10093, "y que ": 10094, "29": 10095, "en particular el ": 10096, "decisions ": 10097, " (A/": 10098, "campa": 10099, "democratic ": 10100, "that is ": 10101, "courag": 10102, "\u00f3 su ": 10103, "beyond ": 10104, "necess": 10105, ") del ": 10106, "yp": 10107, "great": 10108, "expan": 10109, "anim": 10110, "as well ": 10111, "several ": 10112, "OM": 10113, "lob": 10114, "resource ": 10115, "opportunities for ": 10116, "righ": 10117, "year ": 10118, "ten": 10119, "ill ": 10120, "when the ": 10121, "fueron ": 10122, "76": 10123, "export": 10124, "th session ": 10125, "Organizaci\u00f3n de ": 10126, "abl": 10127, "F/": 10128, "retur": 10129, "Mac": 10130, "areas of ": 10131, "Can": 10132, "Secretar": 10133, "rse ": 10134, " de juli": 10135, "Ag": 10136, "has ": 10137, "actividades de ": 10138, "increased ": 10139, "-level ": 10140, "Polonia, ": 10141, "e.g. ": 10142, "1\u00b0": 10143, "defici": 10144, "ado a ": 10145}