{"live ": 0, "TA": 1, "sab": 2, "they are ": 3, "inmediat": 4, "og": 5, "Sub": 6, "complement": 7, "Convenio ": 8, "convic": 9, "2/": 10, "combat ": 11, "3,": 12, "Consejo de Seguridad.<eos>": 13, "Administración ": 14, "<bos>Nevertheles": 15, "ado los ": 16, "High": 17, "perpetrat": 18, "artí": 19, "el ": 20, "demon": 21, "differ": 22, "intergubernament": 23, "trata de person": 24, "EM": 25, "development, ": 26, "ant": 27, "sive ": 28, "Manag": 29, "preocupación ": 30, "fric": 31, "Nueva ": 32, "tor ": 33, "2) ": 34, "as well as ": 35, "mend": 36, "publish": 37, "agencies and ": 38, "sexual ": 39, "terror": 40, "physical ": 41, "o) ": 42, "medic": 43, "particularly ": 44, "United Nations system ": 45, "mund": 46, "Corte ": 47, "en cuanto ": 48, "necessary ": 49, "effectiveness of ": 50, "aje ": 51, "estos ": 52, "tradi": 53, "desastres ": 54, "origin": 55, "extranjer": 56, "mujer": 57, "effectiv": 58, "ado de ": 59, "/COP": 60, "participar": 61, "principle of ": 62, "exis": 63, ".2 ": 64, "<bos>UNICEF ": 65, "reason": 66, "Organización ": 67, "comunidad ": 68, "Tanz": 69, "": 70, "búsqued": 71, "A/58": 72, "ada por la ": 73, "million ": 74, "gl": 75, "escala ": 76, "<bos>De ": 77, "in de ": 78, "operaciones ": 79, "Kaz": 80, "Ric": 81, "ener": 82, "ecu": 83, ", to ": 84, "providing ": 85, "financieras ": 86, "delivery ": 87, "s/": 88, "República de Core": 89, "production ": 90, "contex": 91, "conditions of ": 92, "emergency ": 93, "adicion": 94, "as: ": 95, "Records of the ": 96, "Si": 97, "om ": 98, "casi": 99, "least developed ": 100, "MA ": 101, "pág": 102, "ir": 103, "Fund ": 104, "und": 105, "justific": 106, "an de ": 107, "ated by the ": 108, "Unid": 109, "safet": 110, "enhance the ": 111, "mediat": 112, "ne": 113, "entr": 114, "deport": 115, "<bos>Deci": 116, "ality of ": 117, "st": 118, "aprob": 119, "partir ": 120, "<bos>Pro": 121, "noted that the ": 122, "21": 123, "Cent": 124, "expend": 125, "Par": 126, "Secret": 127, "jec": 128, "OPS ": 129, "genocidi": 130, "novi": 131, "bodi": 132, "national, ": 133, "Gu": 134, "significant ": 135, "entre otras cosas, ": 136, "mission ": 137, "growth ": 138, "brief": 139, "conducted ": 140, "Afgh": 141, "number ": 142, "essential ": 143, "ay ": 144, "derechos humanos y las libertades ": 145, "unci": 146, "vol": 147, "ación de los ": 148, "o de las Naciones Unidas ": 149, "órganos ": 150, "<bos>An": 151, "by the ": 152, "adoptado ": 153, "<bos>Cap": 154, "cuestion": 155, "Labour ": 156, "increas": 157, "o y los ": 158, "follow": 159, "acus": 160, "donor": 161, "american": 162, "Forest": 163, "www": 164, "punish": 165, "<bos>More": 166, "ear": 167, "ot": 168, "not to ": 169, "aimed at ": 170, "ambas ": 171, "medios de ": 172, "embre ": 173, "sed ": 174, "Jun": 175, "facilitar la ": 176, "<bos>Since the ": 177, "Fondo ": 178, "ocer ": 179, "deliber": 180, "<bos>A ": 181, "Pr": 182, "resultados del ": 183, "ado por la ": 184, "de la mujer ": 185, "ador, ": 186, "derechos human": 187, "aria, ": 188, "6.<eos>": 189, "glob": 190, "o, las ": 191, "<bos>Item ": 192, "ques": 193, "o, el ": 194, "alu": 195, "introduci": 196, "development of the ": 197, "CEDAW": 198, "well": 199, "se ": 200, "violence against ": 201, "signific": 202, "IG": 203, "histor": 204, "within the ": 205, "dej": 206, "largo plaz": 207, "suppli": 208, "report of the Secretary-General ": 209, "held ": 210, "andia, ": 211, "a a los ": 212, "adecu": 213, "afirm": 214, "ciudadan": 215, "bou": 216, "de la Asamblea Gener": 217, "refugee ": 218, "4.<eos>": 219, "perspectiv": 220, "tasas de ": 221, "order": 222, "wish to ": 223, "naturalez": 224, "uer": 225, "ity and ": 226, "cred": 227, "function": 228, "<bos>In this ": 229, "44": 230, "Islas ": 231, "habla en inglés): ": 232, "que": 233, "ales (": 234, "programme": 235, "transfer of ": 236, "crear un ": 237, "Maced": 238, "exper": 239, "F": 240, "their respective ": 241, "…": 242, "later ": 243, "disarm": 244, "combin": 245, "recibido ": 246, "o y ": 247, "parent": 248, "as y la ": 249, "victim": 250, "immedi": 251, "Tortur": 252, "Let": 253, "pod": 254, "transi": 255, "present ": 256, "going ": 257, "conformity ": 258, "tilater": 259, "not be ": 260, "ar a la ": 261, "group ": 262, "ilater": 263, "íod": 264, "métodos de ": 265, "<bos>Examen ": 266, "00 dólares ": 267, "proy": 268, "an a los ": 269, "div": 270, "Erit": 271, "58": 272, "ítulo ": 273, "ed in a ": 274, "asisti": 275, "resources": 276, "Criminal ": 277, "ank ": 278, "Found": 279, "e of ": 280, "entre los ": 281, "asistencia técnic": 282, "ables.<eos>": 283, "tipos de ": 284, "aclar": 285, "violence ": 286, "anj": 287, "ación y ": 288, "a re": 289, "part": 290, "dentr": 291, "mechanism": 292, "nuclear ": 293, "cuper": 294, "ation to ": 295, "emple": 296, "os, ": 297, "nes": 298, "ation or ": 299, "web ": 300, "comunidades ": 301, "ty ": 302, "establecimient": 303, "organization ": 304, "al y el ": 305, "ture ": 306, "information ": 307, "), ": 308, "distintas ": 309, "plenamente ": 310, "as de los ": 311, "deal ": 312, "sistemas ": 313, "en su ": 314, "ect": 315, "t": 316, "mitted ": 317, "Colombia, ": 318, "or to ": 319, "ígen": 320, "nivel": 321, "a": 322, "UNIF": 323, "proceeding": 324, "ris": 325, "obern": 326, "y<eos>": 327, "more ": 328, "ments ": 329, "2001 ": 330, "todos los Estados ": 331, "útil ": 332, "puedan ": 333, "las Naciones Unidas, ": 334, "ement of ": 335, "informe del ": 336, "better ": 337, "; (b) ": 338, "with dis": 339, "aul": 340, "ta, ": 341, "H ": 342, "Derecho ": 343, "deceni": 344, "ordinary ": 345, "ídic": 346, "dades ": 347, "o al ": 348, "Oficina ": 349, "ueg": 350, "acad": 351, "destinadas a ": 352, "pronunci": 353, "enfo": 354, "isión ": 355, "aban ": 356, "ámbit": 357, "comend": 358, "liber": 359, "shall be ": 360, "ían ": 361, "elector": 362, "echten": 363, "comercio ": 364, "adici": 365, "Embaj": 366, "for the biennium ": 367, "por los ": 368, "y, en ": 369, "tor": 370, "prop": 371, "UU": 372, "as well ": 373, ": (a) ": 374, "role ": 375, "decision ": 376, "<bos>Reafirm": 377, "Maur": 378, "vil ": 379, "éan": 380, "ín": 381, "made ": 382, "<bos>Please ": 383, "establec": 384, "15": 385, "not ": 386, "otr": 387, "poder ": 388, "in connection with the ": 389, "Moldov": 390, "embols": 391, "gol": 392, "funcion": 393, "toward": 394, "bodies ": 395, "0.<eos>": 396, "presente ": 397, "Seguridad ": 398, "ff ": 399, "ya que ": 400, "estados ": 401, "UNCTAD ": 402, "ili": 403, "Committee on the ": 404, "living ": 405, "ribu": 406, "ó que la ": 407, "tip": 408, "aron en ": 409, "es on ": 410, "subregional ": 411, "tienen ": 412, "information on the ": 413, "Non-": 414, "seek": 415, "epid": 416, "dispu": 417, "géner": 418, "poner ": 419, "Cz": 420, "him": 421, "situation ": 422, "Bosnia and ": 423, "Federación de Rusi": 424, "ates the ": 425, "tuvo ": 426, "Development": 427, "otros ": 428, "Int": 429, "http:/": 430, "Ö": 431, "Ethi": 432, "s from ": 433, "disposiciones ": 434, "escal": 435, "advic": 436, "es un ": 437, "55/2": 438, "bring ": 439, "response ": 440, "deber": 441, "lograr ": 442, "Salv": 443, "mechanisms ": 444, "that, in ": 445, "e; ": 446, "organ": 447, "approv": 448, "bet": 449, "gobierno ": 450, "1373 (2001": 451, "s who ": 452, "ía de ": 453, "for the ": 454, "segu": 455, "would be ": 456, "s, the ": 457, "job": 458, "a ": 459, "exchange of ": 460, "consultations ": 461, "posteri": 462, "recom": 463, "líne": 464, "sic": 465, "by ": 466, "ambién ": 467, "desarrollo de ": 468, "período de sesiones, ": 469, "internation": 470, "conocimient": 471, "Optional ": 472, "ford": 473, "clar": 474, "menores de ": 475, "A": 476, "mani": 477, "Management ": 478, "Special ": 479, "there is ": 480, "Ofici": 481, "izo ": 482, "women.<eos>": 483, "2002, ": 484, "Convención ": 485, "os; ": 486, "Hab": 487, "of the United Nations ": 488, "contecimient": 489, "workshop": 490, "promoción de la ": 491, "sigue ": 492, "innov": 493, "ION": 494, "31, ": 495, "session ": 496, "Millennium Development ": 497, "to de los ": 498, "principles of ": 499, "ean": 500, "projec": 501, "appeal ": 502, "hizo ": 503, "outer ": 504, "sociales y ": 505, "circunstanci": 506, "<bos>Sin ": 507, "sistema de ": 508, "control ": 509, "prove ": 510, "período de ": 511, "school": 512, "cooperación ": 513, "nacional y ": 514, "), el ": 515, "ada del ": 516, "sta ": 517, "es decir": 518, "alization ": 519, "advoc": 520, "alez": 521, "ork": 522, "planning ": 523, "ía, ": 524, "commit": 525, "aris": 526, ").<eos>": 527, "difundi": 528, "phen": 529, "sería ": 530, "responsabilidad ": 531, "design": 532, "Sta": 533, "relevant ": 534, "derechos y ": 535, "does ": 536, "p.m. ": 537, "Áfric": 538, "programmes.<eos>": 539, "que figur": 540, "enfer": 541, "on the implementation of the ": 542, "rur": 543, "advisory ": 544, "os de los ": 545, "$": 546, "crime ": 547, "dieron ": 548, "en el contexto del ": 549, "éric": 550, "has not ": 551, "sector ": 552, "ably ": 553, "eep": 554, "menist": 555, "know": 556, "<bos>Inform": 557, "ada y ": 558, "excep": 559, "<bos>For ": 560, "Rev.1": 561, "ost": 562, "acto ": 563, "approach ": 564, "cal": 565, "ected ": 566, "étnic": 567, "integrated ": 568, "extra": 569, "education and ": 570, "to ensure that ": 571, "NP": 572, "famili": 573, "compati": 574, "a todos los ": 575, "te.<eos>": 576, "servici": 577, "ey ": 578, "specialized ": 579, "venc": 580, "1999, ": 581, "that all ": 582, "aff": 583, "<bos>(f) ": 584, "increased ": 585, "ed, ": 586, "importance of ": 587, "au": 588, "getary ": 589, "ance and ": 590, "Observ": 591, "ak": 592, "work.<eos>": 593, "ni ": 594, "sc": 595, "ex ": 596, "as de la ": 597, "A/55/": 598, "s to be ": 599, "highligh": 600, "tard": 601, "ado una ": 602, "cons": 603, "fortalecimient": 604, "Consejo Económico y Social ": 605, "in the ": 606, "could be ": 607, "divul": 608, "ONUD": 609, "abarc": 610, "remain": 611, "activamente ": 612, "por ": 613, "based ": 614, "<bos>Aco": 615, "viron": 616, "fij": 617, " of ": 618, "ref": 619, "a no ": 620, "Inf": 621, "staf": 622, "objeto de ": 623, "obligations ": 624, "áli": 625, "<bos>No": 626, "%.<eos>": 627, "recursos ": 628, "old": 629, "ar": 630, "difficul": 631, "tion and ": 632, "build": 633, "1998": 634, "Jap": 635, "prisión ": 636, "c": 637, ",0": 638, "ados ": 639, "juvenil": 640, "consideration of the ": 641, "NU": 642, "debemos ": 643, "care ": 644, "to address ": 645, "en Áfric": 646, "Lu": 647, "HIV/AIDS": 648, "aspect": 649, "citizen": 650, "jet": 651, "self-determin": 652, "milli": 653, "Poli": 654, "o de ": 655, "2002 ": 656, "2001.<eos>": 657, "más ampli": 658, "have ": 659, "ál": 660, "femenin": 661, "viv": 662, "conduc": 663, "reun": 664, "Cong": 665, "Proces": 666, "civilian ": 667, "migr": 668, "jus": 669, "sustitu": 670, "lease ": 671, "partid": 672, "Human Right": 673, "several ": 674, "Conference ": 675, "Children's ": 676, "<bos>Also ": 677, "én": 678, "educativ": 679, "asi": 680, "cap": 681, "campa": 682, "Polic": 683, "work of the ": 684, "principio de ": 685, "régimen ": 686, "ecimient": 687, "sospech": 688, "vida ": 689, "ó": 690, "à": 691, "resolución ": 692, "allow": 693, "ism ": 694, "medid": 695, "procedimient": 696, "Uni": 697, "Bah": 698, "úsqued": 699, "PNU": 700, "adores ": 701, "similar ": 702, "entre otras ": 703, "ound ": 704, "sectori": 705, "err": 706, "Commun": 707, "Plan of ": 708, "ret": 709, "Council, ": 710, "US": 711, "as en el ": 712, "fully ": 713, "achieve ": 714, "amente, ": 715, "describ": 716, "internacionales, ": 717, "adas a ": 718, "potenti": 719, "<bos>": 720, "human or ": 721, "º período de sesiones ": 722, "firm ": 723, "campament": 724, "Mi": 725, "umb": 726, "them ": 727, "ject": 728, "Rel": 729, "población ": 730, "unos ": 731, "reconci": 732, "num": 733, "no.<eos>": 734, "nacion": 735, "intercambi": 736, "habían ": 737, "penal ": 738, "<bos>Other ": 739, "chang": 740, "ación de una ": 741, "abr": 742, "enior ": 743, "<bos>UN": 744, "orden": 745, "der ": 746, "exam": 747, "de ": 748, "categ": 749, "aspir": 750, "juris": 751, "with regard to ": 752, "<bos>Accord": 753, "ond": 754, "siguient": 755, "estruc": 756, "consign": 757, "agos": 758, "ber": 759, "arbitrary ": 760, "fron": 761, "sk": 762, "ados para ": 763, "UNF": 764, "dirigida al ": 765, "with": 766, "ability ": 767, "hast": 768, "simil": 769, "armas ": 770, "<bos>Con respecto ": 771, "interests of ": 772, "í": 773, "can ": 774, "everth": 775, "50": 776, "desech": 777, "<bos>I": 778, "perform": 779, "most ": 780, "necesario ": 781, "nacionales ": 782, "s were ": 783, "creation of ": 784, "opportunities ": 785, "segund": 786, "act ": 787, "a una ": 788, "isc": 789, "The ": 790, "nuestro ": 791, "existing ": 792, "human rights, ": 793, "official ": 794, "podrá ": 795, "efic": 796, "voluntarios internacionales de ": 797, "ave ": 798, "Estados Unid": 799, "ST": 800, "NG": 801, "pre": 802, "aju": 803, "promul": 804, "Disarmament ": 805, "enable ": 806, "tim": 807, "s. ": 808, "set up ": 809, "ero ": 810, "ang": 811, "sem": 812, "guerra ": 813, "cause ": 814, "character": 815, "acts ": 816, "igh ": 817, "delegación de ": 818, "<bos>Qu": 819, "Working Group ": 820, "ation, and ": 821, "Ital": 822, "flow": 823, "org": 824, "derechos de ": 825, "environmental ": 826, "typ": 827, "strength": 828, "lear": 829, "Am": 830, "antes ": 831, "as; ": 832, "Dis": 833, "aplicable ": 834, "reli": 835, "to de las ": 836, "regional ": 837, "µ": 838, "No.<eos>": 839, "Re": 840, "por": 841, "net ": 842, "culos ": 843, "ía y ": 844, "ad ": 845, "número de ": 846, "Jamaica, ": 847, "not": 848, "on-": 849, " of the ": 850, "hon": 851, "use ": 852, "Bo": 853, "consequenc": 854, "as y las ": 855, "Can": 856, "urther ": 857, "de la Ley ": 858, "util": 859, "correc": 860, "contact ": 861, "febr": 862, "2006 ": 863, "statu": 864, "después ": 865, "akist": 866, "encu": 867, "defin": 868, "art": 869, "15, ": 870, "igual ": 871, "comienz": 872, "Consejo de ": 873, "voluntarios internacionales de las Naciones Unidas": 874, "man": 875, "es for ": 876, "<bos>Ex": 877, "off": 878, "consu": 879, "ét": 880, "fin de ": 881, "ando los ": 882, "anc": 883, "que han ": 884, "76": 885, "cern": 886, "previst": 887, "least ": 888, "own ": 889, ".6": 890, "OM": 891, "operational ": 892, "rule ": 893, "wit": 894, "o, en ": 895, "Consejo Económico y ": 896, "Ro": 897, "mic": 898, "ar el ": 899, "porque ": 900, "irse ": 901, "war": 902, "onic ": 903, "rit": 904, "method": 905, "visory ": 906, "arse ": 907, "distri": 908, "por ejempl": 909, "Co": 910, "intell": 911, "Kuwait ": 912, "unable to ": 913, "<bos>To ": 914, "dicho ": 915, "plac": 916, "es in the ": 917, "ences and ": 918, "commercial ": 919, "parte de los ": 920, "aver": 921, "members ": 922, "ight ": 923, "reper": 924, "Ap": 925, "preg": 926, "required ": 927, "session of the ": 928, "fecha ": 929, "attack": 930, "debidamente ": 931, "tan ": 932, "asociación ": 933, "necesidades ": 934, "o se ": 935, "es the ": 936, "ón<eos>": 937, "con otros ": 938, "ance of the ": 939, "Commis": 940, "concerning the ": 941, "precis": 942, "Grupo de ": 943, "group": 944, "so ": 945, "<bos>Sum": 946, "<bos>Ha ": 947, "una ": 948, "hay ": 949, "annex ": 950, "busin": 951, "term ": 952, "strategy ": 953, "technical ": 954, ".org": 955, "a del Nor": 956, "TE": 957, "commission": 958, "Cari": 959, "informed ": 960, "World Summit ": 961, "académic": 962, "celebrada en ": 963, "rendición de cuent": 964, "Refuge": 965, "en cuent": 966, "Minister": 967, "Departament": 968, "do ": 969, "ality and ": 970, "cannot be ": 971, "Chil": 972, "construc": 973, "alternative ": 974, "Region": 975, "Austri": 976, "fortal": 977, "Constitu": 978, ".<eos>": 979, "ación por ": 980, "Viet ": 981, "aba ": 982, "ados a ": 983, "cruci": 984, "de la sociedad civil ": 985, "Beijing ": 986, "policies and ": 987, "rest ": 988, "embre de ": 989, "retir": 990, "escol": 991, "unto de ": 992, "eri": 993, "Member States, ": 994, "despli": 995, "ext": 996, "Welfare ": 997, "elimin": 998, "armed ": 999, "Record": 1000, "three ": 1001, "ará el ": 1002, "ted to ": 1003, "prioridades ": 1004, "31 ": 1005, "15 ": 1006, "delito ": 1007, "cr": 1008, "homb": 1009, "<bos>G": 1010, "reconstruc": 1011, "visión ": 1012, "por lo ": 1013, "bien ": 1014, "mechanism ": 1015, "up to ": 1016, "IT": 1017, "tr": 1018, "deser": 1019, "Democrátic": 1020, "<bos>Reg": 1021, "recover": 1022, "ores ": 1023, "Chair": 1024, "ating the ": 1025, "región ": 1026, "raí": 1027, "pow": 1028, "Elec": 1029, "uestr": 1030, "responsibility ": 1031, "ard": 1032, "sector": 1033, "requirements ": 1034, "ífic": 1035, "diom": 1036, "Se ": 1037, "23": 1038, "enerse ": 1039, "ingly ": 1040, "pedi": 1041, "necesari": 1042, "racism": 1043, "ild": 1044, "estrech": 1045, "7": 1046, "programm": 1047, "padres ": 1048, "técnic": 1049, "ure ": 1050, "<bos>Por ": 1051, "idiom": 1052, "hay": 1053, "land": 1054, "nov": 1055, "ante el ": 1056, "comunicación ": 1057, "anz": 1058, "related to the ": 1059, "oniz": 1060, "ack": 1061, "conven": 1062, "ales de ": 1063, " de febrer": 1064, "field ": 1065, "Official ": 1066, "continuing ": 1067, "Ŷ": 1068, "én ": 1069, "capacidad de ": 1070, "25": 1071, "effectively ": 1072, "tribun": 1073, "es;<eos>": 1074, "encarg": 1075, "E ": 1076, "en, ": 1077, "/Add": 1078, "ales, ": 1079, "s to the ": 1080, "as en la ": 1081, "Sra": 1082, "minu": 1083, "a que ": 1084, "Protocol ": 1085, "sult": 1086, "community ": 1087, "her ": 1088, "entire ": 1089, "below": 1090, "pue": 1091, "omen": 1092, "realiz": 1093, "vel": 1094, "cual": 1095, "Justice ": 1096, "<bos>It was ": 1097, "sesiones ": 1098, "ir, ": 1099, "conformidad con el ": 1100, "a.m": 1101, "paras.<eos>": 1102, ".3 ": 1103, "Ad H": 1104, "l": 1105, "red ": 1106, "contratación ": 1107, "efecto ": 1108, "December 199": 1109, "notific": 1110, "orn": 1111, "siguen ": 1112, "or ": 1113, "jóvenes ": 1114, "fiere ": 1115, "Advisory Committee on Administr": 1116, "any ": 1117, "<bos>En el ": 1118, "im ": 1119, "Y ": 1120, "ond ": 1121, "dam": 1122, "principles ": 1123, "UN": 1124, "<bos>(a) ": 1125, "de sus ": 1126, "procedures ": 1127, "thro": 1128, "Red ": 1129, "opportunity to ": 1130, "cuy": 1131, "activiti": 1132, "thank ": 1133, "Drug": 1134, "will be ": 1135, "Commission ": 1136, "due ": 1137, "comp": 1138, "in all ": 1139, "tic": 1140, "activities ": 1141, "Monten": 1142, "Operaciones de ": 1143, "a)<eos>": 1144, "had ": 1145, "Health ": 1146, "gin": 1147, "elec": 1148, "Dr": 1149, "Ministerio de ": 1150, "posibilidad de ": 1151, "qui": 1152, "Rwand": 1153, "condiciones de ": 1154, "sobre la base ": 1155, "southern ": 1156, ", as well as ": 1157, "October ": 1158, "Trabaj": 1159, "b ": 1160, "autoriz": 1161, "costs ": 1162, " (A/": 1163, "ea ": 1164, "incluidos los ": 1165, "or de ": 1166, "dra": 1167, "políticas, ": 1168, "made a ": 1169, "ro": 1170, "bul": 1171, "comenz": 1172, "esfer": 1173, "encia, ": 1174, "while ": 1175, "ever ": 1176, "facilitate ": 1177, "ing that ": 1178, "ahora ": 1179, "Eg": 1180, "since the ": 1181, "principios ": 1182, "agg": 1183, "respective ": 1184, "wel": 1185, "world ": 1186, "Delincu": 1187, "was ": 1188, "Exteri": 1189, "om": 1190, "dificultades ": 1191, "sistemas de ": 1192, "link": 1193, "advant": 1194, "IC": 1195, "sustain": 1196, "e a la ": 1197, "pertin": 1198, "parties ": 1199, "asistencia ": 1200, "other ": 1201, "pelig": 1202, "peligr": 1203, "Special Rapporteur": 1204, "todo ": 1205, "<bos>El Presidente ": 1206, "Mant": 1207, "observ": 1208, "using ": 1209, "train": 1210, "todas ": 1211, "sist": 1212, "societ": 1213, "Rw": 1214, "realizar ": 1215, "hayan ": 1216, "permiti": 1217, "and the ": 1218, "er": 1219, "abiliz": 1220, "Servicio Mó": 1221, "ográfic": 1222, "a result": 1223, "á": 1224, "toma not": 1225, "refer": 1226, "y and ": 1227, "religious ": 1228, "Braz": 1229, "áci": 1230, "take place ": 1231, "” y ": 1232, "ana, ": 1233, "suma de ": 1234, "abog": 1235, "anza ": 1236, "Có": 1237, "país.<eos>": 1238, "Administrativ": 1239, "vimient": 1240, "danger": 1241, "disposi": 1242, "book ": 1243, "s) ": 1244, "<bos>In that ": 1245, "ing and ": 1246, "ef": 1247, "York": 1248, "dado ": 1249, "succes": 1250, "CP": 1251, "Parlament": 1252, "Mission in ": 1253, "<bos>H": 1254, "<bos>2": 1255, "that the ": 1256, "aria ": 1257, "meet ": 1258, "Law on ": 1259, "pesc": 1260, "Programa de las Naciones Unidas para el ": 1261, "al.<eos>": 1262, "orities ": 1263, "lar": 1264, "invest": 1265, "previ": 1266, "VIH/SIDA, ": 1267, "o más ": 1268, "abuse ": 1269, "1999 ": 1270, "1.1": 1271, "K": 1272, "two ": 1273, "crucial ": 1274, "Instituto ": 1275, "2), ": 1276, "Venezuela ": 1277, "refugi": 1278, "ros.<eos>": 1279, "servicios ": 1280, "natur": 1281, "agosto de ": 1282, "carác": 1283, "mitig": 1284, "Gobierno ": 1285, "véase ": 1286, "ait ": 1287, "Frame": 1288, "oportunidades de ": 1289, "Peacebuilding ": 1290, "mundi": 1291, "ation in the ": 1292, "hasta el ": 1293, "us ": 1294, "es, el ": 1295, "Islámic": 1296, "procedimientos ": 1297, "United States of ": 1298, "quej": 1299, "Governing ": 1300, "<bos>T": 1301, "Nor": 1302, "country ": 1303, "through ": 1304, "1º": 1305, "s is ": 1306, "ofici": 1307, "indicator": 1308, "eradic": 1309, "before the ": 1310, "machin": 1311, "tem": 1312, "few ": 1313, "constr": 1314, "régimen de ": 1315, "believ": 1316, "Alem": 1317, "acompañ": 1318, "ability of ": 1319, "design ": 1320, "cat": 1321, "cin": 1322, "behalf ": 1323, "Beij": 1324, "gen": 1325, "langu": 1326, "Fili": 1327, "donantes ": 1328, "podrán ": 1329, "sensibil": 1330, "elig": 1331, "Isra": 1332, "San ": 1333, "procedentes de ": 1334, "%": 1335, "representative of the ": 1336, "enfoque ": 1337, "security.<eos>": 1338, "en el ámbi": 1339, "se han ": 1340, "exi": 1341, "point": 1342, "surg": 1343, "Territori": 1344, "peci": 1345, "occu": 1346, "Penal ": 1347, "arme ": 1348, "etter ": 1349, "ate the ": 1350, "adas por el ": 1351, "ember ": 1352, "preventiv": 1353, "ombre ": 1354, "centres ": 1355, "tir": 1356, "sexual exploit": 1357, "mark": 1358, ".m": 1359, "lack": 1360, "parte de la ": 1361, "mantenimiento de la paz ": 1362, "-level ": 1363, "ados por la ": 1364, "derechos humanos y las ": 1365, "Ad ": 1366, "Ecuador, ": 1367, "lleg": 1368, "<bos>E": 1369, "relación con el ": 1370, "help": 1371, "crisis ": 1372, "16": 1373, "ï": 1374, "igualdad entre los géner": 1375, "ciud": 1376, "as<eos>": 1377, "<bos>N": 1378, "muchas ": 1379, "affected ": 1380, "ente, ": 1381, "which ": 1382, "países en ": 1383, "week": 1384, "natural ": 1385, "las medidas ": 1386, "forms of ": 1387, "ings ": 1388, "pied ": 1389, "continue to ": 1390, "os (": 1391, "/40": 1392, "Committee on ": 1393, "<bos>La Comisión ": 1394, "pay ": 1395, "esa ": 1396, "Herzegov": 1397, "ses": 1398, "sobre el ": 1399, "Johan": 1400, "to 30 June ": 1401, "ann": 1402, "vers": 1403, "pacífic": 1404, "Nueva Zel": 1405, "efficient ": 1406, "tion": 1407, "to": 1408, "after ": 1409, "ated to ": 1410, "Grup": 1411, "benefit ": 1412, "7.<eos>": 1413, "ino ": 1414, "implement the ": 1415, "couns": 1416, "terre": 1417, "ee": 1418, "investig": 1419, "efforts ": 1420, "anual ": 1421, "hombre ": 1422, "pover": 1423, "come ": 1424, "forw": 1425, "iti": 1426, "Nucle": 1427, "esca": 1428, "ens": 1429, "Member": 1430, "de la C": 1431, "Asuntos ": 1432, "Isl": 1433, "aport": 1434, "deberían ": 1435, "reduci": 1436, "eas": 1437, "enunci": 1438, "ema ": 1439, "discurs": 1440, "conditions for ": 1441, ".2": 1442, "ó, ": 1443, "Unión African": 1444, "there were ": 1445, "<bos>Im": 1446, "alización ": 1447, "ensu": 1448, "Representativ": 1449, "yet ": 1450, "Protocolo ": 1451, "z ": 1452, "so": 1453, "President of the ": 1454, "hiri": 1455, "satisfaction ": 1456, "expert": 1457, "cuadr": 1458, "in ": 1459, "carr": 1460, "process and ": 1461, "res": 1462, "comprendido entre el ": 1463, "UNC": 1464, "abiliti": 1465, "extradi": 1466, "primer ": 1467, "need to ": 1468, "further ": 1469, "amendment ": 1470, "shall ": 1471, "create ": 1472, "o,<eos>": 1473, "b": 1474, "aciones del ": 1475, "Or": 1476, "ás ": 1477, "39 ": 1478, "ist": 1479, "aint ": 1480, "product": 1481, "a resul": 1482, "a and ": 1483, "pró": 1484, "durante ": 1485, "erci": 1486, "by a ": 1487, "Millennium Development Go": 1488, "prob": 1489, ");<eos>": 1490, "<bos>Cu": 1491, "do, ": 1492, "launch": 1493, "dí": 1494, "significativ": 1495, "leadership": 1496, "indemn": 1497, "cit": 1498, "Ambassador ": 1499, "require ": 1500, "id ": 1501, "inform": 1502, "empl": 1503, "Tokel": 1504, "Indonesia, ": 1505, "mundo ": 1506, "Lib": 1507, "demn": 1508, "economy ": 1509, "contra las ": 1510, "ton ": 1511, "Convention ": 1512, "ación en ": 1513, "<bos>States ": 1514, "ught ": 1515, "contra los ": 1516, "de la Convención, ": 1517, "agrap": 1518, "satisfacción ": 1519, "A/": 1520, "Amer": 1521, "accep": 1522, "Convention, ": 1523, "ete ": 1524, "convoc": 1525, "explic": 1526, "establishment of a ": 1527, "com": 1528, "Internet ": 1529, "Ministro de ": 1530, "os de las Naciones Unidas ": 1531, "IN": 1532, "or.<eos>": 1533, "Estados Miembros ": 1534, "ida ": 1535, "ster ": 1536, "referencia ": 1537, "ante.<eos>": 1538, "e un ": 1539, "iniciativ": 1540, "High ": 1541, "rat": 1542, "uld ": 1543, "different ": 1544, "-L": 1545, "facilities ": 1546, "especializ": 1547, "item": 1548, "and its ": 1549, "gobi": 1550, "Djibouti": 1551, "original ": 1552, "regim": 1553, "ship": 1554, "curso ": 1555, "problem": 1556, "Agenda ": 1557, ":": 1558, "ó de ": 1559, "orr": 1560, "then ": 1561, "observer": 1562, "arias ": 1563, "projects ": 1564, "Medi": 1565, "current ": 1566, "light ": 1567, "asu": 1568, "Ac": 1569, "concerned ": 1570, "recibir ": 1571, "concerning ": 1572, "land ": 1573, "Sing": 1574, "resulted ": 1575, "establishment of the ": 1576, "vision ": 1577, "total ": 1578, "refu": 1579, "<bos>• ": 1580, "opportunities for ": 1581, "s of the ": 1582, "en un ": 1583, "proceso ": 1584, ", 2": 1585, "mujeres y ": 1586, "respons": 1587, "carg": 1588, "age and ": 1589, "inscrip": 1590, "do a ": 1591, "authori": 1592, "Oficina del ": 1593, "prevenir ": 1594, "Women": 1595, "tos ": 1596, "esta ": 1597, "Crimin": 1598, "hasta ": 1599, "receiving ": 1600, "dem": 1601, "event ": 1602, "Decre": 1603, "dió ": 1604, "ar de ": 1605, "hij": 1606, "highest ": 1607, "parties, ": 1608, "working ": 1609, "Estado Parte ": 1610, "United N": 1611, "sul": 1612, "representative ": 1613, "spac": 1614, "ada por el ": 1615, "regres": 1616, "Presidente del Consejo de Seguridad ": 1617, "r": 1618, "encia y ": 1619, "evolu": 1620, "stakehol": 1621, "UNHCR ": 1622, "puest": 1623, "ed at ": 1624, "Intergovernmental ": 1625, "parti": 1626, "inst": 1627, "lo que respect": 1628, "freedom": 1629, "institucion": 1630, "30 ": 1631, "thus ": 1632, "it": 1633, "emente ": 1634, "Subcom": 1635, "peti": 1636, "respect": 1637, "expert ": 1638, "[A C E F ": 1639, "obje": 1640, "13": 1641, "Fore": 1642, "Office of ": 1643, "conclusión ": 1644, "ese respect": 1645, "Afghanist": 1646, "Univers": 1647, "<bos>c) ": 1648, "dit": 1649, "de los países ": 1650, "ation, which ": 1651, "al, el ": 1652, "as, y ": 1653, "haya ": 1654, "Š": 1655, "amient": 1656, "Equ": 1657, "a nivel ": 1658, "Conveni": 1659, "res.<eos>": 1660, "approach": 1661, "x": 1662, "Court ": 1663, "<bos>Recall": 1664, "ation (": 1665, "Treat": 1666, "al de su ": 1667, "transpar": 1668, "enh": 1669, "Arab ": 1670, "intend": 1671, "hecho de ": 1672, "<bos>Ello ": 1673, "integridad ": 1674, "fect": 1675, "Nig": 1676, "a “": 1677, "att": 1678, "instru": 1679, "is also ": 1680, "parte de ": 1681, "lack of ": 1682, "il": 1683, "ul ": 1684, "echtenste": 1685, "sanci": 1686, "Jamaic": 1687, "Super": 1688, "Staff ": 1689, "al<eos>": 1690, "inv": 1691, "comit": 1692, "boundary ": 1693, "Support ": 1694, "razón ": 1695, "an important ": 1696, "lug": 1697, "o, la ": 1698, "fru": 1699, "en el párrafo ": 1700, "Urugu": 1701, "human rights and fundamental freedom": 1702, "report.<eos>": 1703, "pertur": 1704, "planes de ": 1705, "éase ": 1706, "enjoy": 1707, "appreci": 1708, "ultur": 1709, "sustanci": 1710, "proteg": 1711, "Segur": 1712, "tercera ": 1713, "4,": 1714, "ganist": 1715, "tic ": 1716, "given ": 1717, "procedur": 1718, "Di": 1719, "ley, ": 1720, "Wom": 1721, "orig": 1722, "oli": 1723, "tal": 1724, "sourc": 1725, "th session of the ": 1726, "d) ": 1727, "Tog": 1728, "ada de la ": 1729, "hear": 1730, "imiento de la ": 1731, "as follow": 1732, "gic": 1733, "oportunidad de ": 1734, "ological ": 1735, "ence of ": 1736, "if the ": 1737, ": ": 1738, "conclud": 1739, "PNUD": 1740, "incid": 1741, "Panam": 1742, "ectiv": 1743, "práctic": 1744, "materials ": 1745, "o, así como ": 1746, "Iraq": 1747, "del mund": 1748, "international cooperation ": 1749, "han ": 1750, "disposición ": 1751, "question": 1752, "es in ": 1753, "anced ": 1754, "vari": 1755, "reform": 1756, "tro": 1757, "enfr": 1758, "concentr": 1759, "sion, ": 1760, "forz": 1761, "esas ": 1762, "dependi": 1763, "as, las ": 1764, "al y ": 1765, "continues to ": 1766, "respec": 1767, "28": 1768, "in, ": 1769, "aplicación ": 1770, "form ": 1771, "capaci": 1772, "p. ": 1773, "reduction ": 1774, "e for ": 1775, "ely.<eos>": 1776, "to ensure the ": 1777, "muner": 1778, "recog": 1779, "técnicos de ": 1780, "ur ": 1781, "motiv": 1782, "Conferencia ": 1783, "much ": 1784, "cap.<eos>": 1785, "with regard ": 1786, "a fav": 1787, "a y ": 1788, "o de 200": 1789, "equit": 1790, "and/": 1791, "pe": 1792, "star": 1793, "among the ": 1794, "con respecto ": 1795, "ousand": 1796, "University ": 1797, "importancia ": 1798, "&": 1799, "sin ": 1800, "verb": 1801, "ar sus ": 1802, "estadístic": 1803, "|": 1804, "conting": 1805, "judici": 1806, "Countri": 1807, "is, ": 1808, "embr": 1809, "pilo": 1810, "en ese ": 1811, "m": 1812, "Ó": 1813, "W": 1814, "ticul": 1815, "ia ": 1816, "deli": 1817, "ar ": 1818, "ed to be ": 1819, "proceed": 1820, "versity ": 1821, "session<eos>": 1822, "es that the ": 1823, ". ": 1824, "á ": 1825, "<bos>(": 1826, "democrátic": 1827, "polici": 1828, "Estados Unidos de Améric": 1829, "deposi": 1830, "principalmente ": 1831, "ente ": 1832, "financiación ": 1833, "ator ": 1834, "24 ": 1835, "en de ": 1836, "vehic": 1837, "Centr": 1838, "society ": 1839, "todo el mund": 1840, "es; ": 1841, "fr": 1842, "Advisory Committee on Administrative and Bud": 1843, "growing ": 1844, "but also ": 1845, "Ref": 1846, "o a la ": 1847, "), the ": 1848, "han sido ": 1849, "siete ": 1850, "age ": 1851, "básic": 1852, "áne": 1853, "entities ": 1854, "development and ": 1855, "declar": 1856, "red, ": 1857, "particip": 1858, "programme ": 1859, "ejecu": 1860, "mejorar el ": 1861, "debía ": 1862, "Seneg": 1863, "vez ": 1864, "ated ": 1865, "cord": 1866, "bil": 1867, "abril ": 1868, "marco de ": 1869, "eridion": 1870, "Party ": 1871, "point ": 1872, "4.": 1873, "aí": 1874, "regular ": 1875, "propiedad ": 1876, "nucleares ": 1877, "<bos>(e) ": 1878, "en la región ": 1879, "s and other ": 1880, "conjunt": 1881, "ôte d'Ivoi": 1882, "solidar": 1883, "Senegal, ": 1884, "incompati": 1885, "as a ": 1886, "víctimas de ": 1887, "zg": 1888, "largo ": 1889, "from the ": 1890, "ed": 1891, "within ": 1892, "x ": 1893, "result": 1894, "rati": 1895, "ok": 1896, "physic": 1897, "alien": 1898, "sets ": 1899, "es de ": 1900, "ogniz": 1901, "pp. ": 1902, "oug": 1903, "efforts to ": 1904, "may ": 1905, "tema ": 1906, "protection of ": 1907, "Crime ": 1908, "lo cual ": 1909, "si el ": 1910, "sm": 1911, "off ": 1912, "reconoce ": 1913, "aé": 1914, "equ": 1915, "oto ": 1916, "abord": 1917, "y de ": 1918, "escuel": 1919, "of the International ": 1920, "cruel": 1921, "Consejo de Segur": 1922, "desarrollo.<eos>": 1923, "es<eos>": 1924, "cid": 1925, "urban ": 1926, "Assist": 1927, "Cap": 1928, "entreg": 1929, "mujeres de ": 1930, "conden": 1931, "attribu": 1932, "connection ": 1933, "determinado ": 1934, "registr": 1935, "septiembre de ": 1936, "stre": 1937, "en la que ": 1938, "sufri": 1939, "ación, el ": 1940, "out": 1941, "convenci": 1942, "on behalf of the ": 1943, "lugar en ": 1944, "otra parte, ": 1945, "9/": 1946, "<bos>Some ": 1947, "án ": 1948, "ak ": 1949, "Sudá": 1950, "donde ": 1951, "become ": 1952, "ales y los ": 1953, "7, ": 1954, "ble, ": 1955, "oz": 1956, "lanz": 1957, "sy": 1958, "preci": 1959, "requ": 1960, "A (": 1961, "Chief": 1962, "his": 1963, "émic": 1964, "adolescent": 1965, "nucle": 1966, "Commission.<eos>": 1967, "Provision": 1968, "muy ": 1969, "prior to ": 1970, "exchang": 1971, "purpose ": 1972, "courag": 1973, "get": 1974, "als, ": 1975, "a de un ": 1976, "provision ": 1977, "rob": 1978, "ship ": 1979, "ambient": 1980, "services ": 1981, "apartado ": 1982, "negative ": 1983, "gr": 1984, "den": 1985, "ador": 1986, "pob": 1987, "United ": 1988, "tici": 1989, "ansi": 1990, "<bos>Esto ": 1991, "o de un ": 1992, "<bos>No ": 1993, "mejor ": 1994, ", in particular ": 1995, "ulg": 1996, "<bos>Organiz": 1997, "cuent": 1998, "con respecto a la ": 1999, "Sept": 2000, "Gestión ": 2001, "princip": 2002, "aumentar la ": 2003, "cross-": 2004, "atur": 2005, "2005, ": 2006, "ide": 2007, "private ": 2008, "Moz": 2009, "dev": 2010, "State party's ": 2011, "w": 2012, "Cab": 2013, "prepared ": 2014, "encia del ": 2015, "niveles de ": 2016, "47": 2017, "sanctions ": 2018, "widespread ": 2019, "sex": 2020, "labor ": 2021, "included in the ": 2022, "jer": 2023, "contrac": 2024, "avi": 2025, "oficios": 2026, "compromisos ": 2027, "ros": 2028, "States ": 2029, "Zimb": 2030, "arrol": 2031, "vigilanci": 2032, "Advisory Committee on Administrative and ": 2033, "Inter": 2034, "Armenia, ": 2035, "than ": 2036, "posible ": 2037, "<bos>Aun": 2038, "Gh": 2039, "final ": 2040, "unte": 2041, "IR": 2042, "olv": 2043, "atención ": 2044, "tico": 2045, "Costa Ric": 2046, "re de ": 2047, "olog": 2048, "reat": 2049, "D ": 2050, "space ": 2051, "modal": 2052, "antes de ": 2053, "establishing ": 2054, "project": 2055, "Delin": 2056, "ones ": 2057, "itario ": 2058, "Unión Europea ": 2059, "és ": 2060, "OS": 2061, "directamente ": 2062, "Saudit": 2063, "intro": 2064, "headquarter": 2065, "acuerdo con la ": 2066, "Syst": 2067, "firm": 2068, "duties ": 2069, "Fuer": 2070, "xim": 2071, "progress ": 2072, "os Estados ": 2073, "manifi": 2074, "Ambass": 2075, "reclut": 2076, "o a los ": 2077, "Venezu": 2078, "refl": 2079, "six ": 2080, "th and ": 2081, "niv": 2082, "es) ": 2083, "ical ": 2084, "should ": 2085, "fair": 2086, "las Naciones Unidas para la ": 2087, "Constitution ": 2088, "ali": 2089, "Cub": 2090, "zer": 2091, "ity of ": 2092, "tortur": 2093, "obligaciones ": 2094, "Cha": 2095, "ost ": 2096, "recl": 2097, "idad, ": 2098, "mó": 2099, "committed ": 2100, "36 ": 2101, "concern": 2102, "os se ": 2103, "Presidente del Consejo de Seguridad por el ": 2104, "incluidos ": 2105, "Russi": 2106, "mission": 2107, "acceso al ": 2108, "correspondiente ": 2109, "prevent the ": 2110, "‎": 2111, "fond": 2112, "uso de la ": 2113, "nivel de ": 2114, "comment": 2115, "crit": 2116, "29": 2117, "earch ": 2118, "resid": 2119, "mid": 2120, "ado por el ": 2121, "trav": 2122, "measures to ": 2123, "property ": 2124, "cour": 2125, "United Nations, ": 2126, "fer ": 2127, "Person": 2128, "oper": 2129, "ado.<eos>": 2130, "11": 2131, "repe": 2132, "ESC": 2133, "os de la ": 2134, "o de la ": 2135, "2004, ": 2136, "ten": 2137, "constru": 2138, "1° de julio de 200": 2139, "<bos>There ": 2140, "ir ": 2141, "áp": 2142, "apoyo a los ": 2143, "Popul": 2144, "Str": 2145, "submitted ": 2146, "aliment": 2147, "have the ": 2148, "todas las ": 2149, "Greci": 2150, "internacional.<eos>": 2151, "ern": 2152, "período extra": 2153, "issues ": 2154, "ater ": 2155, "medidas para ": 2156, "including ": 2157, "pic": 2158, "2002-": 2159, "Regional ": 2160, "antes.<eos>": 2161, "alities ": 2162, "country's ": 2163, "financing ": 2164, "<bos>Under ": 2165, "e (": 2166, "mandat": 2167, "aspectos ": 2168, "ativ": 2169, "measures, ": 2170, "37 ": 2171, "at its fifty-": 2172, "ción y ": 2173, "atos ": 2174, "consultas ": 2175, "ch": 2176, "objective ": 2177, "envi": 2178, "status ": 2179, "Montre": 2180, "enmi": 2181, "Pres": 2182, ":<eos>": 2183, "196": 2184, "Asoci": 2185, "grand": 2186, "ho": 2187, "impact ": 2188, "uci": 2189, "ara ": 2190, "Azer": 2191, "<bos>Table ": 2192, "imb": 2193, "Presidente de la ": 2194, "ID": 2195, "Prim": 2196, "item ": 2197, "visi": 2198, "eigh": 2199, "iv": 2200, "preparación de ": 2201, "palestin": 2202, "eda ": 2203, "oficinas ": 2204, "uli": 2205, "structu": 2206, "ya ": 2207, "health and ": 2208, "59": 2209, "Internacional sobre la ": 2210, "desde ": 2211, "r. ": 2212, "htt": 2213, "Der": 2214, "develop ": 2215, "remains ": 2216, "<bos>On ": 2217, "Estados ": 2218, "ones de ": 2219, "tail": 2220, "2009.<eos>": 2221, "mitte": 2222, "prehen": 2223, "Junta Ejecutiv": 2224, "A/59/": 2225, "half": 2226, "ledg": 2227, "main ": 2228, "audit": 2229, "confirm": 2230, "ers.<eos>": 2231, "organizations and ": 2232, "considered ": 2233, "varias ": 2234, "stated that ": 2235, "Ley ": 2236, "1": 2237, "; and ": 2238, "<bos>In ": 2239, "orgánic": 2240, "an a ": 2241, "<bos>De": 2242, "è": 2243, "<bos>Tema ": 2244, "bilater": 2245, "t and ": 2246, "States parties ": 2247, "ar en ": 2248, "como consecu": 2249, "pursuant ": 2250, "Promo": 2251, "conflictos ": 2252, "Group": 2253, "din": 2254, "sub": 2255, "High Commission": 2256, "Advisory Committee on ": 2257, "Mad": 2258, "transl": 2259, "gender": 2260, "se": 2261, "good ": 2262, "Tri": 2263, "<bos>Cuando ": 2264, "servic": 2265, "phas": 2266, "ania ": 2267, "ejerci": 2268, "ainst ": 2269, "s;<eos>": 2270, "establece ": 2271, "Ob": 2272, "Herz": 2273, "and to ": 2274, "appropriate, ": 2275, "grad": 2276, "ed by ": 2277, "milit": 2278, "trabajadores ": 2279, "wh": 2280, "incom": 2281, "presunt": 2282, "ed a ": 2283, "dated ": 2284, "phenomen": 2285, "<bos>Este ": 2286, "e.<eos>": 2287, " de ": 2288, "gestión ": 2289, " de junio de 200": 2290, "evaluación ": 2291, "Act ": 2292, "del artículo ": 2293, "religios": 2294, "que se ha ": 2295, "adopted ": 2296, "dese": 2297, "in the context of ": 2298, "efectu": 2299, "é": 2300, "note ": 2301, "Indi": 2302, "ç": 2303, "hic": 2304, "ability.<eos>": 2305, "budget ": 2306, "Pl": 2307, "ties.<eos>": 2308, "s with ": 2309, "sean ": 2310, "a que la ": 2311, "antes del ": 2312, "social and ": 2313, "viol": 2314, "]": 2315, "ity": 2316, "Uru": 2317, "mente ": 2318, "18": 2319, "dis": 2320, "numer": 2321, "cab": 2322, "tierr": 2323, "ONF": 2324, "proteger ": 2325, "civil society ": 2326, "25 ": 2327, "technology ": 2328, "Gab": 2329, "misión ": 2330, "AN": 2331, "<bos>Such ": 2332, "with regard to the ": 2333, "incluid": 2334, "tipo de ": 2335, "para el bienio ": 2336, "rece ": 2337, "ed with the ": 2338, "ámic": 2339, "scri": 2340, "éner": 2341, "mens": 2342, "ph": 2343, "reunión ": 2344, "under": 2345, "Chipre": 2346, "normativ": 2347, "ences ": 2348, "esos ": 2349, "ity.<eos>": 2350, "Cri": 2351, "calidad ": 2352, "incumplimient": 2353, "actor": 2354, "a más ": 2355, "fil ": 2356, "% del ": 2357, "∗": 2358, "available ": 2359, "párraf": 2360, "44 ": 2361, "Tail": 2362, "séptim": 2363, ")(": 2364, "<bos>Sub": 2365, "les": 2366, "Judici": 2367, "Secretaría ": 2368, "shar": 2369, "número ": 2370, "gres": 2371, "siga ": 2372, "model": 2373, "castig": 2374, "ro ": 2375, "a-": 2376, "high": 2377, "os para ": 2378, "ent": 2379, "prohibi": 2380, "urgente ": 2381, "nowledg": 2382, "inclu": 2383, "remuner": 2384, "kin": 2385, "aid ": 2386, "raz": 2387, "Acuer": 2388, "state ": 2389, "del sistema de ": 2390, "os ": 2391, "ión, ": 2392, "<bos>Es ": 2393, "siguientes ": 2394, "meeting ": 2395, "actividades de ": 2396, "exha": 2397, "solicit": 2398, "ank": 2399, "Pri": 2400, "and/or ": 2401, "African ": 2402, "hen": 2403, "asp": 2404, "tical ": 2405, "al and ": 2406, "EE": 2407, "tern": 2408, "norm": 2409, "threat": 2410, "compromiso ": 2411, "Republic of ": 2412, "1, ": 2413, "detention ": 2414, "ations of the ": 2415, "cooperate ": 2416, "entes de ": 2417, "mess": 2418, "encia y la ": 2419, "colabor": 2420, "ado al ": 2421, "ción de la ": 2422, "data ": 2423, "it.<eos>": 2424, "estat": 2425, "dealing ": 2426, "children and ": 2427, "con una ": 2428, "traffick": 2429, "<bos>Sec": 2430, "23 ": 2431, "conclu": 2432, "E": 2433, "aysi": 2434, "ancing ": 2435, "im": 2436, "at its ": 2437, "individu": 2438, "cooperation.<eos>": 2439, ", in ": 2440, "corrup": 2441, "minim": 2442, "consequ": 2443, "radio ": 2444, "ofreci": 2445, "cir": 2446, "ario.<eos>": 2447, "provid": 2448, "197": 2449, "s-": 2450, "ándose ": 2451, "supervis": 2452, "recru": 2453, "provisions ": 2454, "reaffirm": 2455, "owever, ": 2456, "Mor": 2457, "carrying ": 2458, "mental ": 2459, "culp": 2460, ", y ": 2461, "AD": 2462, "desarrollo ": 2463, "propos": 2464, "para ": 2465, "obiliz": 2466, "deten": 2467, "derechos ": 2468, "ary ": 2469, "ment of the ": 2470, "<bos>Wi": 2471, "ción del ": 2472, "research ": 2473, "muestr": 2474, "ment": 2475, "ensure the ": 2476, "); ": 2477, "HIV": 2478, "<bos>All ": 2479, "making ": 2480, "Bel": 2481, "competent ": 2482, "rá ": 2483, "reflec": 2484, "apart": 2485, "social, ": 2486, "paí": 2487, "circ": 2488, "finaliz": 2489, "AP": 2490, "mediante ": 2491, "s on the ": 2492, "tex": 2493, "adoption of ": 2494, "reproduc": 2495, "sostenibl": 2496, "tion, the ": 2497, "referred to ": 2498, "Distr": 2499, "caso ": 2500, "Mis": 2501, "thir": 2502, "Economic and Social Council ": 2503, "estaba ": 2504, " de marzo de 200": 2505, "graves ": 2506, "alud ": 2507, "efec": 2508, "Review ": 2509, "mo": 2510, "Relator ": 2511, "refugiados ": 2512, "<bos>Según ": 2513, "Western ": 2514, "capacidad ": 2515, "absolu": 2516, "A/59/5/Add": 2517, "č": 2518, "deal": 2519, "jo": 2520, "travel ": 2521, "terms of ": 2522, "Commission for ": 2523, "s”.<eos>": 2524, "estado ": 2525, "therefore ": 2526, "urban": 2527, "cuestión ": 2528, "bir": 2529, "an el ": 2530, "nacional.<eos>": 2531, "peacekeeping ": 2532, "Sp": 2533, "obtain": 2534, "dispar": 2535, "Democr": 2536, "efici": 2537, "dici": 2538, "as las ": 2539, "revised ": 2540, "control": 2541, "aciones de ": 2542, "great ": 2543, "apoyo a la ": 2544, "commitment to ": 2545, "s; ": 2546, "there": 2547, "sons ": 2548, "former ": 2549, "principl": 2550, "prevent ": 2551, "socioeconómic": 2552, "forma ": 2553, "Japón ": 2554, "comun": 2555, "a con ": 2556, "interpret": 2557, "empresari": 2558, "osas ": 2559, "address ": 2560, "body ": 2561, "decisiv": 2562, "es, including ": 2563, "under ": 2564, "está ": 2565, "parci": 2566, "en el ": 2567, "order ": 2568, "must be ": 2569, "siempre ": 2570, "anti-": 2571, "-related ": 2572, "higher ": 2573, "ior ": 2574, "under article ": 2575, "millones de dólares ": 2576, "act": 2577, "five ": 2578, "tub": 2579, "maxim": 2580, "children": 2581, "Banco ": 2582, "tomó not": 2583, "level ": 2584, "mujeres ": 2585, "<bos>[": 2586, "adquir": 2587, "lideraz": 2588, "hici": 2589, "Lati": 2590, "ul": 2591, "lov": 2592, "os de Améric": 2593, "of": 2594, "Financi": 2595, "2005": 2596, "ab": 2597, "substan": 2598, "Derechos Human": 2599, "figur": 2600, "sp": 2601, "Chairman ": 2602, "ource ": 2603, "February ": 2604, "jur": 2605, "miembr": 2606, "tion on ": 2607, "generally ": 2608, "inscri": 2609, "tículo ": 2610, "considerar ": 2611, "ula ": 2612, "India, ": 2613, "<bos>Si ": 2614, "priv": 2615, "itori": 2616, "ner": 2617, "bi": 2618, ", as ": 2619, "das ": 2620, "Pol": 2621, "para el ": 2622, "deploy": 2623, "és, ": 2624, "se re": 2625, "aprovech": 2626, "es del ": 2627, "Declaration ": 2628, "foc": 2629, "child ": 2630, "Commission on Human Rights ": 2631, "into ": 2632, "israelí": 2633, "session.<eos>": 2634, "<bos>En la ": 2635, "ú": 2636, "gel": 2637, "South ": 2638, "in rel": 2639, "Conferenc": 2640, "Sueci": 2641, "resul": 2642, "plenary ": 2643, "ez ": 2644, "j": 2645, "oficial ": 2646, "sector priv": 2647, "impun": 2648, "hu": 2649, "AID": 2650, "stil": 2651, "Ad": 2652, "5.<eos>": 2653, "network": 2654, "ugh ": 2655, "habilit": 2656, "grant": 2657, "organización ": 2658, "establish ": 2659, "re, ": 2660, "treaty ": 2661, "arreg": 2662, "rug ": 2663, "amp": 2664, "/15": 2665, "Representative ": 2666, "48": 2667, "Reduc": 2668, "biennium ": 2669, "combat": 2670, "international law ": 2671, "dar ": 2672, "ed by a ": 2673, "assessment ": 2674, "sol": 2675, "responsibilities ": 2676, "Jurídic": 2677, "estén ": 2678, "til": 2679, "relation": 2680, "High Commissioner for ": 2681, "adapt": 2682, "fin ": 2683, "imin": 2684, "was the ": 2685, "relativa a la ": 2686, "Min": 2687, "cuat": 2688, "<bos>Further": 2689, "creación de ": 2690, "ere": 2691, "tion ": 2692, "complete ": 2693, "adequate ": 2694, "fí": 2695, "Minist": 2696, "August ": 2697, "session": 2698, "ä": 2699, "school ": 2700, "con cargo ": 2701, "ted and ": 2702, "hou": 2703, "Cam": 2704, "sed the ": 2705, "2002": 2706, "detall": 2707, "service ": 2708, "dirig": 2709, "ales.<eos>": 2710, "are not ": 2711, "ados de ": 2712, "Declaración ": 2713, "principal ": 2714, "período de sesiones ": 2715, " de novi": 2716, "confer": 2717, "transport ": 2718, "Gro": 2719, "area ": 2720, "É": 2721, "lid": 2722, "UNID": 2723, "ante los ": 2724, "par": 2725, "vici": 2726, "<bos>It is ": 2727, "tonom": 2728, "positive ": 2729, "ay": 2730, "have not ": 2731, "minor": 2732, "amoun": 2733, "Em": 2734, "<bos>Medi": 2735, "lit": 2736, "diciembre de ": 2737, "present": 2738, "proyect": 2739, "4": 2740, "1999": 2741, "ently ": 2742, "ations<eos>": 2743, "above, ": 2744, "y en la ": 2745, "collaboration ": 2746, "judg": 2747, "connection with the ": 2748, "profes": 2749, "Part ": 2750, "oph": 2751, "vulnerable ": 2752, "Permanent ": 2753, "ar que ": 2754, "AC": 2755, "ally ": 2756, "e ": 2757, "cell": 2758, "ac": 2759, "ez": 2760, "stak": 2761, "hospit": 2762, "su ": 2763, "that would ": 2764, "cur": 2765, "relación ": 2766, "suficientes ": 2767, "decidió ": 2768, "abst": 2769, "ales y ": 2770, "Información ": 2771, "New York": 2772, "yec": 2773, "enter": 2774, "enes ": 2775, "ish": 2776, "adas ": 2777, "origen ": 2778, "requisi": 2779, "ª": 2780, "ere ": 2781, "focu": 2782, "intent": 2783, "Arab": 2784, "Unión ": 2785, "personal de ": 2786, "able to ": 2787, "cambio ": 2788, "desplazados ": 2789, "efficienc": 2790, "ordin": 2791, "shop": 2792, "Bosnia y Herzegovin": 2793, "ado con ": 2794, "anno": 2795, "concep": 2796, "women in ": 2797, "<bos>El Gobierno ": 2798, "Pre": 2799, "Weapon": 2800, "<bos>(g) ": 2801, "1998, ": 2802, "es": 2803, "yp": 2804, "racial ": 2805, "as it ": 2806, "servir": 2807, "legitim": 2808, "management": 2809, "00 ": 2810, "Sy": 2811, "oy": 2812, "proced": 2813, "s)<eos>": 2814, "European Union ": 2815, "level.<eos>": 2816, "relacionados con la ": 2817, "salud ": 2818, "ear ": 2819, "administración públic": 2820, "conflicto ": 2821, "2001": 2822, "me ": 2823, "Relator Especial ": 2824, "context of ": 2825, "a de los Estados ": 2826, "establecidos ": 2827, "Comun": 2828, "— ": 2829, "capacity to ": 2830, "responsibil": 2831, "call": 2832, "proposals for ": 2833, "/CRP": 2834, "od": 2835, "contin": 2836, "ados por ": 2837, "resum": 2838, "rse ": 2839, "se bas": 2840, "carrying out ": 2841, "anco ": 2842, "adverse ": 2843, "Conse": 2844, "orld": 2845, "strateg": 2846, "aplicación de la ": 2847, "hin": 2848, "interin": 2849, "affect": 2850, "an la ": 2851, "ôte d'": 2852, "A/C.2": 2853, "S ": 2854, "curr": 2855, "Lab": 2856, "creci": 2857, "ador ": 2858, "Herzeg": 2859, "continued ": 2860, "nu": 2861, "aprobado el ": 2862, "Committee's ": 2863, "candidatos ": 2864, "economic, ": 2865, "ala ": 2866, "States Parties ": 2867, "marri": 2868, "movil": 2869, "mas": 2870, "<bos>Asimismo, ": 2871, "adquarter": 2872, "lat": 2873, "El": 2874, "ó una ": 2875, "grupo de ": 2876, "<bos>The Committee also ": 2877, "raf": 2878, "camp": 2879, "mod": 2880, "decision-": 2881, "Member ": 2882, "qué ": 2883, "<bos>Dur": 2884, "here ": 2885, "Pover": 2886, "special ": 2887, "able, ": 2888, "Civil": 2889, "sac": 2890, "'s ": 2891, "arán ": 2892, "supuest": 2893, "tion<eos>": 2894, "case ": 2895, "United Stat": 2896, "Sh": 2897, "<bos>D": 2898, "taking into account the ": 2899, "médic": 2900, "[A C E ": 2901, "Timor-L": 2902, "17": 2903, "country, ": 2904, "subst": 2905, "correspondientes ": 2906, "continuar ": 2907, "UNCIT": 2908, "Afric": 2909, "Inv": 2910, "Representante Perman": 2911, "calend": 2912, "Servicio Móvil ": 2913, "gub": 2914, "Caribbe": 2915, "ejecución ": 2916, "conveni": 2917, "sha": 2918, "budge": 2919, "no ": 2920, "produc": 2921, ".30 ": 2922, "religi": 2923, "difu": 2924, "combati": 2925, "people.<eos>": 2926, "au ": 2927, "General ": 2928, "their own ": 2929, "ánic": 2930, "Al": 2931, "King": 2932, "guard": 2933, "after the ": 2934, "shown ": 2935, "Coven": 2936, "ross-": 2937, "<bos>Decid": 2938, "permit": 2939, "system ": 2940, "financi": 2941, "ation ": 2942, "authority ": 2943, "minas ": 2944, "adas para ": 2945, "ó el ": 2946, "you ": 2947, "Council's ": 2948, "totalmente ": 2949, "duc": 2950, ", on ": 2951, "tions and ": 2952, "icit": 2953, "a en su ": 2954, "enforc": 2955, "reclam": 2956, "6/": 2957, "conson": 2958, "Azerbai": 2959, "ing a ": 2960, "identified ": 2961, "sigu": 2962, "civil ": 2963, "are ": 2964, "gan": 2965, "sobre cuestiones ": 2966, "<bos>His ": 2967, "Commission on ": 2968, "asuntos ": 2969, "de la Convención ": 2970, "canti": 2971, "acceso ": 2972, "Naciones Unid": 2973, "ollow": 2974, "e:<eos>": 2975, "algunos ": 2976, "ístic": 2977, "/27": 2978, "relativas a la ": 2979, "san": 2980, "Al-": 2981, "maintenance of ": 2982, "sidi": 2983, "Investig": 2984, "tox": 2985, "<bos>B": 2986, "1996": 2987, "civil": 2988, "stric": 2989, "half ": 2990, "observaciones ": 2991, "rán ": 2992, "gobiern": 2993, "8<eos>": 2994, "other than ": 2995, "plen": 2996, "tug": 2997, "mecanismo ": 2998, "Children ": 2999, "Guatemal": 3000, "disminu": 3001, "for its ": 3002, "ying ": 3003, "dido ": 3004, "Gobierno del ": 3005, ",<eos>": 3006, ".4": 3007, "posibil": 3008, "capacit": 3009, "desafí": 3010, "countries ": 3011, "accordance with the ": 3012, "statement ": 3013, "Fo": 3014, "action ": 3015, "trial ": 3016, "in their ": 3017, "gener": 3018, "draft resolution A/C": 3019, "otra índol": 3020, "related to ": 3021, "stated ": 3022, "women": 3023, "adopted by the ": 3024, ") of ": 3025, "range of ": 3026, "Armen": 3027, "involved in the ": 3028, "genoci": 3029, "contributions ": 3030, "to make ": 3031, "días ": 3032, "ump": 3033, "os y las ": 3034, "Nuclear ": 3035, "es ": 3036, "ó un ": 3037, "coming ": 3038, ".000 ": 3039, "Division ": 3040, "Oficin": 3041, "arían ": 3042, "scop": 3043, "internacionales.<eos>": 3044, "ed and ": 3045, "s a ": 3046, "80 ": 3047, "de los ": 3048, "through the ": 3049, "do de ": 3050, "Pakist": 3051, "draft resolu": 3052, "acept": 3053, "servicios de ": 3054, "el, ": 3055, "parte del ": 3056, "organismos ": 3057, "Timor": 3058, "para.<eos>": 3059, "connec": 3060, "use of the ": 3061, "Conference on ": 3062, "Gobi": 3063, "ministr": 3064, "app": 3065, "<bos>It ": 3066, "OPS": 3067, "response to ": 3068, "igualdad de géner": 3069, "ó que ": 3070, "China, ": 3071, "ministeri": 3072, "appl": 3073, "<bos>a) ": 3074, "eridi": 3075, "means of ": 3076, "sociedad ": 3077, "harm": 3078, "ariat": 3079, "eve ": 3080, "aci": 3081, "priorities ": 3082, "arising ": 3083, "Í": 3084, "State ": 3085, "dones": 3086, "Treaty ": 3087, "island ": 3088, "educación, ": 3089, "<bos>Fur": 3090, "amo": 3091, "pr": 3092, "dest": 3093, "provinci": 3094, "debate ": 3095, "Ejecu": 3096, "respecto de ": 3097, "que los ": 3098, "niños ": 3099, "was also ": 3100, "copi": 3101, "currently ": 3102, "medio ": 3103, "bserv": 3104, "led ": 3105, "Alto ": 3106, "Ár": 3107, "40": 3108, "inclus": 3109, "2<eos>": 3110, "medio de ": 3111, "lin": 3112, "study ": 3113, "Philippin": 3114, "a las ": 3115, "Declar": 3116, "bus": 3117, "complain": 3118, ",9": 3119, "Comit": 3120, "A/CN.9/WG.": 3121, "exten": 3122, "<bos>The report ": 3123, "<bos>At the same ": 3124, "solución ": 3125, "enjoyment of ": 3126, "sanc": 3127, "called upon ": 3128, "me": 3129, "SP": 3130, "explosiv": 3131, "zbekist": 3132, "favour": 3133, "Committee.<eos>": 3134, "<bos>M": 3135, "9,": 3136, "meth": 3137, "secretaría ": 3138, "llam": 3139, "preocup": 3140, "men": 3141, "eder": 3142, "al de las ": 3143, "materia de ": 3144, "Afghanistan ": 3145, "s": 3146, "Righ": 3147, "http:": 3148, "for a ": 3149, "recursos financier": 3150, "comple": 3151, "grupo ": 3152, "power ": 3153, "relacionadas ": 3154, "like to ": 3155, "desarrollo": 3156, "financiera ": 3157, "E/CN.4/": 3158, "Grupo de Trabaj": 3159, "chap.<eos>": 3160, "ert": 3161, "ater": 3162, "80": 3163, "which was ": 3164, "suc": 3165, "lugar a ": 3166, "Burkina Fas": 3167, "sti": 3168, "únic": 3169, "-20": 3170, "er the ": 3171, "<": 3172, "tradicion": 3173, "idad y ": 3174, "subjec": 3175, "gain": 3176, "empower": 3177, "Paz": 3178, "June ": 3179, "author": 3180, "<bos>Request": 3181, "<bos>El": 3182, "citiz": 3183, "hab": 3184, "area of ": 3185, "Cl": 3186, "manner": 3187, "no es ": 3188, "examinar ": 3189, "cont": 3190, "Govern": 3191, "tenido ": 3192, "demás ": 3193, "conci": 3194, "actions ": 3195, "alent": 3196, "subray": 3197, "Grupo ": 3198, "Affair": 3199, "direc": 3200, "military ": 3201, "ógic": 3202, "said that ": 3203, "invol": 3204, "settl": 3205, "meeting": 3206, "mir": 3207, "jud": 3208, "<bos>Des": 3209, "compli": 3210, "quienes ": 3211, "locales ": 3212, "2000 ": 3213, "ente del ": 3214, "mem": 3215, "bid": 3216, "return to ": 3217, "cooperación internacional ": 3218, "retur": 3219, "señ": 3220, "seem": 3221, "es were ": 3222, "prov": 3223, "ow ": 3224, "prim": 3225, "asent": 3226, "y for ": 3227, "obstac": 3228, "is ": 3229, "basi": 3230, "nuevas ": 3231, "en sus ": 3232, "it ": 3233, "made by ": 3234, "seguimiento ": 3235, "child": 3236, "Jam": 3237, ") ": 3238, "cuando se ": 3239, "áctic": 3240, "autor ": 3241, "confianz": 3242, "Legal ": 3243, "<bos>U": 3244, "domes": 3245, "nacional de ": 3246, "<bos>- ": 3247, "físic": 3248, "mil": 3249, "sur": 3250, "Repúblic": 3251, "participaron ": 3252, "programas ": 3253, "inter-": 3254, "cuesti": 3255, "unc": 3256, "strengthening ": 3257, "agentes ": 3258, ".org/": 3259, "Raci": 3260, "Political ": 3261, "n ": 3262, "también se ": 3263, "del Secretario General ": 3264, "63": 3265, "comprehensive ": 3266, "improve ": 3267, "women, ": 3268, "emin": 3269, "dur": 3270, "fail": 3271, "for ": 3272, "e, ": 3273, "Comité de ": 3274, "People's ": 3275, "Disaster ": 3276, "III ": 3277, "os o ": 3278, "22 ": 3279, "Moroc": 3280, "Hum": 3281, "nuevo ": 3282, "tores ": 3283, "aunque ": 3284, "todo el ": 3285, "implemen": 3286, "ed of ": 3287, "lead": 3288, "psi": 3289, "<bos>Se ": 3290, "informe de la ": 3291, "Servici": 3292, "there is a ": 3293, "Bos": 3294, "ír": 3295, "delincuencia ": 3296, "A) ": 3297, "Guinea, ": 3298, "hincapié ": 3299, "2001, ": 3300, "Depart": 3301, "coll": 3302, "obstante, ": 3303, "fel": 3304, "protección ": 3305, "ment to ": 3306, "eran": 3307, "Asambl": 3308, "surve": 3309, "90": 3310, "ysic": 3311, "continu": 3312, "cam": 3313, "Departamento de ": 3314, "Zel": 3315, "Chi": 3316, "ES": 3317, "Security Council resolution ": 3318, "Mongol": 3319, "impos": 3320, "hog": 3321, "de al ": 3322, "partner": 3323, "<eos>": 3324, "exic": 3325, "álo": 3326, "entre otras cos": 3327, "ile ": 3328, "when ": 3329, "out of ": 3330, "peopl": 3331, "adem": 3332, "designed to ": 3333, "suficiente ": 3334, "% en ": 3335, "intoler": 3336, "out ": 3337, "apply ": 3338, "las Naciones Unidas para ": 3339, "ether ": 3340, "emphasiz": 3341, "ate and ": 3342, "que, en ": 3343, "about the ": 3344, "ity to ": 3345, "ciones de ": 3346, "arbitr": 3347, "ay, ": 3348, "quiz": 3349, "parte, ": 3350, "Centro": 3351, "formul": 3352, "human rights and ": 3353, "PNUMA ": 3354, "security ": 3355, "suffici": 3356, "made by the ": 3357, "derechos humanos y ": 3358, "police ": 3359, "Roj": 3360, "trat": 3361, "ici": 3362, "aplicar ": 3363, "Women ": 3364, "a un ": 3365, "related ": 3366, "O) ": 3367, "acknowledg": 3368, "IM": 3369, "<bos>Con ": 3370, "igur": 3371, "reflect": 3372, "him ": 3373, "Protocol": 3374, "region.<eos>": 3375, "cumb": 3376, "2009, ": 3377, "Ghana, ": 3378, "effor": 3379, "gn": 3380, "pueda ": 3381, "telecom": 3382, "hel": 3383, "e and ": 3384, "prest": 3385, "Uzbekist": 3386, "Georgi": 3387, "6": 3388, "expect": 3389, "los países ": 3390, "as por ": 3391, "reporting ": 3392, "<bos>At its ": 3393, "octa": 3394, "peli": 3395, "ubic": 3396, "to ": 3397, "S/AC.2": 3398, "posibles ": 3399, "Human Rights ": 3400, "los de ": 3401, "four ": 3402, "plant": 3403, "una de las ": 3404, "2 of the ": 3405, "actualiz": 3406, "Institu": 3407, "years.<eos>": 3408, "internacionales ": 3409, "conten": 3410, "http": 3411, "Los ": 3412, "therland": 3413, "Civ": 3414, "Perman": 3415, "mov": 3416, "o a ": 3417, "in": 3418, "ocimient": 3419, "view of the ": 3420, "Statu": 3421, "indic": 3422, "entre el ": 3423, "ation of ": 3424, "in paragraph ": 3425, "Norueg": 3426, "acts of ": 3427, "decision-making ": 3428, "fare ": 3429, "educational ": 3430, "de las ": 3431, "del Consejo de Seguridad ": 3432, "": 3433, "ation by ": 3434, "fueron ": 3435, "CC": 3436, "aran ": 3437, "seas": 3438, "Améric": 3439, "entes.<eos>": 3440, "mencion": 3441, "es of ": 3442, "international ": 3443, "Apri": 3444, "°": 3445, "ando la ": 3446, "ts and ": 3447, "9 (": 3448, "St": 3449, ", el ": 3450, "adopt": 3451, "secretariat ": 3452, "Estados Unidos ": 3453, "ray": 3454, "o de sesiones ": 3455, "____": 3456, "bien": 3457, "Georgia, ": 3458, "<bos>(c) ": 3459, "standard": 3460, "new": 3461, "Republic of Kore": 3462, "fact ": 3463, "ended ": 3464, "th": 3465, "elimination of ": 3466, "Child ": 3467, "tare": 3468, "2009": 3469, "tant": 3470, "olivi": 3471, "ful": 3472, "necesarios ": 3473, "hour": 3474, "examen del ": 3475, "meet the ": 3476, "wom": 3477, "through": 3478, "contract": 3479, "North ": 3480, "análisis ": 3481, "January ": 3482, "recomienda que el ": 3483, "ender ": 3484, "whether ": 3485, "performance ": 3486, "s (": 3487, "representatives of ": 3488, "the right to ": 3489, "libr": 3490, "derecho ": 3491, "ated by ": 3492, "en virtud ": 3493, "ive ": 3494, "acred": 3495, ",3": 3496, "ásic": 3497, "situación ": 3498, "cinco ": 3499, "coun": 3500, "fici": 3501, "annu": 3502, "Tema ": 3503, "Gran": 3504, "or": 3505, "rimon": 3506, "quincuagésimo ": 3507, "Fif": 3508, "right ": 3509, "<bos>It also ": 3510, "os y el ": 3511, "juven": 3512, "cional ": 3513, "reconcili": 3514, "<bos>Estos ": 3515, "funding ": 3516, "procedu": 3517, "aron a ": 3518, "pass": 3519, "5/": 3520, "Yugoslav": 3521, "garantizar la ": 3522, "dad": 3523, "Kuw": 3524, "comprome": 3525, "Sustainable ": 3526, "ada ": 3527, "cuá": 3528, "Asi": 3529, "bodies and ": 3530, ", and to ": 3531, "pend": 3532, "NEPA": 3533, "e;<eos>": 3534, "a reunión ": 3535, "últim": 3536, "compe": 3537, "indu": 3538, "pread ": 3539, "agrad": 3540, "guerr": 3541, "Terr": 3542, "ár": 3543, "sion of ": 3544, "cuyo ": 3545, "esferas ": 3546, "ensure ": 3547, "often ": 3548, "critical ": 3549, "aily ": 3550, "<bos>“": 3551, "schem": 3552, "<bos>En este ": 3553, "ed in ": 3554, "organiz": 3555, "estig": 3556, "treati": 3557, "anu": 3558, "adic": 3559, "HC": 3560, "we are ": 3561, "pidió ": 3562, "inf": 3563, "específic": 3564, "ation and the ": 3565, "this ": 3566, "erno ": 3567, "lej": 3568, "at the ": 3569, "um": 3570, "bienio ": 3571, "comunic": 3572, "server": 3573, "World Bank": 3574, "still ": 3575, "uly ": 3576, "producción de ": 3577, "continuación": 3578, "seguido ": 3579, "host ": 3580, "ations and ": 3581, "World ": 3582, "ector": 3583, "información y ": 3584, "determin": 3585, "kist": 3586, "year.<eos>": 3587, "ongoing ": 3588, "Medio Amb": 3589, "idades ": 3590, "ator": 3591, "hand": 3592, "tan": 3593, "acuerdos ": 3594, "ting and ": 3595, "saf": 3596, "+": 3597, "prefer": 3598, "energía ": 3599, "cooperation, ": 3600, "Court of ": 3601, "Protocolo de ": 3602, "yan": 3603, "ers ": 3604, "authoriz": 3605, "00": 3606, "Office for ": 3607, "he": 3608, "www.un": 3609, "ting of ": 3610, "obtener ": 3611, "sider ": 3612, "inter ": 3613, "divi": 3614, "progresos ": 3615, "favor ": 3616, "estim": 3617, "países en desarrollo ": 3618, "a, the ": 3619, "Milit": 3620, "alo": 3621, "letter ": 3622, "podr": 3623, "período de sesiones.<eos>": 3624, "Ni": 3625, "Mar": 3626, "enseñ": 3627, "asistieron ": 3628, "Turqu": 3629, "tomar ": 3630, "regi": 3631, "órgan": 3632, "ehol": 3633, "os más ": 3634, "64": 3635, "ed in the ": 3636, "sistemátic": 3637, "public ": 3638, "thern ": 3639, "less ": 3640, "h, ": 3641, "is to ": 3642, "Rev": 3643, "Es": 3644, "áfic": 3645, "relating to ": 3646, "adas, ": 3647, "regarding ": 3648, "arrang": 3649, "uncion": 3650, "training ": 3651, "dólares, ": 3652, "e una ": 3653, "en el contex": 3654, "ed for the ": 3655, "debían ": 3656, "Oficina del Alto Comision": 3657, "por un ": 3658, "expres": 3659, "bu": 3660, "nacionales.<eos>": 3661, "officers ": 3662, "cob": 3663, "just ": 3664, "conform": 3665, "enci": 3666, "E/C": 3667, "<bos>C": 3668, "ared ": 3669, "igh": 3670, "http://": 3671, "Programme of Action ": 3672, "participants ": 3673, "<bos>At the ": 3674, "ó a los ": 3675, "gast": 3676, "igual": 3677, "had a ": 3678, "Costa ": 3679, "<bos>My ": 3680, "did": 3681, "geograph": 3682, "hi": 3683, "implementation of ": 3684, "período extraordinario de sesiones ": 3685, "S-": 3686, "aly": 3687, "meeting of the ": 3688, "day, ": 3689, "igualdad entre los ": 3690, "informe del Secretario General ": 3691, "nuev": 3692, "tain ": 3693, "successful ": 3694, "al de ": 3695, "rai": 3696, " de mayo de 200": 3697, "to de la ": 3698, "Johannes": 3699, "contra ": 3700, "preserv": 3701, "needed to ": 3702, "nolog": 3703, "cumpl": 3704, "representante de ": 3705, "estabilidad ": 3706, "ejecut": 3707, "circum": 3708, "últimos ": 3709, "ght ": 3710, "<bos>The Committee ": 3711, "said that the ": 3712, "19 ": 3713, "Fifth ": 3714, "flic": 3715, "esfuerz": 3716, "workers ": 3717, "Japón, ": 3718, "Conference of the Parties ": 3719, "coordin": 3720, "Nairo": 3721, "aplicación de las ": 3722, "asked ": 3723, "con": 3724, "Inform": 3725, "Palestin": 3726, "a: ": 3727, "pad": 3728, "br": 3729, "part ": 3730, "ensuring ": 3731, "V ": 3732, "régim": 3733, "átic": 3734, "though ": 3735, "tion to ": 3736, "Guid": 3737, "ty of ": 3738, "tráfic": 3739, "Americ": 3740, "y los ": 3741, "poin": 3742, "e del ": 3743, "ed “": 3744, "<bos>In addition, ": 3745, ") (": 3746, "mismo ": 3747, "que se han ": 3748, "ebr": 3749, "os de las ": 3750, "compri": 3751, "ación ": 3752, "disponi": 3753, "er to ": 3754, "sw": 3755, "gas": 3756, "] ": 3757, "(O": 3758, "r el ": 3759, "able and ": 3760, "vigil": 3761, "som": 3762, "arta ": 3763, "pro": 3764, "encia de los ": 3765, "hecho ": 3766, "plena ": 3767, "Au": 3768, "ocup": 3769, "II ": 3770, "plan": 3771, "juici": 3772, "part of ": 3773, ".0": 3774, "U ": 3775, "ants ": 3776, "ity of the ": 3777, "coher": 3778, "a, la ": 3779, "our ": 3780, "formas ": 3781, "Turkish ": 3782, "importancia de ": 3783, "Br": 3784, "<bos>Observ": 3785, "long": 3786, "próxim": 3787, "R ": 3788, "ate, ": 3789, "improvement ": 3790, "fore ": 3791, "<bos>Pu": 3792, "car": 3793, "provisional ": 3794, "pron": 3795, "public": 3796, "IÓN ": 3797, "uch ": 3798, "Republic of the ": 3799, "S/": 3800, "División de ": 3801, "negociaciones ": 3802, "amiento de los ": 3803, "technical assistance ": 3804, "Gobierno de la ": 3805, "terior": 3806, "pru": 3807, "Kore": 3808, "ative ": 3809, "No. ": 3810, "Energ": 3811, "árab": 3812, "correspondi": 3813, "incen": 3814, "Agreement ": 3815, "A/C": 3816, "1990": 3817, "histori": 3818, "proyecto ": 3819, "ales, y ": 3820, "/3": 3821, "ellas ": 3822, "Intern": 3823, "F/": 3824, "ed on ": 3825, "policía ": 3826, "Sw": 3827, "discussion ": 3828, "derechos humanos, ": 3829, "persona ": 3830, "condi": 3831, "fuerz": 3832, "Africa, ": 3833, "frecu": 3834, "chem": 3835, "Chairm": 3836, "apoy": 3837, "word": 3838, "sociedad civil ": 3839, "derecho del ": 3840, "relev": 3841, "sis ": 3842, "particular, ": 3843, "a en el ": 3844, "dirección ": 3845, "Reg": 3846, "vo ": 3847, "ept": 3848, "king ": 3849, "encia.<eos>": 3850, "indigenous peopl": 3851, "medical ": 3852, "and other ": 3853, "terr": 3854, "sect": 3855, "coordination ": 3856, "<bos>Por lo ": 3857, "tions.<eos>": 3858, "ember": 3859, "objetivos de desarrollo del Mileni": 3860, "fal": 3861, "women's ": 3862, "whose ": 3863, "valores ": 3864, "ar a ": 3865, "na ": 3866, "an and ": 3867, "engag": 3868, "En ": 3869, "ar los ": 3870, "<bos>Por otra parte, ": 3871, "recent ": 3872, "Counci": 3873, "culo ": 3874, "specific ": 3875, "ee ": 3876, "objetivos de ": 3877, "main": 3878, "es:<eos>": 3879, "30": 3880, "adora ": 3881, "can": 3882, "subject to ": 3883, "commod": 3884, "El Salv": 3885, "Racial ": 3886, "address the ": 3887, "requi": 3888, "exerci": 3889, "spe": 3890, "es (": 3891, "THE ": 3892, "es. ": 3893, "* ": 3894, "as del ": 3895, "res ": 3896, "ence, ": 3897, "ve the ": 3898, "vir": 3899, "strengthen ": 3900, "Fam": 3901, "1 ": 3902, "victims of ": 3903, "Mujer ": 3904, "resources ": 3905, "equi": 3906, "EP": 3907, "Servic": 3908, "entendi": 3909, "logr": 3910, "propuest": 3911, "agreement": 3912, "a, ": 3913, "of its ": 3914, "United States of Americ": 3915, "grupos ": 3916, "países.<eos>": 3917, "votación ": 3918, "estern ": 3919, "alth ": 3920, "flexi": 3921, "conversaciones ": 3922, "PNUD ": 3923, "grup": 3924, "on ": 3925, "ales<eos>": 3926, "a) ": 3927, "effec": 3928, "vin": 3929, "otras ": 3930, "recogn": 3931, "clim": 3932, "affected by ": 3933, "Affairs ": 3934, "<bos>Article ": 3935, "Se": 3936, "Sant": 3937, "Protec": 3938, "<bos>Est": 3939, "taken ": 3940, "situation of ": 3941, "contribuciones ": 3942, "terrorism ": 3943, "de, ": 3944, "´": 3945, "estad": 3946, "sino ": 3947, "Árabe ": 3948, "Law": 3949, "join": 3950, "multilateral ": 3951, "incompatible ": 3952, "that they ": 3953, "stru": 3954, "general, ": 3955, "irán ": 3956, "mec": 3957, "fil": 3958, "ence in ": 3959, "mon": 3960, "C": 3961, "•": 3962, "\" ": 3963, "in accordance ": 3964, "ana ": 3965, "network ": 3966, "un": 3967, "second ": 3968, "conte": 3969, "courts ": 3970, "United States ": 3971, "té": 3972, "monitor": 3973, "income ": 3974, "infraestructur": 3975, "human": 3976, "Jer": 3977, "industri": 3978, "dific": 3979, "common ": 3980, "Cultur": 3981, "ará ": 3982, "assum": 3983, "accordance ": 3984, "bitr": 3985, "no": 3986, "ation and ": 3987, "ers and ": 3988, "AL": 3989, "agend": 3990, "importance ": 3991, "exist": 3992, "Naciones ": 3993, "mentioned ": 3994, "stri": 3995, "al (": 3996, "UNMIK": 3997, "fore": 3998, "elecom": 3999, "work for ": 4000, "ado, ": 4001, "cuarto ": 4002, "ques ": 4003, "a en las ": 4004, "t in ": 4005, "abiert": 4006, "on its ": 4007, "jer ": 4008, "pli": 4009, "sane": 4010, "y ": 4011, "al que ": 4012, "curs": 4013, "pregn": 4014, "e: ": 4015, "Arm": 4016, "S": 4017, "draft resolution ": 4018, "/20": 4019, "N": 4020, "considerable ": 4021, "paragraph": 4022, "rule of ": 4023, "s the ": 4024, "G": 4025, "3, ": 4026, "reglament": 4027, "question ": 4028, "anto ": 4029, "presentación de ": 4030, "regard": 4031, "<bos>(b) ": 4032, "someti": 4033, "source ": 4034, "trateg": 4035, "mac": 4036, "Euro": 4037, "alist": 4038, "categorías ": 4039, "level of ": 4040, "<bos>The President": 4041, "bles ": 4042, "ACIÓN ": 4043, "ed that the ": 4044, "6 ": 4045, "lig": 4046, "responsible for ": 4047, "fourth ": 4048, "Junta ": 4049, "apport": 4050, "national ": 4051, "ase ": 4052, "UNHC": 4053, "decide ": 4054, "veri": 4055, "éptim": 4056, "omin": 4057, "1-": 4058, "·": 4059, "ational ": 4060, "eficac": 4061, "vil": 4062, "ó a ": 4063, "ar en el ": 4064, "a e ": 4065, "ing from ": 4066, "ment for ": 4067, "alcance ": 4068, "just": 4069, "although ": 4070, "regre": 4071, "members of the ": 4072, "have a ": 4073, "Burkina F": 4074, "pointed out ": 4075, "ean ": 4076, "o los ": 4077, "Part": 4078, "<bos>Furthermo": 4079, "example, ": 4080, "but ": 4081, "solamente ": 4082, "menores ": 4083, "que se ": 4084, "de una ": 4085, "Integr": 4086, "pol": 4087, "ah": 4088, "diversas ": 4089, "acy ": 4090, "ic ": 4091, "ous ": 4092, "Organ": 4093, "Egyp": 4094, "marc": 4095, "derecho internacional, ": 4096, "recur": 4097, "anexo ": 4098, "bro": 4099, "Q": 4100, ", and ": 4101, "prior ": 4102, ".g": 4103, "nológic": 4104, "encia de ": 4105, "Fi": 4106, "assist": 4107, "ligh": 4108, "ess ": 4109, "Dinamarc": 4110, "consistent ": 4111, "mill": 4112, "ting ": 4113, "recommends that the ": 4114, "ización ": 4115, "States, ": 4116, "ía.<eos>": 4117, "ing ": 4118, "e.g": 4119, "centre ": 4120, "authorities ": 4121, "back": 4122, "mandato ": 4123, "access to ": 4124, "dispute ": 4125, "targe": 4126, "id": 4127, "Dominic": 4128, "both ": 4129, "partir del ": 4130, "zon": 4131, "Secretario ": 4132, "Oct": 4133, "consentimient": 4134, "2002.<eos>": 4135, "countries to ": 4136, "Government": 4137, "sou": 4138, "throughout the ": 4139, "tener ": 4140, "reports ": 4141, "<bos>En consecu": 4142, "[": 4143, "acífic": 4144, "comprometi": 4145, "antiz": 4146, "or other ": 4147, "provide ": 4148, "junto ": 4149, "log": 4150, "acc": 4151, "Nam": 4152, "199": 4153, "procur": 4154, "ayuda ": 4155, "li": 4156, "República Chec": 4157, "ocument": 4158, "persons ": 4159, "defici": 4160, "th meeting, on ": 4161, "las Naciones Unidas para el ": 4162, "A ": 4163, "Im": 4164, "alleng": 4165, "hol": 4166, "/7": 4167, "ts in ": 4168, "IA": 4169, "mat": 4170, "informes ": 4171, "misma ": 4172, "objetivos ": 4173, "Kingdom": 4174, "aría ": 4175, "utilización de ": 4176, "marco ": 4177, "Prin": 4178, "encamin": 4179, "de la Comisión de ": 4180, "Palestini": 4181, "in its ": 4182, "consum": 4183, "contained in the ": 4184, "venciones ": 4185, "represent": 4186, "equili": 4187, "time": 4188, "mal": 4189, "Derechos ": 4190, "an international ": 4191, "para que ": 4192, "derecho a ": 4193, "aid": 4194, "<bos>Si": 4195, "y.<eos>": 4196, "reas": 4197, "de la región ": 4198, "primor": 4199, "argu": 4200, "modific": 4201, "ages ": 4202, "New Zeal": 4203, "peri": 4204, "sal": 4205, "ations ": 4206, "m ": 4207, "y of the ": 4208, "que las ": 4209, "cooperation and ": 4210, "nuevos ": 4211, "Philipp": 4212, "nacionales de ": 4213, "ood ": 4214, "dos ": 4215, "paz.<eos>": 4216, "on a ": 4217, "habit": 4218, "obligación de ": 4219, "Sala ": 4220, "directly ": 4221, "Unión Europe": 4222, "ben": 4223, "agenda.<eos>": 4224, "docu": 4225, "ed to the ": 4226, "Commission": 4227, "per cent": 4228, "play ": 4229, "compani": 4230, "ated the ": 4231, "weapon": 4232, "have been ": 4233, "lead ": 4234, "approach to ": 4235, "luch": 4236, "<bos>Por lo tant": 4237, "ordinari": 4238, "las actividades ": 4239, "mar": 4240, "remedi": 4241, "al ": 4242, "ación o ": 4243, "tales ": 4244, "al: ": 4245, "Nicaragu": 4246, "particul": 4247, "XX": 4248, "ías ": 4249, "es: ": 4250, "segunda ": 4251, "workshop ": 4252, "acontecimient": 4253, "Derech": 4254, "14 ": 4255, "Security Council ": 4256, "termin": 4257, "incluy": 4258, "conformidad ": 4259, "prepar": 4260, "Ar": 4261, "activi": 4262, "munici": 4263, "ffici": 4264, "that, ": 4265, "Li": 4266, "amenaz": 4267, "appropri": 4268, "duty ": 4269, "mor": 4270, "celebr": 4271, "yecto de ": 4272, "ad": 4273, "Pan": 4274, "asociados ": 4275, "carry out ": 4276, "received ": 4277, "ving ": 4278, "ach ": 4279, "gand": 4280, "Cooperación ": 4281, "owever": 4282, "avail": 4283, "<bos>Entre ": 4284, "estrategias ": 4285, "umbre ": 4286, "ef ": 4287, "<bos>Paragrap": 4288, "ait": 4289, "4 (": 4290, "depart": 4291, " de ener": 4292, "ily ": 4293, "pequeñ": 4294, "past ": 4295, "of the Convention ": 4296, "serv": 4297, "selec": 4298, "submit ": 4299, "empr": 4300, "ales": 4301, "ch ": 4302, "awar": 4303, "there are ": 4304, "financial ": 4305, "/6": 4306, "agricultur": 4307, "labor del ": 4308, "<bos>International ": 4309, "elev": 4310, "nombre ": 4311, "extrem": 4312, "bast": 4313, "improve the ": 4314, "ill": 4315, "success": 4316, "fficial ": 4317, "2005 ": 4318, "18.00 hor": 4319, "; the ": 4320, "objetivo ": 4321, "debería ": 4322, "puesto de ": 4323, "con un ": 4324, "ví": 4325, "without ": 4326, "edg": 4327, "ir la ": 4328, "ales ": 4329, "futur": 4330, "” ": 4331, "in accordance with the ": 4332, "ofes": 4333, "estrategi": 4334, "profesion": 4335, "do not ": 4336, "nú": 4337, "conoci": 4338, "acerc": 4339, "plan ": 4340, "da ": 4341, "Foreign ": 4342, "comi": 4343, "ticle ": 4344, ". S": 4345, "you": 4346, "cooperation between the ": 4347, "themselv": 4348, "<bos>Ar": 4349, "follow ": 4350, "arrest": 4351, "libert": 4352, "Be": 4353, "en la esfer": 4354, "Special Rapporteur ": 4355, "ratifi": 4356, "vey ": 4357, "de la Comisión ": 4358, "investigación ": 4359, "dóla": 4360, "s ": 4361, "úl": 4362, "irm": 4363, "í ": 4364, "into accoun": 4365, "ourc": 4366, "unión ": 4367, "achi": 4368, "1°": 4369, "sustan": 4370, "a not": 4371, "d": 4372, "I, ": 4373, "s its ": 4374, "basic ": 4375, "tions ": 4376, "República Popular ": 4377, "ult": 4378, "demuestr": 4379, "<bos>The United Nations ": 4380, "th ": 4381, "integr": 4382, "oportun": 4383, "fisc": 4384, "possi": 4385, "rap": 4386, "Consejo ": 4387, "lugar de ": 4388, "process": 4389, "adqu": 4390, "East ": 4391, "esenci": 4392, "recuper": 4393, "erc": 4394, "tion, ": 4395, "Uk": 4396, "undertake ": 4397, "internacionales de ": 4398, "infec": 4399, "anteriores ": 4400, "statement": 4401, "remain ": 4402, "NGO": 4403, "Vol": 4404, "ary, ": 4405, "broad": 4406, "é ": 4407, "opl": 4408, "pregunt": 4409, "support of ": 4410, "preval": 4411, "security and ": 4412, "degrad": 4413, "?": 4414, "emerg": 4415, "third ": 4416, "full ": 4417, "to promote ": 4418, "ew": 4419, "Mauriti": 4420, "crític": 4421, "ación para ": 4422, "prens": 4423, "quali": 4424, "conj": 4425, "as para ": 4426, "Reino Unid": 4427, "on the ": 4428, "sigui": 4429, "B ": 4430, "es are ": 4431, "as de las ": 4432, "perjuici": 4433, "cualquier ": 4434, "Mileni": 4435, "ard ": 4436, "le ": 4437, "Primer ": 4438, "st ": 4439, "dose ": 4440, "Meeting ": 4441, "detailed ": 4442, "presupuesto ": 4443, " de noviembre de ": 4444, "sede ": 4445, "años ": 4446, "budget": 4447, "(see ": 4448, "Inter-": 4449, "ace ": 4450, "and in ": 4451, "i) ": 4452, "1.<eos>": 4453, "forest ": 4454, "peac": 4455, "niñ": 4456, "oficin": 4457, "rendición de ": 4458, "los": 4459, "min": 4460, "th-": 4461, "Islamic ": 4462, "@": 4463, "<bos>Al": 4464, "ninguna ": 4465, "if ": 4466, "I": 4467, "emen": 4468, "terrorismo ": 4469, "17 ": 4470, "empeñ": 4471, "/": 4472, "s to ": 4473, "stand": 4474, "su": 4475, "que no se ": 4476, "ticip": 4477, "text of ": 4478, "en el marc": 4479, "osp": 4480, "cep": 4481, "ningún ": 4482, "con benepláci": 4483, "ég": 4484, "4 ": 4485, "án, ": 4486, "on the basi": 4487, "ri": 4488, "podrían ": 4489, "trafficking ": 4490, "mente, ": 4491, "provoc": 4492, "cré": 4493, "7 ": 4494, "Ex": 4495, "nex": 4496, "2006-": 4497, "medi": 4498, "Action ": 4499, "c ": 4500, "timient": 4501, "Dec": 4502, "Cuba, ": 4503, "General Assembly, ": 4504, "ría ": 4505, "estimated ": 4506, "ment or ": 4507, "alient": 4508, "és": 4509, "Fin": 4510, "desplazados intern": 4511, "opinión ": 4512, "20 ": 4513, "52": 4514, "<bos>Por ejempl": 4515, "evalu": 4516, "nific": 4517, "ag": 4518, "itu": 4519, "greater ": 4520, "situaciones ": 4521, "cargo ": 4522, "39": 4523, "os en la ": 4524, "laun": 4525, "pon": 4526, "Indonesi": 4527, "hort": 4528, "estu": 4529, "ory ": 4530, "univers": 4531, "Sci": 4532, "mayor": 4533, "substantial ": 4534, "acu": 4535, "sob": 4536, "instrument": 4537, "report ": 4538, "insol": 4539, "dimen": 4540, "% de ": 4541, "presu": 4542, "víctim": 4543, "adjust": 4544, "Irel": 4545, "TIC": 4546, "Group of ": 4547, "conflict ": 4548, "commitments ": 4549, "Convention on the ": 4550, "Cy": 4551, "crímen": 4552, "Israel, ": 4553, "Kosov": 4554, "reference ": 4555, "document": 4556, "ting": 4557, "sosteni": 4558, "good": 4559, "eni": 4560, "<bos>An ": 4561, "subject": 4562, "abl": 4563, "uc": 4564, "alk": 4565, "me, ": 4566, "over the ": 4567, "11, ": 4568, "Secretary-General's ": 4569, "regul": 4570, "protocol": 4571, "orm": 4572, "sanciones ": 4573, "rights and ": 4574, " (": 4575, "ato de ": 4576, "Do": 4577, "encontr": 4578, "assi": 4579, "arios de ": 4580, "govern": 4581, "Conference of the ": 4582, "auditor": 4583, "pueb": 4584, "adas por ": 4585, "awarenes": 4586, "correspon": 4587, "ley ": 4588, "countri": 4589, "haber ": 4590, "intención de ": 4591, "ing of ": 4592, "onia, ": 4593, "respuest": 4594, "sultiv": 4595, "de conformidad con el ": 4596, "processes ": 4597, "ather": 4598, ", for ": 4599, "en relación ": 4600, "arms ": 4601, "<bos>Ms. ": 4602, "support ": 4603, "entor": 4604, "mundial.<eos>": 4605, "tecnologías ": 4606, "de la Constitu": 4607, "need": 4608, "ado el ": 4609, "ampli": 4610, "business ": 4611, "arms and ": 4612, "iente ": 4613, "/9": 4614, "caus": 4615, "port": 4616, "reclu": 4617, "k": 4618, "international humanitarian ": 4619, "prohi": 4620, "Jo": 4621, "pen": 4622, "<bos>Agenda ": 4623, "justici": 4624, "exig": 4625, "6, ": 4626, "tive ": 4627, "don": 4628, "<bos>Es": 4629, "German": 4630, "resolv": 4631, "os y de ": 4632, "israelíes ": 4633, "mother": 4634, "Liberi": 4635, "I ": 4636, "donor ": 4637, "ente.<eos>": 4638, "progres": 4639, "what ": 4640, "given to ": 4641, "mism": 4642, "fech": 4643, "Af": 4644, "Democratic ": 4645, "that are ": 4646, "Rusi": 4647, "*<eos>": 4648, "Orient": 4649, "soberan": 4650, "acces": 4651, "rais": 4652, "abi": 4653, "edimient": 4654, "aplicación de ": 4655, "paz y la seguridad ": 4656, "Work": 4657, "ensur": 4658, "os y la ": 4659, "dign": 4660, "number of ": 4661, "hí": 4662, "areas.<eos>": 4663, "esp": 4664, "lugares ": 4665, "Ñ": 4666, "Trat": 4667, "sobre el terren": 4668, "FA": 4669, "criteri": 4670, "reducción de la ": 4671, "promover la ": 4672, "ca": 4673, "respect of ": 4674, "pueblos ": 4675, "en and ": 4676, "tion in ": 4677, "12": 4678, "Parties ": 4679, "entre las ": 4680, "put": 4681, "con benepl": 4682, "casti": 4683, "t (": 4684, "datab": 4685, "terren": 4686, "capacity ": 4687, "unas ": 4688, "26 ": 4689, "r.<eos>": 4690, "proyecto de resolución ": 4691, "toler": 4692, "eth": 4693, "Netherland": 4694, "No": 4695, "ut": 4696, "resoluciones ": 4697, "avo": 4698, "lim": 4699, "tur": 4700, "ore": 4701, "22": 4702, ".4/": 4703, "Arabia Saudit": 4704, "al of ": 4705, "p": 4706, "así ": 4707, ", a ": 4708, "mites ": 4709, "vie": 4710, "e to be ": 4711, "reduce the ": 4712, "aciones ": 4713, "bl": 4714, "elaboración de ": 4715, "strengthen": 4716, "<bos>Invit": 4717, "a,<eos>": 4718, "to de ": 4719, "those ": 4720, "arta de ": 4721, "miento ": 4722, "regionales y ": 4723, "str": 4724, "lo.<eos>": 4725, "individual": 4726, "proper": 4727, "te, ": 4728, "people of ": 4729, "yl": 4730, "lib": 4731, "women ": 4732, "ajust": 4733, "e” ": 4734, "implementing ": 4735, "sobre la ": 4736, ")": 4737, "ment ": 4738, "hom": 4739, "illegal ": 4740, "ión ": 4741, "Central ": 4742, "prueb": 4743, "entorno ": 4744, "<bos>Sr. ": 4745, "cases ": 4746, "adas de ": 4747, "ation for ": 4748, "such as ": 4749, "oblig": 4750, "imprison": 4751, "ful ": 4752, "indicated ": 4753, "approxim": 4754, "solici": 4755, "intensific": 4756, "int ": 4757, "Guatemala, ": 4758, "Northern Irel": 4759, "resolu": 4760, "promover ": 4761, "to re": 4762, "mayoría de los ": 4763, "habla en ingl": 4764, "dissemin": 4765, "IS": 4766, "º": 4767, "criminal ": 4768, "2 del ": 4769, "do": 4770, "H": 4771, "sec": 4772, "común ": 4773, "member": 4774, "damag": 4775, "consci": 4776, "violations of ": 4777, "Junt": 4778, "50 ": 4779, "presupuest": 4780, "responsabil": 4781, "2004 ": 4782, "ón, ": 4783, "aére": 4784, "A/C.5/": 4785, "equipment, ": 4786, "issu": 4787, "usu": 4788, "puede ": 4789, "asesin": 4790, "es a ": 4791, "DA": 4792, "sólo ": 4793, "comunidad internacional ": 4794, "Desarrollo Sosteni": 4795, "deriv": 4796, "prostitu": 4797, "menos ": 4798, "necesidades de ": 4799, "IV": 4800, "nuestros ": 4801, "less than ": 4802, "en relación con la ": 4803, "Res": 4804, "ám": 4805, "foreign ": 4806, "<bos>Las ": 4807, "aph": 4808, "bey": 4809, "OR": 4810, "agenci": 4811, "sen": 4812, "ónic": 4813, "az": 4814, "persist": 4815, "armas de destrucción en ": 4816, "o<eos>": 4817, "Ley de ": 4818, "right to ": 4819, "technologi": 4820, "selv": 4821, "comunicaciones ": 4822, "Federación de ": 4823, "conocimientos ": 4824, "cident": 4825, "drug ": 4826, "up ": 4827, "representativ": 4828, "t ": 4829, "MA": 4830, "atic": 4831, "tri": 4832, "mis": 4833, "Offic": 4834, "ados en el ": 4835, "members of ": 4836, "celebrado en ": 4837, " y el ": 4838, "onia ": 4839, "ease ": 4840, "health, ": 4841, "Convenio de ": 4842, "terrorism.<eos>": 4843, "rights of ": 4844, "2004-": 4845, "Misión de ": 4846, "does not ": 4847, "age, ": 4848, "firme ": 4849, "aleg": 4850, "vien": 4851, "labor": 4852, "supports ": 4853, "Tas": 4854, "appropriate ": 4855, "agreement ": 4856, "sexu": 4857, "se of ": 4858, "Agric": 4859, "problem ": 4860, "<bos>Cor": 4861, "UNIFEM": 4862, "agenda ": 4863, "ic and ": 4864, "Mill": 4865, "recommendation ": 4866, "10": 4867, "ilit": 4868, "establish": 4869, "e y ": 4870, "rog": 4871, "contamin": 4872, "aqu": 4873, "ed from ": 4874, "field": 4875, "New Ze": 4876, "ic": 4877, "paz y la ": 4878, "tes ": 4879, "For": 4880, "African": 4881, "relativas a los ": 4882, "mes": 4883, "sent ": 4884, "(véase ": 4885, "they ": 4886, "Jef": 4887, "leader": 4888, "civ": 4889, " y ": 4890, "capacity-": 4891, "resourc": 4892, "was a ": 4893, "are": 4894, "sistencia ": 4895, "son los ": 4896, "day ": 4897, "cambi": 4898, "sulares en ": 4899, "pecial ": 4900, "UNICEF ": 4901, "Comm": 4902, "M ": 4903, "señala ": 4904, "Basi": 4905, "Secretario General ": 4906, "partes ": 4907, "Code ": 4908, "alto nivel ": 4909, "spec": 4910, "isl": 4911, "rules of procedur": 4912, "no gubernament": 4913, "Canada, ": 4914, "chemic": 4915, "agrícol": 4916, "articles ": 4917, "Congo ": 4918, "vic": 4919, "mínim": 4920, "estrec": 4921, "ó al ": 4922, "hac": 4923, "overn": 4924, "Corr.1": 4925, "o de las Naciones Unidas para la ": 4926, "hous": 4927, "estric": 4928, "República de ": 4929, "os en ": 4930, "evelop": 4931, "Oper": 4932, "Organization ": 4933, "such ": 4934, "31": 4935, "_": 4936, "grupos de ": 4937, "front": 4938, "9<eos>": 4939, "Prepar": 4940, "enfermedades ": 4941, "estructur": 4942, "sobre las ": 4943, ")<eos>": 4944, "activ": 4945, "them to ": 4946, "abri": 4947, "UNCITRAL ": 4948, "\"": 4949, "estableci": 4950, "investigaciones ": 4951, "Cumbre ": 4952, "Ben": 4953, "addressed to the ": 4954, "o; ": 4955, "Malasi": 4956, ".7": 4957, "vo": 4958, "technolog": 4959, "Convention on the Rights of the ": 4960, "conserv": 4961, "o ": 4962, "acciones ": 4963, "non-governmental ": 4964, "conced": 4965, "pues": 4966, "em": 4967, "reproductive ": 4968, "which the ": 4969, "were ": 4970, "give ": 4971, "Peace ": 4972, "twenty-": 4973, "accord": 4974, "inter alia, ": 4975, "as the ": 4976, "Amb": 4977, "Públic": 4978, "Mu": 4979, "Dep": 4980, "igualdad ": 4981, "estar ": 4982, "México, ": 4983, "encias de ": 4984, "3).<eos>": 4985, "espír": 4986, "from ": 4987, "profund": 4988, "periódic": 4989, "taken by the ": 4990, "establecido ": 4991, "erv": 4992, "visto ": 4993, "Esloven": 4994, "reuni": 4995, "Direc": 4996, "/4": 4997, "lo dispuesto ": 4998, " de may": 4999, "A.<eos>": 5000, "Israeli ": 5001, "característic": 5002, "arc": 5003, "referred ": 5004, "Consej": 5005, "reci": 5006, "loc": 5007, "II": 5008, "disciplin": 5009, "suministr": 5010, "cada vez ": 5011, "2008": 5012, "execu": 5013, "ser": 5014, "entes y ": 5015, "ass": 5016, "asoci": 5017, "tras": 5018, "benef": 5019, "factor": 5020, "ampl": 5021, "measu": 5022, "arly ": 5023, "frame": 5024, "Bu": 5025, "/WP": 5026, "lob": 5027, "t with ": 5028, "eficaz ": 5029, "whom ": 5030, "ando ": 5031, "action.<eos>": 5032, "mantenimiento de la paz": 5033, "torture ": 5034, "HIV/AID": 5035, "tenía ": 5036, "tent": 5037, "estrat": 5038, "tend": 5039, "adas": 5040, "enth ": 5041, "eran ": 5042, "lugar ": 5043, "Argentina, ": 5044, "legislativ": 5045, "preneur": 5046, "étic": 5047, "1997": 5048, "ation's ": 5049, "involv": 5050, "<bos>R": 5051, "civili": 5052, "separ": 5053, "collective ": 5054, "acord": 5055, "políticas ": 5056, "Ir": 5057, "the": 5058, "respon": 5059, "communi": 5060, "año.<eos>": 5061, "55": 5062, "ayud": 5063, "ord": 5064, "rendi": 5065, "welcomes the ": 5066, "ofrecer ": 5067, "a (": 5068, "<bos>Elec": 5069, " and the ": 5070, "guar": 5071, "Emir": 5072, "capital ": 5073, "ordinario de sesiones ": 5074, "americ": 5075, "ã": 5076, "as": 5077, "<bos>¿": 5078, "Países B": 5079, "ust ": 5080, "recently ": 5081, "Secretary-General to ": 5082, "plan de ": 5083, "resp": 5084, "Económic": 5085, "prof": 5086, "<bos>Pi": 5087, "necesarias para ": 5088, "Terrorism ": 5089, "financier": 5090, "central ": 5091, "tion.<eos>": 5092, "municip": 5093, "28 ": 5094, "<bos>Desde ": 5095, "2, ": 5096, "stat": 5097, "South-": 5098, "al Comité ": 5099, "en su resolución ": 5100, "planific": 5101, "having ": 5102, "non-governmental organizations ": 5103, "based on the ": 5104, "2006, ": 5105, "subsequ": 5106, "Vien": 5107, "th session": 5108, "atory ": 5109, "Oriente ": 5110, "Glob": 5111, "ation is ": 5112, "<bos>Di": 5113, "form of ": 5114, "muer": 5115, "practic": 5116, "economic growth ": 5117, "sider": 5118, "es, ": 5119, " de diciembre de ": 5120, "ón": 5121, "valor ": 5122, "y su ": 5123, "well ": 5124, "e in": 5125, "protection ": 5126, "ley": 5127, "Kenya, ": 5128, "ć": 5129, "appli": 5130, "compr": 5131, "h": 5132, "UNCTA": 5133, "debe ": 5134, "regard ": 5135, "intereses ": 5136, "colaboración ": 5137, "bre": 5138, "al nivel ": 5139, " of its ": 5140, "Government of ": 5141, "efectos ": 5142, "en que se ": 5143, "deb": 5144, "ada en los ": 5145, "con lo dispuesto ": 5146, ", la ": 5147, "Mundi": 5148, "jecu": 5149, "períodos de sesiones ": 5150, "pudi": 5151, "pañ": 5152, "build ": 5153, "men and ": 5154, "we ": 5155, "outcome of the ": 5156, "is not ": 5157, "a el ": 5158, "consecu": 5159, "ses ": 5160, "vit": 5161, "carri": 5162, "provided by the ": 5163, "interes": 5164, ".9": 5165, "ar-": 5166, "ground": 5167, "000": 5168, "compet": 5169, "ement of the ": 5170, "estr": 5171, "OD": 5172, "services, ": 5173, "ties and ": 5174, "segundo ": 5175, "adores de ": 5176, "Tec": 5177, "system, ": 5178, "until ": 5179, "November ": 5180, "haz": 5181, "ed their ": 5182, "alg": 5183, "menos adelant": 5184, "*": 5185, "share ": 5186, "emiti": 5187, "provech": 5188, "cooper": 5189, "rein": 5190, "Oriente Medi": 5191, "República ": 5192, "years ": 5193, "Mal": 5194, "ér": 5195, "J": 5196, "derech": 5197, "Stat": 5198, "Fund": 5199, "together ": 5200, "us": 5201, "development.<eos>": 5202, "algunas ": 5203, "como el ": 5204, "du": 5205, "team": 5206, "very ": 5207, "ción": 5208, "ice ": 5209, "período de sesion": 5210, "Las ": 5211, "a, los ": 5212, "accommod": 5213, "ari": 5214, "ate ": 5215, "con la ": 5216, "están ": 5217, "país ": 5218, "production and ": 5219, "communication ": 5220, "así com": 5221, "make ": 5222, "conver": 5223, "rom ": 5224, "substantive ": 5225, "ste": 5226, "”": 5227, "enti": 5228, "spo": 5229, "Secretary ": 5230, "): ": 5231, "personn": 5232, "proces": 5233, "<bos>P": 5234, "nogr": 5235, "examen ": 5236, "also ": 5237, "evaluation ": 5238, "conflicts ": 5239, "período ": 5240, "ast": 5241, "só": 5242, "der": 5243, "sor": 5244, "corrupción, ": 5245, "young people ": 5246, "valu": 5247, "Minister ": 5248, "field of ": 5249, "difícil ": 5250, "verse ": 5251, "sesión, ": 5252, "economic and ": 5253, "proposed ": 5254, "sión ": 5255, "Ginebr": 5256, "además ": 5257, "guidance ": 5258, "genous ": 5259, "own": 5260, "aciones y ": 5261, "Afganist": 5262, "sigue siendo ": 5263, "Ky": 5264, "er.<eos>": 5265, "al,<eos>": 5266, "deud": 5267, "fam": 5268, "naci": 5269, "ence and ": 5270, "UNICE": 5271, "tres ": 5272, "fore the ": 5273, "<bos>Sin embarg": 5274, "cuer": 5275, "enabl": 5276, "ly, ": 5277, "perspectiva de ": 5278, "requested the ": 5279, "tu": 5280, "ces ": 5281, "Member States and ": 5282, "measures ": 5283, "funciones ": 5284, "amb": 5285, "según ": 5286, "56": 5287, "ecer ": 5288, "después de ": 5289, "auth": 5290, "ancia, ": 5291, "tiene ": 5292, "above ": 5293, " ": 5294, "inici": 5295, "pueden ": 5296, "step": 5297, "númer": 5298, "éxic": 5299, "identi": 5300, "committe": 5301, "recomendación ": 5302, "additional ": 5303, "Kuwait": 5304, "depend": 5305, "éxi": 5306, "Distric": 5307, "servicio ": 5308, "superi": 5309, "Information ": 5310, "ore, ": 5311, "del ": 5312, "re, the ": 5313, "with respect to ": 5314, "efectiv": 5315, "tot": 5316, "o, el Comité ": 5317, "ou": 5318, "icit ": 5319, "Convención.<eos>": 5320, "clear ": 5321, "ano ": 5322, "ing to the ": 5323, "pag": 5324, "aus": 5325, "er of ": 5326, "2 (": 5327, "self-": 5328, "Iraq ": 5329, "sión, ": 5330, "Ch": 5331, "amiento de ": 5332, "provision of ": 5333, "ado del ": 5334, "countries.<eos>": 5335, "ic, ": 5336, "perten": 5337, "reforz": 5338, "lec": 5339, "international human rights ": 5340, "MINU": 5341, "Develop": 5342, "Ph": 5343, "Monterre": 5344, "<bos>For example, ": 5345, "ven ": 5346, "Gre": 5347, "aquifer ": 5348, "Exper": 5349, "proxim": 5350, "ido de ": 5351, "5": 5352, "; ": 5353, "ic and Social ": 5354, "Sierra Leon": 5355, "sil": 5356, "aten": 5357, "pledg": 5358, "\".<eos>": 5359, "archiv": 5360, "o en el ": 5361, "sion ": 5362, "cuestiones ": 5363, "aller": 5364, "únicamente ": 5365, ",": 5366, "Committee ": 5367, "to ensure ": 5368, "prac": 5369, "Ken": 5370, "re ": 5371, "establ": 5372, "Committee, ": 5373, "mention": 5374, "dij": 5375, "key ": 5376, "Irland": 5377, "violaciones ": 5378, "que se re": 5379, "ámbi": 5380, "preventive ": 5381, "ena ": 5382, "expertos ": 5383, "ía ": 5384, "niveles ": 5385, "occup": 5386, "CEDA": 5387, "e) ": 5388, "años.<eos>": 5389, "ock": 5390, "Convention.<eos>": 5391, "is a ": 5392, "acom": 5393, "report to the ": 5394, "República Democrática del ": 5395, "eg": 5396, "require": 5397, "consist": 5398, "head": 5399, "de su ": 5400, "lí": 5401, "mín": 5402, ".9/": 5403, "Organización de ": 5404, "son ": 5405, "important ": 5406, "Mod": 5407, "ts ": 5408, "ender": 5409, "AC.10": 5410, "paz": 5411, "um ": 5412, "eficaci": 5413, "60": 5414, "programmes ": 5415, "We": 5416, "iendo ": 5417, "es or ": 5418, "bri": 5419, "lucha ": 5420, "declaraciones ": 5421, "Produc": 5422, "conflic": 5423, "net": 5424, "l ": 5425, "iter": 5426, "a's ": 5427, "ex": 5428, "párr": 5429, "tl": 5430, "review": 5431, "year ": 5432, "con arreglo ": 5433, ", que ": 5434, "Oficina de ": 5435, "post": 5436, "Sal": 5437, "militares ": 5438, "Sosteni": 5439, "<bos>Además, ": 5440, "an.<eos>": 5441, "health": 5442, "lucha contra el ": 5443, "Statis": 5444, "ed its ": 5445, "República Democrátic": 5446, "He": 5447, "ements ": 5448, "and<eos>": 5449, "support for ": 5450, "ers, ": 5451, "pp": 5452, "custodi": 5453, "potenci": 5454, "cost": 5455, "nos ": 5456, "towards ": 5457, "radi": 5458, "transporte ": 5459, "ed to ": 5460, "larg": 5461, "medio ambiente ": 5462, "government": 5463, "total de ": 5464, "<bos>15": 5465, "miembros de la ": 5466, "interest": 5467, "guardi": 5468, "ence to ": 5469, "Informe ": 5470, "medios ": 5471, "imposi": 5472, "ésimo ": 5473, "Ministeri": 5474, " (2004": 5475, "A/57": 5476, "<bos>Ag": 5477, "idades, ": 5478, "olu": 5479, "entemente ": 5480, "Preparatory ": 5481, "forward ": 5482, "û": 5483, "he ": 5484, "fabr": 5485, "acros": 5486, "languag": 5487, "s,<eos>": 5488, "conformidad con la ": 5489, "ati": 5490, "China ": 5491, "er ": 5492, "<bos>Secon": 5493, "ban": 5494, "in its resolution ": 5495, "attention ": 5496, "estrateg": 5497, "case of ": 5498, "Internacion": 5499, "pobl": 5500, "propon": 5501, "staff ": 5502, "ically ": 5503, "to achieve ": 5504, "en a los ": 5505, "percent": 5506, "<bos>However, ": 5507, "preven": 5508, "200 ": 5509, "virtud ": 5510, "reuniones ": 5511, "crecimient": 5512, "constituy": 5513, "tiempo ": 5514, "Asia ": 5515, "ent of ": 5516, "económica ": 5517, "incl": 5518, "representantes ": 5519, "pul": 5520, "tre ": 5521, "mun": 5522, "developing countries ": 5523, "7 (": 5524, "period": 5525, "when the ": 5526, "quip": 5527, "empres": 5528, "obi": 5529, "agot": 5530, "arrangement": 5531, "ór": 5532, "asesor": 5533, "administrative ": 5534, "dic": 5535, "a.<eos>": 5536, "neg": 5537, "miembros ": 5538, "<bos>Asi": 5539, "process ": 5540, "ther ": 5541, "Great ": 5542, "o).<eos>": 5543, "o en ": 5544, "co ": 5545, "ó la ": 5546, "var": 5547, "primordi": 5548, "ven": 5549, "ada por ": 5550, "plat": 5551, " de octubre de ": 5552, "management ": 5553, "Covenant": 5554, "domestic ": 5555, "administración ": 5556, "Asamblea General, ": 5557, "hubi": 5558, "consumo de ": 5559, "col": 5560, "mer": 5561, "his ": 5562, "s<eos>": 5563, "adequ": 5564, "oun": 5565, "ecutive ": 5566, "ng ": 5567, "miti": 5568, "WG": 5569, "Estados Partes ": 5570, "tion of ": 5571, "admi": 5572, "matters ": 5573, "forest": 5574, "personas con discapacidad ": 5575, "artículo ": 5576, "poy": 5577, "dat": 5578, "ual ": 5579, "author ": 5580, "coment": 5581, "razon": 5582, "of a ": 5583, "actividad ": 5584, "Discrimination ": 5585, "MI": 5586, "anti": 5587, "rin": 5588, "United Nations High Commissioner for ": 5589, "África ": 5590, "aplicación del ": 5591, "or the ": 5592, "<bos>Asimism": 5593, "displaced person": 5594, "representante ": 5595, "a su ": 5596, "ado en ": 5597, "New ": 5598, "Asamblea ": 5599, "que es ": 5600, "<bos>They ": 5601, "en particular ": 5602, "abil": 5603, "años, ": 5604, "participación de ": 5605, "<bos>O": 5606, "ly, the ": 5607, "respal": 5608, "en particular el ": 5609, "necesidad de ": 5610, "crimin": 5611, "y las ": 5612, "1,": 5613, "help ": 5614, "Arbitr": 5615, "General Assembly resolution ": 5616, "Th": 5617, "mag": 5618, "dice ": 5619, "certific": 5620, "arto ": 5621, "solid": 5622, "ham": 5623, "<bos>Tras ": 5624, "humanitarian ": 5625, "33": 5626, "fundamental freedom": 5627, "Committe": 5628, "ondo ": 5629, "follow-up ": 5630, "water ": 5631, "trata de ": 5632, "s are ": 5633, "communities ": 5634, "reservations ": 5635, "epresid": 5636, "Som": 5637, "or, ": 5638, "uso ": 5639, "young ": 5640, "serie de ": 5641, "EE.": 5642, "way": 5643, "The": 5644, "particular el ": 5645, "ada el ": 5646, "To ": 5647, "proporcionar ": 5648, "paid ": 5649, "principi": 5650, "in order to ": 5651, "3": 5652, "justic": 5653, "areas of ": 5654, "condiciones ": 5655, "Comerci": 5656, "<bos>Agenda item ": 5657, "<bos>Se ha ": 5658, "Cro": 5659, "Jord": 5660, "o M": 5661, "how ": 5662, "popul": 5663, "Yugoslavi": 5664, "rang": 5665, "sexto ": 5666, "document ": 5667, "con el ": 5668, "Cu": 5669, "<bos>Recogniz": 5670, "podría ": 5671, "Paci": 5672, "char": 5673, "consi": 5674, "belief": 5675, "placed ": 5676, "December ": 5677, "os, el ": 5678, "sing ": 5679, "en la ": 5680, "<bos>The State party should ": 5681, "Nº ": 5682, "[A ": 5683, "Clim": 5684, "Nov": 5685, "Summit ": 5686, "depen": 5687, "ar que se ": 5688, "international commun": 5689, "comm": 5690, "idad de la ": 5691, "Bosni": 5692, "Polític": 5693, "pobreza.<eos>": 5694, "vincul": 5695, "find": 5696, "iduci": 5697, "a que el ": 5698, "pobres ": 5699, "3.<eos>": 5700, "perpe": 5701, "2000.<eos>": 5702, "hos": 5703, "elabor": 5704, " de febrero de 200": 5705, "O ": 5706, "ro, ": 5707, "subsidi": 5708, "<bos>Al ": 5709, "osov": 5710, "Fond": 5711, "propó": 5712, "os: ": 5713, "voluntari": 5714, "social.<eos>": 5715, "ON": 5716, "tre": 5717, "detenci": 5718, "<bos>A": 5719, "Españ": 5720, "aument": 5721, "rate ": 5722, "ation by the ": 5723, "she ": 5724, "puebl": 5725, "promover el ": 5726, "provides ": 5727, "rechaz": 5728, "Chin": 5729, "education, ": 5730, "ending ": 5731, "actos ": 5732, "decisión ": 5733, "Cal": 5734, "attend": 5735, "possibil": 5736, "Presidente ": 5737, "vot": 5738, "anex": 5739, "a fin": 5740, "adel": 5741, "judic": 5742, "49": 5743, "<bos>In addi": 5744, "grav": 5745, "erradic": 5746, "ago, ": 5747, "a de ": 5748, "th, ": 5749, "Á": 5750, "ud": 5751, "mujer, ": 5752, "apon": 5753, "administr": 5754, "fundamentales ": 5755, "27 ": 5756, "Charter ": 5757, "ep": 5758, "ugh": 5759, "edom": 5760, "climate chang": 5761, "activities.<eos>": 5762, "eci": 5763, "improv": 5764, "depriv": 5765, "o o ": 5766, "consultation ": 5767, "<bos>Requests the ": 5768, "Add": 5769, "a y las ": 5770, "41": 5771, "e to ": 5772, "low ": 5773, "Guinea-Biss": 5774, "major": 5775, "discre": 5776, "a de las ": 5777, "entitl": 5778, ".5 ": 5779, "e<eos>": 5780, "legi": 5781, "í, ": 5782, "apli": 5783, "relativos ": 5784, "date ": 5785, "Mr. ": 5786, "dirigid": 5787, "ther": 5788, "198": 5789, "General Assembly ": 5790, "plement ": 5791, "2007": 5792, "on this ": 5793, "noted ": 5794, "an en ": 5795, "role of the ": 5796, "y": 5797, "ro.<eos>": 5798, "ton": 5799, "3 y ": 5800, "Burundi, ": 5801, "invit": 5802, "Vi": 5803, "Committee<eos>": 5804, "almente ": 5805, "ff": 5806, "ª ": 5807, "L": 5808, "ést": 5809, "confi": 5810, "necesit": 5811, "garantiz": 5812, "chapter ": 5813, "numb": 5814, "/L.3": 5815, "plic": 5816, "implement": 5817, "Headquarter": 5818, "real ": 5819, "zonas ": 5820, "añ": 5821, "material ": 5822, "fied ": 5823, "<bos>En los ": 5824, "il ": 5825, ") del ": 5826, "raise ": 5827, "parties to ": 5828, "prestación de ": 5829, "RI": 5830, "égic": 5831, "into account the ": 5832, "for": 5833, "jurídic": 5834, " de su ": 5835, "ciudad": 5836, "<bos>Y": 5837, "del Tribunal ": 5838, "our": 5839, "seri": 5840, "fiel": 5841, "/P": 5842, "pending ": 5843, "quisi": 5844, "índol": 5845, "HCH": 5846, "istr": 5847, "had been ": 5848, "55/": 5849, "estrategia ": 5850, "sus": 5851, "oca": 5852, "quality of ": 5853, "atori": 5854, "Grupo de los ": 5855, "º ": 5856, "legal ": 5857, "a, el ": 5858, "hy": 5859, "reco": 5860, "ni": 5861, "influ": 5862, "que no ": 5863, "os de ": 5864, "relationship ": 5865, "atic ": 5866, "indi": 5867, "quality ": 5868, "¡": 5869, "untos de ": 5870, "ogr": 5871, "prolifer": 5872, "alleg": 5873, "be": 5874, "<bos>Expres": 5875, "recommends that the State party ": 5876, "febrer": 5877, "ombi": 5878, "estado de ": 5879, "f ": 5880, "delincu": 5881, "vigor ": 5882, "tali": 5883, "Disarm": 5884, "Filipin": 5885, "<bos>Reaffirm": 5886, "is": 5887, "puso ": 5888, "amente.<eos>": 5889, "sin": 5890, "t, ": 5891, "ratific": 5892, "ante ": 5893, "Código ": 5894, "Qat": 5895, "víc": 5896, "se.<eos>": 5897, "expedi": 5898, "importante ": 5899, "comments ": 5900, "to be ": 5901, "D": 5902, "ida cuent": 5903, "seven ": 5904, "ces": 5905, "por su ": 5906, "es' ": 5907, "8 (": 5908, "compliance with ": 5909, "40 ": 5910, "map": 5911, "p ": 5912, "about ": 5913, "wides": 5914, "eva ": 5915, "children's ": 5916, "o de su ": 5917, "guidelin": 5918, "asign": 5919, "hazard": 5920, "system of ": 5921, "Nep": 5922, "probl": 5923, "ític": 5924, "frente ": 5925, "gastos ": 5926, "detenidos ": 5927, "toda la ": 5928, "ine": 5929, "9 ": 5930, "través ": 5931, "ada a ": 5932, "137": 5933, "a de que ": 5934, "f": 5935, "ato ": 5936, "como ": 5937, "poverty ": 5938, "<bos>We ": 5939, "ethnic": 5940, "time ": 5941, "adopción de ": 5942, "2007<eos>": 5943, "e-": 5944, "person ": 5945, "<bos>También se ": 5946, "economía ": 5947, "Midd": 5948, "formas de ": 5949, "ing to ": 5950, "60/2": 5951, "these ": 5952, "an en la ": 5953, "future ": 5954, "ores": 5955, "transferencia de ": 5956, "Pro": 5957, "inter": 5958, "Misión ": 5959, "emos ": 5960, "federal ": 5961, "institutions ": 5962, "pas": 5963, "cl": 5964, "recopil": 5965, "sig": 5966, "Pen": 5967, " de las ": 5968, "Federal ": 5969, "remo": 5970, "; and (": 5971, "interpre": 5972, "No ": 5973, "ts.<eos>": 5974, "EE.UU": 5975, "organizaciones no gubernament": 5976, "g) ": 5977, "intercambio de ": 5978, "amiento, ": 5979, "limit": 5980, "<bos>Rec": 5981, "eur": 5982, "text": 5983, "Republic ": 5984, "impedi": 5985, "o, que ": 5986, "Nicar": 5987, "Trin": 5988, "educación ": 5989, "gre": 5990, "Panel ": 5991, "era ": 5992, "Om": 5993, "cualqui": 5994, "apoyo ": 5995, "visit": 5996, "s).<eos>": 5997, "Civil ": 5998, "Europ": 5999, "ado la ": 6000, "y;<eos>": 6001, "imient": 6002, "'": 6003, "ados, ": 6004, "ación y la ": 6005, "democraci": 6006, "íci": 6007, "erta ": 6008, "Nu": 6009, "tric": 6010, "labor de la ": 6011, "effective ": 6012, "interés ": 6013, "legislative ": 6014, "segur": 6015, "plazo de ": 6016, "sub-": 6017, "to a ": 6018, "Hait": 6019, "ov": 6020, "<bos>The State party ": 6021, "framework": 6022, "cop": 6023, "dedic": 6024, "initiative ": 6025, "Ri": 6026, "express": 6027, "bun": 6028, "colectiv": 6029, "Train": 6030, "tion or ": 6031, "ence.<eos>": 6032, "7<eos>": 6033, "Ugand": 6034, "outside ": 6035, "<bos>Estas ": 6036, "compar": 6037, "erse ": 6038, "human right": 6039, "incluso ": 6040, "ts the ": 6041, "personas que ": 6042, "tec": 6043, "may": 6044, "Sr. ": 6045, "Justici": 6046, "ONU": 6047, "take ": 6048, "voluntary ": 6049, "essenti": 6050, "section ": 6051, "task": 6052, "bud": 6053, "Declaration of ": 6054, "¿": 6055, "ación que ": 6056, "sus ": 6057, "Sec": 6058, "that ": 6059, "Comisión de ": 6060, "claim": 6061, "troop": 6062, "asyl": 6063, "u": 6064, "s, including ": 6065, "repercu": 6066, "2003, ": 6067, "March ": 6068, "best ": 6069, "September ": 6070, "irá ": 6071, "ta.<eos>": 6072, "depl": 6073, "environ": 6074, "tenti": 6075, "continuación ": 6076, "urges the ": 6077, "strengthening the ": 6078, "Chapter ": 6079, "ación, la ": 6080, "lifer": 6081, "proceso de ": 6082, "ejecutiv": 6083, "la ": 6084, "Sur": 6085, "a los países ": 6086, "short": 6087, "III": 6088, "would have ": 6089, "creating ": 6090, "dea": 6091, "established ": 6092, "objetivo de ": 6093, "people ": 6094, "<bos>Tod": 6095, "e": 6096, "2004": 6097, "assistance to ": 6098, "a la Asamblea General ": 6099, "bod": 6100, "as.<eos>": 6101, "restric": 6102, "atender ": 6103, "raq": 6104, "bajo ": 6105, "mos": 6106, "A/CN": 6107, "pi": 6108, "compl": 6109, "Nairobi": 6110, "cifr": 6111, "ulture ": 6112, "de un ": 6113, "32": 6114, "a del ": 6115, "ans": 6116, "<bos>e) ": 6117, "time.<eos>": 6118, "direct ": 6119, "Nacion": 6120, "Mo": 6121, "<bos>Con": 6122, "at": 6123, "stakeholder": 6124, "nacional ": 6125, "arreglo ": 6126, "2008.<eos>": 6127, "beyond ": 6128, "rían ": 6129, "traditional ": 6130, "5, ": 6131, "diálo": 6132, "1999.<eos>": 6133, "initial ": 6134, "desarroll": 6135, "side ": 6136, "atel": 6137, "instituciones ": 6138, "aiti": 6139, "Ne": 6140, "ten ": 6141, "có": 6142, "risk": 6143, "cart": 6144, "amente la ": 6145, "a que se ": 6146, "management of ": 6147, "pens": 6148, "para los ": 6149, "ác": 6150, "grow": 6151, "factor ": 6152, "accompani": 6153, "<bos>Or": 6154, "ablemente ": 6155, "sosp": 6156, "institutions, ": 6157, "ciones.<eos>": 6158, "muchos ": 6159, "place ": 6160, "Rum": 6161, "as, el ": 6162, "acter": 6163, "il, ": 6164, "draft ": 6165, "parec": 6166, "CD": 6167, "ingl": 6168, "african": 6169, "a para la ": 6170, "explot": 6171, "Relaciones ": 6172, "Initi": 6173, "Evalu": 6174, "States.<eos>": 6175, "Estados Mi": 6176, "des": 6177, "5,": 6178, "5 ": 6179, "100": 6180, "ecer": 6181, "acti": 6182, "func": 6183, "que el ": 6184, "first ": 6185, "forum ": 6186, "trabaj": 6187, "a, en ": 6188, "plann": 6189, "us.<eos>": 6190, "o la ": 6191, "mu": 6192, "al;<eos>": 6193, "Sup": 6194, "over": 6195, "ited ": 6196, "Ger": 6197, "durante el ": 6198, "oler": 6199, "dentro del ": 6200, "ugos": 6201, "ly ": 6202, "a a ": 6203, "respond ": 6204, "/Add.1": 6205, "especiales ": 6206, "divers": 6207, "de la Carta de ": 6208, "o.<eos>": 6209, "O": 6210, "ó los ": 6211, "forc": 6212, "terc": 6213, "centr": 6214, "ates ": 6215, "patri": 6216, ".5/": 6217, "ver ": 6218, "including the ": 6219, "sustantiv": 6220, "son": 6221, "ning ": 6222, "tin": 6223, "organizations, ": 6224, "knowledg": 6225, "empresas ": 6226, "approved by the ": 6227, "of the ": 6228, "esper": 6229, "new ": 6230, "a de la ": 6231, "Mon": 6232, "5 (": 6233, "falta de ": 6234, "del Pact": 6235, "ww": 6236, "wid": 6237, "ación del ": 6238, "associ": 6239, "law and ": 6240, "ations.<eos>": 6241, "power": 6242, "Cooperation ": 6243, "av": 6244, "Russian ": 6245, "vital ": 6246, "hist": 6247, "Soci": 6248, "fon": 6249, ".3": 6250, "United Nation": 6251, "agr": 6252, "en materia de ": 6253, "to y ": 6254, "ances, ": 6255, "organizations.<eos>": 6256, "countries, ": 6257, "regionales de ": 6258, "conflict, ": 6259, "óric": 6260, "able ": 6261, "a a la ": 6262, "tráfico ": 6263, "esencial ": 6264, "debt ": 6265, "end of ": 6266, "ked ": 6267, "muc": 6268, "has ": 6269, "ser ": 6270, "armas de ": 6271, "human rights ": 6272, "y of ": 6273, "re<eos>": 6274, "arles ": 6275, "b) ": 6276, "os": 6277, "go de ": 6278, "al del ": 6279, "United Nations ": 6280, "rest": 6281, "actualmente ": 6282, "negativ": 6283, "ada de ": 6284, "lev": 6285, "celebrada el ": 6286, "support to ": 6287, "Profes": 6288, "institutional ": 6289, "atu": 6290, "ated in ": 6291, "emente, ": 6292, "tuvi": 6293, "rain": 6294, "domin": 6295, ".1 ": 6296, "post-": 6297, "uel": 6298, "medidas adoptadas ": 6299, "lab": 6300, "communications ": 6301, "read": 6302, "Nami": 6303, "view to ": 6304, "este ": 6305, "<bos>Introduction<eos>": 6306, "nutri": 6307, "18 ": 6308, "prácticas ": 6309, "2003 ": 6310, "understand": 6311, "Children": 6312, "intended to ": 6313, "Ses": 6314, "o las ": 6315, "recommendations of the ": 6316, "seguridad ": 6317, "<bos>Com": 6318, "Abu": 6319, "complet": 6320, "responsible ": 6321, "account": 6322, "dispuesto ": 6323, "sistema ": 6324, "Derechos del Niñ": 6325, "ment of ": 6326, "Internacional ": 6327, "unilater": 6328, "term": 6329, "GE": 6330, "ing": 6331, "one ": 6332, "ONG": 6333, "mainten": 6334, "armas de destruc": 6335, "support the ": 6336, "Advisory Committee ": 6337, "desarme ": 6338, "accompl": 6339, "go": 6340, "ii) ": 6341, "los ": 6342, "Ge": 6343, "iii) ": 6344, "tific": 6345, "acquisi": 6346, "did ": 6347, "párrafos ": 6348, "<bos>The representative of ": 6349, "Países Baj": 6350, "ario de ": 6351, "among ": 6352, "spok": 6353, "E/CN": 6354, "metr": 6355, "entre la ": 6356, "between the ": 6357, "faci": 6358, "<bos>Furthermore, ": 6359, "tecnología ": 6360, "Wel": 6361, "estas ": 6362, "Secretar": 6363, "quien ": 6364, "2007.<eos>": 6365, "teniendo ": 6366, "ting in ": 6367, "crédit": 6368, "/0": 6369, "sobre los ": 6370, "Col": 6371, "ación de un ": 6372, "incluidas las ": 6373, "<bos>Seg": 6374, "ales que ": 6375, "lograr la ": 6376, "información, ": 6377, "discrimin": 6378, "cometi": 6379, "ent ": 6380, "s.<eos>": 6381, "fronter": 6382, "work": 6383, "cent ": 6384, "respuesta ": 6385, "mujer ": 6386, ".7 ": 6387, "—": 6388, "Sustain": 6389, "46": 6390, "disarmament": 6391, "Herzegovin": 6392, "in a ": 6393, "ado": 6394, "anian ": 6395, "introduc": 6396, "fuerza ": 6397, "lucha contra la ": 6398, "Secretary-General, ": 6399, "Belarú": 6400, "consiguiente, ": 6401, "relaciones ": 6402, "le": 6403, "upon the ": 6404, "dud": 6405, "Derechos Humanos ": 6406, "operaciones de ": 6407, "Public": 6408, "ain ": 6409, "jan ": 6410, "Islam": 6411, "la Comisión ": 6412, "dé": 6413, "each ": 6414, "idd": 6415, "imparti": 6416, "cip": 6417, "-up ": 6418, "air ": 6419, ".10": 6420, "a que los ": 6421, "half of ": 6422, "políticas y ": 6423, "provi": 6424, "s in the ": 6425, "vín": 6426, "66": 6427, "gros": 6428, "ule ": 6429, "Estados Miembr": 6430, "acuerdo ": 6431, "ver": 6432, "EA ": 6433, "poli": 6434, "border ": 6435, "Sri": 6436, "seg": 6437, "increase ": 6438, "Court": 6439, "countries and ": 6440, "view ": 6441, "importantes ": 6442, "<bos>Artículo ": 6443, "e that ": 6444, "against ": 6445, "Yugosla": 6446, "gubernament": 6447, "IÓ": 6448, "fuerzas ": 6449, "luc": 6450, "ready ": 6451, "judicial ": 6452, "free ": 6453, "1) ": 6454, "solicitud": 6455, "recon": 6456, "hemos ": 6457, "minist": 6458, "Convención de las Naciones Unidas ": 6459, "ó que el ": 6460, "29 ": 6461, "ine ": 6462, "crisi": 6463, "op": 6464, "ha": 6465, "2000/": 6466, "UNITA": 6467, "s that ": 6468, "decided to ": 6469, "arm": 6470, "relativo a la ": 6471, "Eritre": 6472, "purpo": 6473, "eter ": 6474, "andi": 6475, "submission": 6476, "Tr": 6477, "Thail": 6478, "fre": 6479, "gro": 6480, "documento de ": 6481, "; (": 6482, "abar": 6483, "approximately ": 6484, "deliberaciones ": 6485, "previsto ": 6486, "traf": 6487, "<bos>Per": 6488, "a recomend": 6489, "als and ": 6490, "DC": 6491, "otorg": 6492, "juni": 6493, "bieni": 6494, "done ": 6495, "escri": 6496, "tratamiento ": 6497, "<bos>Así ": 6498, "irst ": 6499, "Convenci": 6500, "ugosla": 6501, "ación de la ": 6502, "Alto Comision": 6503, "#": 6504, "affec": 6505, "ous": 6506, "over ": 6507, "dec": 6508, "diseas": 6509, "Bi": 6510, "Perú": 6511, "individual ": 6512, "salv": 6513, "a las necesidades ": 6514, "patrocin": 6515, "… ": 6516, "political ": 6517, "element": 6518, "2009 ": 6519, "mujeres, ": 6520, "paz ": 6521, "el Comité ": 6522, "Indones": 6523, "que ": 6524, "mand": 6525, "amiento de las ": 6526, "cabo ": 6527, "fuer": 6528, "per cent of ": 6529, "ción de los ": 6530, "ámen": 6531, "actu": 6532, "need for ": 6533, "AS": 6534, "media ": 6535, "risk ": 6536, "dich": 6537, "ódic": 6538, "amiento de la ": 6539, "e, la ": 6540, "ation": 6541, "53": 6542, "del": 6543, "assist ": 6544, "situ": 6545, "Programa ": 6546, "nor": 6547, "appear": 6548, "operations ": 6549, "sufr": 6550, "acuerd": 6551, "cre": 6552, "vi": 6553, "os.<eos>": 6554, "fondos ": 6555, "preced": 6556, "bon": 6557, "ion": 6558, "plaz": 6559, "un ": 6560, "inam": 6561, "Office of the United Nations High Commissioner for ": 6562, "falt": 6563, "calcul": 6564, "ello, ": 6565, "exercise ": 6566, "longer ": 6567, "productiv": 6568, "povert": 6569, "<bos>La ": 6570, "primary ": 6571, "<bos>Consider": 6572, "an los ": 6573, "concret": 6574, "reducir ": 6575, "int": 6576, "bal": 6577, "has a ": 6578, "uno de los ": 6579, "collabor": 6580, "purpose of ": 6581, "quinto ": 6582, "ús": 6583, "Declaración del Mileni": 6584, "manera ": 6585, "cus": 6586, "en.<eos>": 6587, "baj": 6588, "uary ": 6589, "1 of ": 6590, "undary ": 6591, "from 1 ": 6592, "a al ": 6593, "destruc": 6594, "actos de ": 6595, "years of ": 6596, "ue ": 6597, "suffer": 6598, "reconoci": 6599, "ality ": 6600, "developed ": 6601, "underst": 6602, "informe ": 6603, "a fin de ": 6604, "Feder": 6605, "ej": 6606, "Alb": 6607, "democratic ": 6608, "table ": 6609, "found ": 6610, "pués ": 6611, "ta": 6612, "práctica ": 6613, "ley.<eos>": 6614, "alloc": 6615, "incu": 6616, "ary.<eos>": 6617, "s for ": 6618, "An": 6619, "viaj": 6620, "penit": 6621, "paci": 6622, "és): ": 6623, "identific": 6624, "anist": 6625, "bos": 6626, "manifest": 6627, "building ": 6628, "recogniz": 6629, "/CP": 6630, "reunión de ": 6631, "cent": 6632, "arios, ": 6633, "<bos>As": 6634, "als ": 6635, "Fuerz": 6636, "individ": 6637, "Comisi": 6638, "Iraqi ": 6639, "context": 6640, "competitiv": 6641, "Presid": 6642, "formal ": 6643, "ostr": 6644, "<bos>Por consiguiente, ": 6645, "Government ": 6646, "Arabia ": 6647, "dificult": 6648, "esión ": 6649, "entrevist": 6650, "www.": 6651, "report, ": 6652, "view": 6653, "Programme ": 6654, "could ": 6655, "<bos>* ": 6656, "Estado ": 6657, "const": 6658, "t to ": 6659, "alogu": 6660, "clear": 6661, "did not ": 6662, "active ": 6663, "es and the ": 6664, "Vic": 6665, "edad ": 6666, "deberán ": 6667, "sel": 6668, "utiliz": 6669, "Commission on the ": 6670, "list": 6671, "cada ": 6672, "Guine": 6673, "program": 6674, "Doha ": 6675, " de agosto de ": 6676, "ario ": 6677, "per cent ": 6678, "manif": 6679, "Conference Ro": 6680, "ensay": 6681, "ebuilding ": 6682, "a y de la ": 6683, "presión ": 6684, "fif": 6685, "analysi": 6686, "vis": 6687, "de los Estados ": 6688, "dialogu": 6689, "et ": 6690, "ance.<eos>": 6691, "<bos>Requ": 6692, "exampl": 6693, "Aug": 6694, "hacer ": 6695, "<bos>3": 6696, "<bos>Mr. ": 6697, "achiev": 6698, "lares ": 6699, "art.<eos>": 6700, "ru": 6701, "independi": 6702, "<bos>El Comité ": 6703, "policy ": 6704, "ares ": 6705, "testig": 6706, "especial ": 6707, "increasing ": 6708, "Hungr": 6709, ") and ": 6710, "facilit": 6711, "ties ": 6712, "Status of ": 6713, "flo": 6714, "periodic ": 6715, "mantenimiento de la ": 6716, "tain": 6717, "terrorism": 6718, "examin": 6719, "af": 6720, "del Comité ": 6721, "a), ": 6722, "opport": 6723, "ow": 6724, "Serbi": 6725, "trad": 6726, ".4 ": 6727, "Conferencia de ": 6728, "recommendations ": 6729, "RA": 6730, "Strateg": 6731, "ting a ": 6732, "tranjer": 6733, "<bos>Un ": 6734, "region ": 6735, "T ": 6736, "acy, ": 6737, "compared ": 6738, "mad": 6739, "partnership": 6740, "information and ": 6741, "impl": 6742, "ado en el ": 6743, "even ": 6744, "90 ": 6745, "período de sesiones<eos>": 6746, "tercer": 6747, "equip": 6748, "debates ": 6749, "primera ": 6750, "a en ": 6751, "ables de ": 6752, "ts of the ": 6753, "en nombre ": 6754, "cuadro de servicios ": 6755, "Council ": 6756, "duplic": 6757, "bo": 6758, "Australia, ": 6759, "pared ": 6760, "arios ": 6761, "ante, ": 6762, "Organiz": 6763, "dichas ": 6764, "teng": 6765, "cier": 6766, "daños ": 6767, "Man": 6768, "incre": 6769, "prison ": 6770, "pri": 6771, "fu": 6772, "scal": 6773, "speci": 6774, "concern ": 6775, "negotiations ": 6776, "cuales ": 6777, "garantizar el ": 6778, "gentin": 6779, "contained in ": 6780, "has been ": 6781, "day": 6782, "<bos>Is": 6783, "habla en ": 6784, "State party ": 6785, "Gol": 6786, "st, ": 6787, "<bos>V": 6788, "arter": 6789, "ellos ": 6790, "Republic": 6791, "AT": 6792, "stream": 6793, "de la Asamblea General, ": 6794, "infantil ": 6795, "satis": 6796, "a como ": 6797, "9, ": 6798, "addres": 6799, "promo": 6800, "Popular ": 6801, "s in ": 6802, "Zambi": 6803, "vaqui": 6804, "es una ": 6805, "ech": 6806, "on.<eos>": 6807, "aqui": 6808, "ity ": 6809, "º período de sesiones, ": 6810, "adelant": 6811, "objectiv": 6812, "open": 6813, "Servicio M": 6814, "llegar a ": 6815, "Litu": 6816, "end of the ": 6817, "internally ": 6818, "register": 6819, "Iraq.<eos>": 6820, "”.<eos>": 6821, "si se ": 6822, "siguiente ": 6823, "ju": 6824, "ados.<eos>": 6825, "bar": 6826, "X": 6827, "Secretariat ": 6828, "trade ": 6829, "septi": 6830, "nivel ": 6831, "orden ": 6832, "nombr": 6833, "cifras ": 6834, "indigenous ": 6835, "as y los ": 6836, "arg": 6837, "desea ": 6838, "intergovernmental ": 6839, "ataqu": 6840, "Russian Feder": 6841, "úblic": 6842, "des ": 6843, "ra.<eos>": 6844, "ities ": 6845, "ados en la ": 6846, "compens": 6847, "like ": 6848, "obstáculos ": 6849, "equitable ": 6850, "lades": 6851, "consolid": 6852, "law ": 6853, "CO": 6854, "har": 6855, "water": 6856, "ency ": 6857, "[A C ": 6858, "destac": 6859, "23, ": 6860, "paragraph ": 6861, "ente de la ": 6862, "s, in ": 6863, "acion": 6864, "encia ": 6865, "<bos>El artículo ": 6866, "information on ": 6867, "amer": 6868, "misiones ": 6869, "Unit ": 6870, "family ": 6871, "recor": 6872, "<bos>Un": 6873, "artic": 6874, "rather ": 6875, "harmoniz": 6876, "éx": 6877, "<bos>(d) ": 6878, "regionales ": 6879, "t the ": 6880, "discriminación ": 6881, "asegur": 6882, "emi": 6883, "Mat": 6884, "facili": 6885, "satisfac": 6886, "ation to the ": 6887, "multi": 6888, "embar": 6889, "also be ": 6890, "cuestión de ": 6891, "dialogue ": 6892, "cases, ": 6893, "fl": 6894, "acredit": 6895, "que son ": 6896, "ment and ": 6897, "2-": 6898, "teniendo en cuent": 6899, "itor": 6900, "ábit": 6901, "riesg": 6902, "o": 6903, "Fifth Committee ": 6904, "Econ": 6905, "senti": 6906, "Department of ": 6907, "right": 6908, "derecho al ": 6909, "er for ": 6910, "ely ": 6911, "hope that ": 6912, "Associ": 6913, "process.<eos>": 6914, "Internacional de ": 6915, "nical ": 6916, "La": 6917, "Política ": 6918, "prev": 6919, "merg": 6920, "con sus ": 6921, "UNDP ": 6922, "proc": 6923, "portun": 6924, "includes ": 6925, "3 ": 6926, "as, ": 6927, "60 ": 6928, "ôte ": 6929, "tas ": 6930, "tow": 6931, "mos ": 6932, "was not ": 6933, "record": 6934, "in that ": 6935, "bienes ": 6936, "elecciones ": 6937, "2006.<eos>": 6938, "almente, ": 6939, "anim": 6940, "tempor": 6941, ">": 6942, "presupuesto por ": 6943, "criterios ": 6944, "ente y ": 6945, "mortal": 6946, "del Comité": 6947, "ruec": 6948, "ción ": 6949, "taken to ": 6950, "convin": 6951, "progress made ": 6952, "agu": 6953, "July ": 6954, "capacidad": 6955, "health ": 6956, "alcanz": 6957, "requirement": 6958, "ado en la ": 6959, "conclusion": 6960, "as well as the ": 6961, "lo": 6962, "small": 6963, "regarding the ": 6964, "Comité": 6965, "fi": 6966, "o, ": 6967, "inversiones ": 6968, "e the ": 6969, "os que ": 6970, "conditions ": 6971, "apel": 6972, "creciente ": 6973, "idad de ": 6974, "cultur": 6975, "rael": 6976, "has also ": 6977, "other": 6978, "UNCTAD": 6979, "en la Convención ": 6980, "eleg": 6981, "Timor ": 6982, "Tech": 6983, "Court.<eos>": 6984, "destin": 6985, "various ": 6986, "amend": 6987, "afric": 6988, "tech": 6989, "ros, ": 6990, "armas nucleares ": 6991, "Sea ": 6992, "Mozambi": 6993, "same ": 6994, "anific": 6995, "might ": 6996, "comprendi": 6997, "Y": 6998, "dólares ": 6999, "Office of the ": 7000, "interven": 7001, "tion of the ": 7002, "endi": 7003, "ando de ": 7004, "es que ": 7005, "del Consejo de ": 7006, "est": 7007, "to provide ": 7008, "court ": 7009, "] [": 7010, "ejempl": 7011, "extr": 7012, "Middle ": 7013, "R": 7014, "de que ": 7015, "sequ": 7016, "set": 7017, "representative of ": 7018, "receiv": 7019, "ances ": 7020, "gender equ": 7021, "lif": 7022, "s and the ": 7023, "inter ali": 7024, "respectiv": 7025, "righ": 7026, "g": 7027, "foment": 7028, "welcom": 7029, "up": 7030, "ough ": 7031, "West ": 7032, "Nic": 7033, "ás, ": 7034, "<bos>Una ": 7035, "es and ": 7036, "stud": 7037, "hut": 7038, "Secretario Gener": 7039, "long ": 7040, "an": 7041, "Agre": 7042, "<bos>Welcom": 7043, "ar a las ": 7044, "ares, ": 7045, "nuclear weapon": 7046, "2004.<eos>": 7047, "solu": 7048, "enz": 7049, "para las ": 7050, "De": 7051, "Ma": 7052, "that is ": 7053, "con arreglo al ": 7054, "Gen": 7055, "o en la ": 7056, "provisions of the ": 7057, "ráp": 7058, "versi": 7059, "experi": 7060, "ingresos ": 7061, "Ven": 7062, "consigu": 7063, "3), ": 7064, "millones de ": 7065, ") and the ": 7066, "espaci": 7067, "métod": 7068, "Phili": 7069, "§": 7070, "<bos>Recordando ": 7071, "recomendaciones ": 7072, "niños, ": 7073, "ado por ": 7074, "octubre de ": 7075, "plan of ": 7076, "now": 7077, "38": 7078, "how to ": 7079, "non-": 7080, "emale ": 7081, "into the ": 7082, "instruc": 7083, "dirigentes ": 7084, "Côte d'Ivoi": 7085, "resources, ": 7086, "<bos>This ": 7087, "Trade ": 7088, "iss": 7089, "<bos>También ": 7090, "play": 7091, "diplom": 7092, "cambio clim": 7093, "amen": 7094, "affirm": 7095, "ercial ": 7096, "ejercici": 7097, "ren": 7098, "Peopl": 7099, "objetiv": 7100, "accused ": 7101, "ar, ": 7102, "provisional agend": 7103, "Dji": 7104, "Jerus": 7105, "cen": 7106, "gratu": 7107, "article ": 7108, "sufficient ": 7109, "such a ": 7110, "mp": 7111, "Secretary-General ": 7112, "welfare ": 7113, "d the ": 7114, "enhance ": 7115, "deal with ": 7116, "ween ": 7117, "diálogo ": 7118, "2008, ": 7119, "ament ": 7120, "wide ": 7121, "hag": 7122, "documents ": 7123, "delegation ": 7124, "who were ": 7125, "del párrafo ": 7126, "armas nucle": 7127, "ación de las ": 7128, "“": 7129, "run": 7130, "siguientes:<eos>": 7131, "endo ": 7132, "así como la ": 7133, "titulado “": 7134, "trust ": 7135, "owner": 7136, "denunci": 7137, "ed out ": 7138, "contro": 7139, "14": 7140, "self ": 7141, "derecho internacional ": 7142, "parts of the ": 7143, "ó su ": 7144, "Secretario General que ": 7145, "embros ": 7146, "as;<eos>": 7147, "governmental ": 7148, "ido ": 7149, "de la resolución ": 7150, "oment": 7151, "needs of ": 7152, "system.<eos>": 7153, "studi": 7154, "OC": 7155, "WG.": 7156, "egur": 7157, "/C": 7158, "internacional ": 7159, "con ": 7160, "respe": 7161, "Consejo Económic": 7162, "concrete ": 7163, "enfrent": 7164, "e en ": 7165, "aison ": 7166, "a se ": 7167, "ó en la ": 7168, "ob": 7169, "however, ": 7170, "econom": 7171, "itself ": 7172, "large ": 7173, "aron el ": 7174, "Bosnia and Herzegovin": 7175, "o: ": 7176, "a través ": 7177, "Plata": 7178, "coast": 7179, "10 ": 7180, "contribute ": 7181, "ed for ": 7182, "red": 7183, "internal ": 7184, "rec": 7185, "Development ": 7186, "transactions ": 7187, "secund": 7188, "Caribe ": 7189, "territorios ": 7190, "vig": 7191, "<bos>Resolu": 7192, "declaración ": 7193, "Elimination of ": 7194, "compliance ": 7195, "posi": 7196, "spir": 7197, "EC": 7198, "a y Herzegovin": 7199, "ariat ": 7200, "in particular ": 7201, "am ": 7202, "una mayor ": 7203, "2 ": 7204, "suf": 7205, "encias ": 7206, "Bang": 7207, "e's ": 7208, "tem ": 7209, "ado y ": 7210, "principales ": 7211, "estratégic": 7212, "agric": 7213, "sug": 7214, "reserv": 7215, "included ": 7216, "y, the ": 7217, "ble.<eos>": 7218, "ados por el ": 7219, "Council.<eos>": 7220, "Eth": 7221, "sexagésimo ": 7222, "ever": 7223, "os, los ": 7224, "reques": 7225, "aumento de la ": 7226, "IP": 7227, "Go": 7228, "artículos ": 7229, "evit": 7230, "<bos>Rule ": 7231, "more effective ": 7232, "transport": 7233, "e el ": 7234, "Board": 7235, "!": 7236, "Sede ": 7237, "Cooper": 7238, "es,<eos>": 7239, "efect": 7240, "cases of ": 7241, "owever, the ": 7242, "sociales ": 7243, "á de ": 7244, "ance, ": 7245, "ek ": 7246, "framework ": 7247, "Secretary-Gener": 7248, "situation in ": 7249, "encuentr": 7250, "salvagu": 7251, "/L.2": 7252, "examinar la ": 7253, "desarrollo del ": 7254, "may be ": 7255, "for the period ": 7256, "casi ": 7257, "invited ": 7258, "os, en ": 7259, "speak": 7260, "desast": 7261, "uso de ": 7262, "Estonia, ": 7263, "oti": 7264, "Canad": 7265, "social ": 7266, "cómo ": 7267, "troduc": 7268, "ince ": 7269, "económic": 7270, "pu": 7271, "igu": 7272, "vulner": 7273, "promoting ": 7274, "Communic": 7275, "haci": 7276, "ed as ": 7277, "Gaz": 7278, "appreciation ": 7279, "2003": 7280, "tras ": 7281, "justice ": 7282, "álisis ": 7283, "Asamblea Gener": 7284, "promote ": 7285, "review ": 7286, "n Americ": 7287, "América ": 7288, "pursu": 7289, "my ": 7290, "institu": 7291, "some ": 7292, "beli": 7293, "man ": 7294, "transfer": 7295, "a y la ": 7296, "vec": 7297, "employe": 7298, "fic": 7299, "ed with ": 7300, "T": 7301, "ancia ": 7302, "vid": 7303, "fic ": 7304, "194": 7305, "ted to the ": 7306, "clearly ": 7307, "como la ": 7308, "ome ": 7309, "dict": 7310, "ong": 7311, "año ": 7312, "entre ": 7313, "Õ": 7314, "claim ": 7315, "gran ": 7316, "order to ": 7317, "orld ": 7318, "2.<eos>": 7319, "gi": 7320, "far ": 7321, "mech": 7322, "stain": 7323, "civiles ": 7324, "clud": 7325, "aproxim": 7326, "empha": 7327, "intensi": 7328, "<bos>W": 7329, "t of the ": 7330, "qu": 7331, "lis": 7332, "Jerusal": 7333, "VIH/SID": 7334, "mejorar la ": 7335, "por ejemplo, ": 7336, "tiv": 7337, "emprendi": 7338, "Nueva York": 7339, "OI": 7340, "memor": 7341, "e de ": 7342, "matter ": 7343, "Monterrey ": 7344, "Geneva ": 7345, "as de ": 7346, "representantes de ": 7347, "Singap": 7348, "moviliz": 7349, "<bos>Véase ": 7350, "pap": 7351, "legislation ": 7352, "issues.<eos>": 7353, "34": 7354, "mak": 7355, "an ": 7356, "include ": 7357, "wish ": 7358, "desplaz": 7359, "nomb": 7360, "as se ": 7361, "con ben": 7362, "mo ": 7363, "it is ": 7364, "targ": 7365, "nec": 7366, "se ha ": 7367, "tory ": 7368, "justicia ": 7369, "% de los ": 7370, "conflict.<eos>": 7371, ", including ": 7372, "ogether ": 7373, "Advisory ": 7374, "presupuesto por programas ": 7375, "et": 7376, "patro": 7377, "E/": 7378, "jurisdicción ": 7379, "Assembl": 7380, "actividades ": 7381, "y out ": 7382, "o de las ": 7383, "posición ": 7384, "también la ": 7385, "Itali": 7386, "; el ": 7387, " de abril de ": 7388, "delit": 7389, "oles": 7390, "fav": 7391, "on of ": 7392, "women and ": 7393, "ación.<eos>": 7394, "enc": 7395, "cuot": 7396, "1 of the ": 7397, "nuestra ": 7398, "unities ": 7399, "another ": 7400, "as y ": 7401, "ado de la ": 7402, "clu": 7403, "Programa de Ac": 7404, "será ": 7405, "Public ": 7406, "ild ": 7407, "Azerb": 7408, "3<eos>": 7409, "sea ": 7410, "national and international ": 7411, "funds ": 7412, "ö": 7413, "<bos>Los ": 7414, "y la ": 7415, "tañ": 7416, "tiz": 7417, "Rec": 7418, "Sr.<eos>": 7419, "explor": 7420, "pal": 7421, "today ": 7422, "that": 7423, "54": 7424, "contra la ": 7425, "ales;<eos>": 7426, "19": 7427, "ptim": 7428, "impact of ": 7429, "ded": 7430, "DE ": 7431, "tocol": 7432, "no prolifer": 7433, "s:<eos>": 7434, "maj": 7435, "peace and ": 7436, "strali": 7437, "caracter": 7438, "víctimas ": 7439, "<bos>Recon": 7440, "said ": 7441, "resultados ": 7442, "Rom": 7443, "market ": 7444, "8, ": 7445, "Domin": 7446, "crecimiento ": 7447, "manu": 7448, "debat": 7449, "a otros ": 7450, "ation, ": 7451, "en relación con el ": 7452, "estudi": 7453, "a;<eos>": 7454, "scienti": 7455, "sion": 7456, "fuera ": 7457, "ble ": 7458, "s on ": 7459, "para el desarrollo ": 7460, "val": 7461, "ambl": 7462, "t.<eos>": 7463, "pit": 7464, "LA": 7465, "día ": 7466, "internacion": 7467, "emisiones ": 7468, "ucle": 7469, "establecer ": 7470, "o por ": 7471, "ción de ": 7472, "<bos>Fin": 7473, "Tribunal ": 7474, "ing its ": 7475, "(F": 7476, "project ": 7477, "ement ": 7478, "raft ": 7479, "mejor": 7480, "mecanismos de ": 7481, "transmit": 7482, "occur": 7483, "ation.<eos>": 7484, "ence ": 7485, "orient": 7486, "Australi": 7487, "cas": 7488, "Ali": 7489, "accept": 7490, "remained ": 7491, "tribunales ": 7492, "May ": 7493, "ograph": 7494, "participate in the ": 7495, "rol": 7496, "rehabilit": 7497, "State part": 7498, "es, the ": 7499, "agreed ": 7500, "cover": 7501, "tran": 7502, "requer": 7503, "od ": 7504, "pa": 7505, "ation in ": 7506, "institution": 7507, "multilater": 7508, "employment ": 7509, "ha ": 7510, "Ser": 7511, "in this ": 7512, "proyectos ": 7513, "más de ": 7514, "an en el ": 7515, "cumplimient": 7516, "cum": 7517, "niños y ": 7518, "sobre sus ": 7519, "embarg": 7520, "Mantenimiento de la Paz": 7521, "marz": 7522, "M": 7523, ", en ": 7524, "OS ": 7525, "ei": 7526, "Tok": 7527, "increase in ": 7528, "cel": 7529, "Refug": 7530, "inclusive ": 7531, "<bos>Draft ": 7532, "i": 7533, "crim": 7534, "proyectos de ": 7535, "oni": 7536, "gh": 7537, "Ministry of ": 7538, "dad de ": 7539, "de conformidad ": 7540, "punto de ": 7541, "consulta ": 7542, "population ": 7543, "participate ": 7544, "implement ": 7545, "with ": 7546, "reconocimient": 7547, "considera que ": 7548, "teri": 7549, "epl": 7550, "<bos>Call": 7551, "real": 7552, "situación de los ": 7553, "matrimon": 7554, "proposal ": 7555, "decisions ": 7556, "Covenant ": 7557, "enda ": 7558, "estaban ": 7559, "os<eos>": 7560, "an's ": 7561, "=": 7562, "role of ": 7563, "with a ": 7564, "oci": 7565, "on, ": 7566, "en los países ": 7567, "Derechos del ": 7568, "10 a.m": 7569, "<bos>After ": 7570, "combating ": 7571, "towards the ": 7572, "grave ": 7573, "osi": 7574, "Leagu": 7575, "improved ": 7576, "an las ": 7577, "al, la ": 7578, "joy": 7579, "progresos realiz": 7580, "especi": 7581, "ement": 7582, "w ": 7583, "increment": 7584, "o-": 7585, "ent of the ": 7586, "égim": 7587, "charg": 7588, "otro ": 7589, "Turk": 7590, "<bos>Su ": 7591, "contr": 7592, "armoniz": 7593, "2000": 7594, "respect ": 7595, "Fr": 7596, "law": 7597, "Jan": 7598, "record ": 7599, "vent": 7600, ", B": 7601, "adoptar ": 7602, "as an ": 7603, "contribución ": 7604, "commun": 7605, "UNA": 7606, "regiones ": 7607, "inten": 7608, "low": 7609, "polic": 7610, "end ": 7611, "urity ": 7612, "ism": 7613, "3 (2001": 7614, "small ": 7615, "Social ": 7616, "aciones, ": 7617, "post-conflict ": 7618, "fund": 7619, "asum": 7620, "demand": 7621, "Working ": 7622, "ve": 7623, "Austria, ": 7624, "caso de ": 7625, "deleg": 7626, "ter": 7627, "iones ": 7628, "operacion": 7629, "Mexic": 7630, "<bos>L": 7631, "compon": 7632, "age of ": 7633, "return": 7634, "question of ": 7635, "ast ": 7636, "pornogr": 7637, "nation": 7638, "OP": 7639, "traffic": 7640, "trabajo.<eos>": 7641, "Ab": 7642, "programme of ": 7643, "candidat": 7644, "Economic and Social ": 7645, "Mes": 7646, "desechos ": 7647, "in relation to ": 7648, "escuela ": 7649, "go ": 7650, "anunci": 7651, "Anti": 7652, "Is": 7653, "ual": 7654, "a los Estados ": 7655, "tes": 7656, "<bos>In the ": 7657, "mary ": 7658, "datos ": 7659, "of the Secretary-General ": 7660, "als.<eos>": 7661, "hincapi": 7662, "<bos>d) ": 7663, "gir": 7664, "ardi": 7665, "temas ": 7666, "en": 7667, "effectivenes": 7668, "decision": 7669, "ar.<eos>": 7670, "d'": 7671, "tam": 7672, "Confer": 7673, "scale ": 7674, "espíritu": 7675, "uls": 7676, "Ver": 7677, "pur": 7678, "cuestión de la ": 7679, "Palestinian ": 7680, "ñ": 7681, "Peac": 7682, "rig": 7683, "secret": 7684, "been ": 7685, "sure ": 7686, "Cop": 7687, "idamente ": 7688, "ti": 7689, "ras ": 7690, "U": 7691, "mayor ": 7692, "labour ": 7693, "Namibi": 7694, "militar ": 7695, ", which ": 7696, "context of the ": 7697, "párr.<eos>": 7698, "countr": 7699, "la de ": 7700, "is the ": 7701, "eti": 7702, "corpor": 7703, "ji": 7704, " de julio de 200": 7705, "para la ": 7706, "infl": 7707, "as a resul": 7708, "Des": 7709, "Universid": 7710, "ture, ": 7711, "road ": 7712, "presid": 7713, "<bos>En cuanto ": 7714, "e a ": 7715, "ird ": 7716, "productos ": 7717, "Octob": 7718, "elections ": 7719, "imp": 7720, "areas ": 7721, "ares.<eos>": 7722, "UNEP": 7723, "queñ": 7724, "fy the ": 7725, "Irlanda del Nor": 7726, "DP": 7727, "Moldova, ": 7728, "% ": 7729, "funcionarios ": 7730, "issue ": 7731, "El ": 7732, "Bélgic": 7733, "convers": 7734, "al, que ": 7735, "16 ": 7736, "consultiv": 7737, "Kosovo ": 7738, "aj": 7739, "C ": 7740, "ban ": 7741, "F ": 7742, "Tur": 7743, "ables ": 7744, "gobiernos ": 7745, "mean": 7746, "ent.<eos>": 7747, "ción, ": 7748, "dist": 7749, "inmun": 7750, "cri": 7751, "alt": 7752, "discus": 7753, "reg": 7754, "materi": 7755, "Carib": 7756, "opin": 7757, "cor": 7758, "o para la ": 7759, "course, ": 7760, "relig": 7761, "él ": 7762, "52 ": 7763, "merc": 7764, "do entre el ": 7765, "Chairperson ": 7766, "resolution ": 7767, "discussion": 7768, "sim": 7769, ".00 ": 7770, "<bos>The ": 7771, "s of ": 7772, "s' ": 7773, "36": 7774, "ar la ": 7775, "Gr": 7776, "ple ": 7777, "-scale ": 7778, "y el ": 7779, "emal": 7780, "organism": 7781, "cooperation ": 7782, "ec": 7783, "egr": 7784, "feder": 7785, "Convention": 7786, "ejer": 7787, "dollar": 7788, "law.<eos>": 7789, "gar": 7790, "os;<eos>": 7791, "an B": 7792, "mutu": 7793, "recommend": 7794, "puesto ": 7795, "more than ": 7796, "est ": 7797, "UNMI": 7798, "y a ": 7799, "que el Comité ": 7800, "pos": 7801, "ack ": 7802, "agenda item ": 7803, "Le": 7804, "trabajo ": 7805, "lugar, ": 7806, "/10": 7807, "provision": 7808, "Chap": 7809, "t of ": 7810, "standing ": 7811, "ren ": 7812, "add": 7813, "liv": 7814, "Joint ": 7815, "o de 199": 7816, "offic": 7817, "cho": 7818, "educ": 7819, "a; ": 7820, "estatu": 7821, "ción de las ": 7822, "survey": 7823, "eeting ": 7824, "detain": 7825, "Rights of the ": 7826, "ind": 7827, "/W": 7828, "<bos>Informe ": 7829, "majority of ": 7830, "useful ": 7831, "subparagraph ": 7832, "syst": 7833, "pay": 7834, "ar esos ": 7835, "octub": 7836, "appro": 7837, "aún ": 7838, ";<eos>": 7839, "local ": 7840, "Consejo de Seguridad ": 7841, "tel": 7842, "abilities ": 7843, "spectiv": 7844, "per cent of the ": 7845, "manag": 7846, "público ": 7847, "tra": 7848, "suces": 7849, "a<eos>": 7850, "y, ": 7851, "tico.<eos>": 7852, "sí ": 7853, "categori": 7854, "desarrollo, ": 7855, "os del ": 7856, "wish": 7857, "which is ": 7858, "iniciativas ": 7859, "RP": 7860, "tercer ": 7861, "Occident": 7862, "bol": 7863, "\", ": 7864, "/S": 7865, "o y la ": 7866, "parte ": 7867, "mandate ": 7868, "categor": 7869, "pérdid": 7870, "tí": 7871, "aliz": 7872, "eng": 7873, "Nigeria, ": 7874, "desarrollo del Mileni": 7875, "familiares ": 7876, "her": 7877, "cabe ": 7878, "ôte d'I": 7879, "8 ": 7880, "ateg": 7881, "adas y ": 7882, "on the basis of ": 7883, "Advisory Committee on Administrative and Budgetary ": 7884, "fifty-": 7885, "<bos>(a) The ": 7886, "a. ": 7887, "In ": 7888, "raising ": 7889, ".00 hor": 7890, "juli": 7891, "salud": 7892, "ori": 7893, "ción en ": 7894, "organizaciones no gubernamentales ": 7895, "dangerous ": 7896, "commend": 7897, "ales de los ": 7898, "stitu": 7899, "contrat": 7900, "to, ": 7901, "Parte ": 7902, "Desarrollo ": 7903, "<bos>a ": 7904, "quer": 7905, "mient": 7906, "perpetrator": 7907, "Croati": 7908, "amin": 7909, "A/5": 7910, "mecanism": 7911, "Protocolo Facultativ": 7912, "la en ": 7913, "ted the ": 7914, "adi": 7915, "The Committee ": 7916, "ación": 7917, "resolución.<eos>": 7918, "ar su ": 7919, "mundial ": 7920, "blic": 7921, "infra": 7922, "Mundial ": 7923, "gather": 7924, "todos ": 7925, "Represent": 7926, "mutual ": 7927, "26": 7928, "Artículo ": 7929, "ernament": 7930, "para su ": 7931, "propi": 7932, "Líban": 7933, "má": 7934, "supervisión ": 7935, "Group ": 7936, "proposal": 7937, "commitment": 7938, "dichos ": 7939, "<bos>On": 7940, "doc": 7941, "versid": 7942, "TH": 7943, "sulares ": 7944, "edi": 7945, "2007, ": 7946, "1995": 7947, "Comision": 7948, "opinion ": 7949, "eli": 7950, "<bos>See ": 7951, "ores de ": 7952, "perman": 7953, "s that the ": 7954, "ales en ": 7955, "Reglament": 7956, "open ": 7957, "primari": 7958, "with a view to ": 7959, "ity, ": 7960, "behalf of the ": 7961, "Educ": 7962, "<bos>In": 7963, "list of ": 7964, "law enforcement ": 7965, "y-": 7966, "the ": 7967, "altern": 7968, "programa de ": 7969, "Child": 7970, "fir": 7971, "Jama": 7972, "expan": 7973, "inde": 7974, "abo": 7975, "Cour": 7976, "Other ": 7977, "bas": 7978, "o de ses": 7979, "había ": 7980, "ed an ": 7981, "fo": 7982, "cuanto ": 7983, "ada, ": 7984, "propósi": 7985, "2000-": 7986, "ACNU": 7987, "during ": 7988, "ources": 7989, "penal": 7990, "hum": 7991, "sit": 7992, "ison ": 7993, "mé": 7994, "treat": 7995, "comprehen": 7996, "siz": 7997, "grat": 7998, "decre": 7999, "nium ": 8000, "s for the ": 8001, "decir": 8002, "emb": 8003, "opinion": 8004, "guil": 8005, "In": 8006, "ad, ": 8007, "tions of ": 8008, "enty-": 8009, "Technolog": 8010, "dependent ": 8011, "mur": 8012, "Pu": 8013, "<bos>Re": 8014, "o de los ": 8015, "children, ": 8016, "em ": 8017, "100 ": 8018, "capacity-building ": 8019, "s, ": 8020, "al": 8021, "anism": 8022, "serious ": 8023, "o, por ": 8024, "dispon": 8025, "ede ": 8026, "Un": 8027, "alivi": 8028, "”, ": 8029, "Bank": 8030, " de j": 8031, "6 (": 8032, "Human ": 8033, "promotion of ": 8034, "ately ": 8035, "vision": 8036, "youn": 8037, "Secretary-General for ": 8038, "texto ": 8039, "conc": 8040, "Depend": 8041, "Facultativ": 8042, "períod": 8043, "and, in ": 8044, "gric": 8045, "necess": 8046, "siv": 8047, "ional ": 8048, "fin": 8049, "2000, ": 8050, "II, ": 8051, "permite ": 8052, "por la ": 8053, "dispens": 8054, "purpos": 8055, "Pap": 8056, "arch": 8057, "3 (": 8058, "tud": 8059, "demonstr": 8060, "e la ": 8061, "relativas ": 8062, "integral ": 8063, "peaceful ": 8064, "age of the ": 8065, "je": 8066, "os. ": 8067, "/5": 8068, "reduce ": 8069, "ICE": 8070, "Jus": 8071, "€": 8072, "Supre": 8073, "xen": 8074, "thre": 8075, "4, ": 8076, "opportun": 8077, "New Z": 8078, "aun": 8079, "bilateral ": 8080, "PR": 8081, "27": 8082, "abov": 8083, "addressed ": 8084, "mar ": 8085, "elop": 8086, "mee": 8087, "fortalecer ": 8088, "statistic": 8089, "interrog": 8090, "dó": 8091, "eficaz": 8092, "announc": 8093, "itarios ": 8094, "exploit": 8095, "clari": 8096, "Her": 8097, "arter ": 8098, "ados y ": 8099, "ol ": 8100, "por las ": 8101, "ados en ": 8102, "suggest": 8103, "reduc": 8104, "ológic": 8105, "años de ": 8106, "derecho a la ": 8107, "seis ": 8108, "57": 8109, "amientos ": 8110, "pat": 8111, ", the ": 8112, "<bos>With ": 8113, "Human": 8114, "medidas de ": 8115, "participantes ": 8116, "hor": 8117, "Leg": 8118, "self": 8119, "nam": 8120, "Por": 8121, "skill": 8122, "30 June ": 8123, "Core": 8124, "mi": 8125, "territori": 8126, "4<eos>": 8127, "Relaciones Exteri": 8128, "Discrimin": 8129, "Director": 8130, "cover ": 8131, "fáci": 8132, "arios.<eos>": 8133, "carácter ": 8134, "Con": 8135, "mass ": 8136, "d ": 8137, "ci": 8138, "either ": 8139, "os en el ": 8140, "people, ": 8141, "así como ": 8142, "en el marco del ": 8143, "también ": 8144, "as to ": 8145, "en el artículo ": 8146, "ek": 8147, "ously ": 8148, "posible, ": 8149, "escu": 8150, "calidad de ": 8151, "70": 8152, "equipo ": 8153, "ussi": 8154, "es that ": 8155, "and, ": 8156, "otra ": 8157, "dif": 8158, "esti": 8159, "Convención de ": 8160, "Preven": 8161, "as ": 8162, "Estad": 8163, "Conference Room ": 8164, "based on ": 8165, "todavía ": 8166, "a F": 8167, "otras organizaciones ": 8168, "<bos>El ": 8169, "s, to ": 8170, "Ag": 8171, "las Naciones Unidas<eos>": 8172, "uro": 8173, "aged ": 8174, "lu": 8175, "tud ": 8176, "its ": 8177, "<bos>Ad": 8178, "<bos>El Grupo ": 8179, "Joh": 8180, "deben ": 8181, "alidad ": 8182, "ed by the ": 8183, "everthel": 8184, "giving ": 8185, "ester": 8186, "Programa de ": 8187, "<bos>Cre": 8188, "long-term ": 8189, "hold ": 8190, "antil ": 8191, "Mil": 8192, "po": 8193, "and that ": 8194, "acción ": 8195, "Bolivi": 8196, "ado a la ": 8197, "tengan ": 8198, "conflictos arm": 8199, "77": 8200, "ced": 8201, "informal ": 8202, "2005.<eos>": 8203, "guarante": 8204, "instruments ": 8205, "atr": 8206, "orientación ": 8207, "known ": 8208, "o de una ": 8209, "14, ": 8210, "trans": 8211, "sustainable ": 8212, "rul": 8213, "ip": 8214, "Fac": 8215, "<bos>Th": 8216, "ign ": 8217, "development": 8218, "inver": 8219, "decisiones ": 8220, "Mantenimiento de la ": 8221, "Est": 8222, "democr": 8223, "system": 8224, "regional and ": 8225, "), and ": 8226, "will ": 8227, "peace ": 8228, "ó a la ": 8229, "stic": 8230, "topic": 8231, "<bos>However, the ": 8232, "expl": 8233, "acerca de ": 8234, "<bos>Par": 8235, "apropi": 8236, "jurisdic": 8237, "VIH/SIDA": 8238, "gobern": 8239, "UNCITRA": 8240, "del program": 8241, "<bos>Recom": 8242, "prior": 8243, "1994": 8244, "private sector ": 8245, "osteni": 8246, "formación ": 8247, "Six": 8248, " L": 8249, "moment": 8250, "ation<eos>": 8251, "serán ": 8252, "increase in the ": 8253, "buena ": 8254, "as y el ": 8255, "r la ": 8256, "offici": 8257, "las Naciones Unidas y ": 8258, "io ": 8259, "ad de ": 8260, "<bos>At ": 8261, "Centro ": 8262, "respect to the ": 8263, "Bure": 8264, "accoun": 8265, "Representante Especial ": 8266, "develop": 8267, "work ": 8268, "voc": 8269, "compro": 8270, "politic": 8271, "possible ": 8272, "Reunión ": 8273, "inspec": 8274, "implementation ": 8275, "strategic ": 8276, "undertak": 8277, "tasa de ": 8278, "que ha ": 8279, "saber ": 8280, ", the Committee ": 8281, "personas ": 8282, "can be ": 8283, "issue of ": 8284, "alternativ": 8285, "£": 8286, "territorio ": 8287, "substanti": 8288, ".5": 8289, "against the ": 8290, "sent": 8291, "credi": 8292, "s upon ": 8293, "base de ": 8294, "ar a los ": 8295, "cion": 8296, "mission of ": 8297, "Qu": 8298, "nacional, ": 8299, "las necesidades ": 8300, "dol": 8301, "Macedonia, ": 8302, "o;<eos>": 8303, "hace ": 8304, "violencia ": 8305, "ting the ": 8306, "Coordin": 8307, "joint ": 8308, "cuadro ": 8309, "Bud": 8310, "con beneplácito ": 8311, "mainly ": 8312, "resol": 8313, "<bos>Particip": 8314, "1996, ": 8315, "ela ": 8316, "period of ": 8317, "Corr": 8318, "Dinam": 8319, "Paí": 8320, "istic": 8321, "already ": 8322, "tle ": 8323, "neighb": 8324, "incluir ": 8325, "developing ": 8326, "that it ": 8327, "wast": 8328, "Chile, ": 8329, "smo ": 8330, "organizaciones ": 8331, "establecimiento de ": 8332, "President ": 8333, "Econom": 8334, "queda ": 8335, "ycl": 8336, "incuagésimo ": 8337, "ción y la ": 8338, "Ru": 8339, "ada en ": 8340, "autoridad ": 8341, "Centro de ": 8342, "dang": 8343, "<bos>During the ": 8344, "siendo ": 8345, "encion": 8346, "th session ": 8347, "tak": 8348, "Consejo de Seguridad, ": 8349, "Fisc": 8350, "with the ": 8351, "Su": 8352, "tional ": 8353, "derechos humanos.<eos>": 8354, "ap": 8355, "Bra": 8356, "función ": 8357, "”<eos>": 8358, "pil": 8359, "1 (": 8360, "impuest": 8361, "es for the ": 8362, "debido ": 8363, "defini": 8364, "vali": 8365, "ôte d'Ivo": 8366, "<bos>Although ": 8367, "all": 8368, "Apoy": 8369, "alc": 8370, "ción de un ": 8371, "ón ": 8372, "fomento de la capacidad ": 8373, "mediante la ": 8374, "Chipre, ": 8375, "Administr": 8376, "ail": 8377, "one of the ": 8378, "ability to ": 8379, "maintain": 8380, "porting ": 8381, "Syrian ": 8382, "impact of the ": 8383, "development ": 8384, "below ": 8385, "Comunidad ": 8386, "carried out ": 8387, "believe ": 8388, "espacio ": 8389, "plante": 8390, "ún": 8391, "u ": 8392, "e al ": 8393, "egu": 8394, "ing the ": 8395, "preciso ": 8396, "ación<eos>": 8397, "an, ": 8398, "con los ": 8399, "Northern ": 8400, "negoti": 8401, "sesión ": 8402, "amen ": 8403, "ich": 8404, "Chec": 8405, "ar y ": 8406, "EN": 8407, "atribu": 8408, "países de ": 8409, "programa provision": 8410, "indemnización ": 8411, "Darfur": 8412, "States and ": 8413, "seek ": 8414, "much": 8415, "en ": 8416, "ado un ": 8417, "bienni": 8418, "Representante ": 8419, "associated ": 8420, "la": 8421, "dr": 8422, "1<eos>": 8423, "discrimination ": 8424, "internacional, ": 8425, "Burundi": 8426, "ment, ": 8427, "now ": 8428, "<bos>Introduc": 8429, "all, ": 8430, "productive ": 8431, "obstá": 8432, "edades ": 8433, "P ": 8434, "following ": 8435, "clos": 8436, "Chang": 8437, "sum": 8438, "rules of ": 8439, "tribunal ": 8440, "welcomed the ": 8441, "Nueva Zelandi": 8442, "cuando ": 8443, "recurri": 8444, "Burkin": 8445, "poor ": 8446, "complej": 8447, "jóven": 8448, "annex": 8449, "line ": 8450, "las de ": 8451, "s or ": 8452, "o con ": 8453, "cual ": 8454, "detail": 8455, "gestión de ": 8456, "pot": 8457, " (2003": 8458, "conces": 8459, "ability and ": 8460, "ilíci": 8461, "participar ": 8462, "pá": 8463, "<bos>If ": 8464, "micro": 8465, "llevar a ": 8466, "Asamblea General ": 8467, "Coun": 8468, "en a ": 8469, "export": 8470, "<bos>Resolution ": 8471, "beg": 8472, "B": 8473, "entitled “": 8474, "co-": 8475, "strengthen the ": 8476, "Programme of ": 8477, "desaf": 8478, "ulteri": 8479, "Justic": 8480, "1/": 8481, "consider ": 8482, "initiatives ": 8483, "kind ": 8484, "mach": 8485, "of ": 8486, "uw": 8487, "región.<eos>": 8488, "ella ": 8489, "last ": 8490, "a a las ": 8491, "United Nations.<eos>": 8492, "195": 8493, "Niñ": 8494, "Bar": 8495, "atis": 8496, "ing of the ": 8497, "universal ": 8498, "Rapporteur": 8499, "migrant ": 8500, "al, ": 8501, "cuad": 8502, "de la ": 8503, "dom": 8504, "spon": 8505, "tien": 8506, "de la Asamblea General ": 8507, "actual ": 8508, "trafficking in ": 8509, "Trans": 8510, "Gobiern": 8511, "legisl": 8512, "sign": 8513, "potential ": 8514, "ai": 8515, "ment.<eos>": 8516, "existen ": 8517, "Government of the ": 8518, "ma": 8519, "XV": 8520, "collec": 8521, "programme budget ": 8522, "adquisi": 8523, "matter": 8524, "Comi": 8525, "adop": 8526, "esto ": 8527, "in accordance with ": 8528, "ciert": 8529, "es y ": 8530, "pin": 8531, "outcom": 8532, "<bos>Since ": 8533, "rup": 8534, "instal": 8535, "ethnic ": 8536, "adequately ": 8537, "di": 8538, ".1": 8539, "expressed ": 8540, "lider": 8541, "Security ": 8542, "temp": 8543, "<bos>For the ": 8544, "avanz": 8545, "esfuerzos para ": 8546, "encia de la ": 8547, "since ": 8548, "<bos>Moreover": 8549, "accu": 8550, "Tribun": 8551, "upon ": 8552, "Kyoto ": 8553, "nic": 8554, "conclusiones ": 8555, "ish ": 8556, "prelimin": 8557, "Assembly ": 8558, "a).<eos>": 8559, "Manten": 8560, "back ": 8561, "Millen": 8562, "<bos>He ": 8563, "attemp": 8564, "ingres": 8565, "consider": 8566, "Vice-": 8567, "pobrez": 8568, "next ": 8569, "correspond": 8570, "per cent.<eos>": 8571, "Marruec": 8572, "National ": 8573, "as (": 8574, "señal": 8575, "25 (": 8576, "ed ": 8577, "20": 8578, "Sri Lank": 8579, "ania, ": 8580, "ata": 8581, "Tra": 8582, "Gobierno de ": 8583, "45": 8584, "N ": 8585, "sixty-": 8586, "libre ": 8587, "ya, ": 8588, "a and the ": 8589, "mechan": 8590, "ev": 8591, "respond": 8592, "comb": 8593, "mediante el ": 8594, "VIH": 8595, "prison": 8596, "Comité ": 8597, "medio ambient": 8598, "adul": 8599, "at ": 8600, "end": 8601, "promulg": 8602, "o el ": 8603, "crédi": 8604, "ada.<eos>": 8605, "revis": 8606, "<bos>The Council ": 8607, "aim": 8608, "personal ": 8609, "anteri": 8610, "assess": 8611, "scho": 8612, "econ": 8613, "recomend": 8614, "part of the ": 8615, "April ": 8616, "palabr": 8617, "<bos>Tom": 8618, "sección ": 8619, "tomó ": 8620, "]<eos>": 8621, "13, ": 8622, "territory ": 8623, "<bos>One ": 8624, "L ": 8625, "en que ": 8626, "<bos>Hab": 8627, "personas con ": 8628, "<bos>Como ": 8629, "endor": 8630, "call ": 8631, "tual ": 8632, "deliver": 8633, "lament": 8634, "ante": 8635, "recall": 8636, "struc": 8637, "ality, ": 8638, "draft article ": 8639, "especially ": 8640, "ose ": 8641, "os que se ": 8642, "200": 8643, "month": 8644, "Djibou": 8645, "al de la ": 8646, "os y ": 8647, "ocr": 8648, "PA": 8649, "ted ": 8650, "bit": 8651, "such as the ": 8652, "todos los ": 8653, "estión ": 8654, "sponsor": 8655, "continued to ": 8656, "with other ": 8657, "AC.105/": 8658, "aprobada por la ": 8659, "evid": 8660, "ales del ": 8661, "serve ": 8662, "modern": 8663, "anci": 8664, "uni": 8665, "general ": 8666, "Estados, ": 8667, "° ": 8668, "visión de ": 8669, " de juni": 8670, "cumplir ": 8671, "hood": 8672, "h ": 8673, "Pe": 8674, "world.<eos>": 8675, "re": 8676, "if": 8677, "Ci": 8678, "confid": 8679, "independent ": 8680, "Myan": 8681, "aud": 8682, "evidence ": 8683, "explo": 8684, "to the ": 8685, "mecanismos ": 8686, "Economic ": 8687, "o del ": 8688, "ed that ": 8689, "delegación ": 8690, "al's ": 8691, "Guinea-": 8692, "e of the ": 8693, "r ": 8694, "género ": 8695, "<bos>I ": 8696, "decid": 8697, "primer": 8698, "os, y ": 8699, "reintegr": 8700, "ce ": 8701, "ía la ": 8702, ") y ": 8703, "level": 8704, "pl": 8705, "aking ": 8706, "RC ": 8707, "reiter": 8708, "ries": 8709, "G ": 8710, "fundament": 8711, ".6 ": 8712, "apporteur": 8713, "period ": 8714, "toco": 8715, "política ": 8716, "respet": 8717, "Eslovaqui": 8718, "prevé ": 8719, "sobre el Desarrollo Sosteni": 8720, "<bos>Paragraph ": 8721, "edad": 8722, "drog": 8723, "ub": 8724, "recib": 8725, "ause ": 8726, "Malaysi": 8727, "g ": 8728, "Rights ": 8729, "tul": 8730, "an (": 8731, "ese ": 8732, "Form": 8733, "aron ": 8734, "ación y el ": 8735, "verific": 8736, "- ": 8737, "groups, ": 8738, "asist": 8739, "viviend": 8740, "especialmente ": 8741, "ar las ": 8742, "return ": 8743, "despit": 8744, "24": 8745, "address": 8746, "counter": 8747, "para el período ": 8748, "apar": 8749, "amente ": 8750, "stanci": 8751, "Environ": 8752, "reclamaciones ": 8753, "Grupo de Trabajo ": 8754, "a en la ": 8755, "ient": 8756, "ated.<eos>": 8757, "protec": 8758, "2007 ": 8759, "every ": 8760, "ern ": 8761, "tori": 8762, "Desarroll": 8763, "neces": 8764, "analiz": 8765, "sch": 8766, "establishment of ": 8767, "Sud": 8768, "distin": 8769, "sugg": 8770, "oce ": 8771, "niño ": 8772, "oportunidad ": 8773, "Sierra Le": 8774, "only ": 8775, "o in": 8776, "wi": 8777, "participación ": 8778, "o y las ": 8779, "explain": 8780, "8.<eos>": 8781, "documento ": 8782, "contra el ": 8783, "secur": 8784, "ould ": 8785, "<bos>These ": 8786, "Secretariat": 8787, "sup": 8788, "ance ": 8789, "idades.<eos>": 8790, "contain": 8791, "ar o ": 8792, "Rul": 8793, "decla": 8794, "fying ": 8795, "/16": 8796, "tal ": 8797, "Ucr": 8798, "alestin": 8799, "idad.<eos>": 8800, "<bos>Ac": 8801, "ejercicio ": 8802, "fuerzas de ": 8803, "descrip": 8804, "ó ": 8805, "ong ": 8806, "children ": 8807, "ally, ": 8808, "de al Secretario General que ": 8809, "Bél": 8810, "opul": 8811, "Códi": 8812, "atten": 8813, "Government's ": 8814, "benefici": 8815, "Institute ": 8816, "enes": 8817, "bur": 8818, "elin": 8819, "ach": 8820, "<bos>As ": 8821, "publ": 8822, "<bos>En ": 8823, "Febr": 8824, "igualdad de ": 8825, "rece": 8826, "matern": 8827, "ile the ": 8828, "y (": 8829, "occupied ": 8830, "administrativ": 8831, "party ": 8832, "intern": 8833, "c) ": 8834, "30 de junio de 200": 8835, "effect ": 8836, "tér": 8837, "Croaci": 8838, "cultural ": 8839, "<bos>Decide ": 8840, "UND": 8841, "aplic": 8842, "Protoco": 8843, "electoral ": 8844, "-": 8845, "and ": 8846, "Bulg": 8847, "con miras a ": 8848, "?<eos>": 8849, "remiti": 8850, "results ": 8851, "y: ": 8852, "certain ": 8853, "oportunidades ": 8854, ".": 8855, "requisitos ": 8856, "es, and ": 8857, "itory ": 8858, "a f": 8859, "s, which ": 8860, "trend": 8861, "cours": 8862, "amiento ": 8863, "pun": 8864, "37": 8865, "ales de la ": 8866, " de enero de 200": 8867, "<bos>Not": 8868, "ell": 8869, "p.m": 8870, "offer": 8871, "poco ": 8872, "Foro ": 8873, "a sus ": 8874, "margin": 8875, "a number of ": 8876, "enforcement ": 8877, "Special Rapporteur on the ": 8878, "jef": 8879, "contribuir ": 8880, "equal ": 8881, "Board ": 8882, "Implement": 8883, "ew ": 8884, "set ": 8885, "rural ": 8886, "cuya ": 8887, "tanto ": 8888, "ileg": 8889, "Acción ": 8890, "competencia ": 8891, "; S/": 8892, "fight against ": 8893, "opiniones ": 8894, "ength": 8895, "ado para ": 8896, "amiento del ": 8897, "ant ": 8898, "met": 8899, "www.un.org/": 8900, "enterpri": 8901, "heal": 8902, "ún ": 8903, "idas ": 8904, "analy": 8905, "recomi": 8906, "ministerial ": 8907, "prin": 8908, "cuyos ": 8909, "Terror": 8910, "lista de ": 8911, "solicitud ": 8912, "Director Ejecutiv": 8913, "<bos>While ": 8914, "CA": 8915, "diffic": 8916, "lam": 8917, "<bos>Esta ": 8918, "abilidad ": 8919, "close ": 8920, "hosp": 8921, "información ": 8922, "es, la ": 8923, "<bos>According to ": 8924, "adas en ": 8925, "v": 8926, "avía ": 8927, "must ": 8928, "under the ": 8929, "fy ": 8930, "fomento de la ": 8931, "ance of ": 8932, "os por ": 8933, "liter": 8934, "países ": 8935, "ombr": 8936, "vivi": 8937, "proporcion": 8938, "ourth ": 8939, "adap": 8940, "ultativ": 8941, "con respecto al ": 8942, "es.<eos>": 8943, "Africa ": 8944, "Reino ": 8945, "agésimo ": 8946, "idad": 8947, "cuatro ": 8948, "Security Council": 8949, "ug": 8950, "Consejo Económico y Soci": 8951, "acilit": 8952, "bass": 8953, "strong ": 8954, "all ": 8955, "Op": 8956, "stres": 8957, "concepto de ": 8958, "Transi": 8959, "Portug": 8960, "ende ": 8961, "0, ": 8962, "Ombud": 8963, "<bos>C. ": 8964, "idad ": 8965, "right of ": 8966, "pren": 8967, "erl": 8968, "base ": 8969, "during the ": 8970, "conferenci": 8971, "etap": 8972, "delitos ": 8973, "ely, ": 8974, "ganiz": 8975, "temporary ": 8976, "contribute to the ": 8977, "NE": 8978, "med": 8979, "per": 8980, "particular": 8981, "amos ": 8982, "ó que, ": 8983, "organizations ": 8984, "Côte d'Ivoire, ": 8985, "conflict": 8986, "junt": 8987, "er, ": 8988, "<bos>Wel": 8989, "tion to the ": 8990, "Ti": 8991, "acuer": 8992, "arse en ": 8993, "in terms of ": 8994, "their ": 8995, "relacionadas con el ": 8996, "ó en ": 8997, "world": 8998, "ain": 8999, "con su ": 9000, "them": 9001, "difer": 9002, "Space ": 9003, "hincap": 9004, "permanent ": 9005, "es necesario ": 9006, "taken by ": 9007, "/AID": 9008, "be ": 9009, "plement": 9010, "see ": 9011, "adoption of the ": 9012, "franc": 9013, "A/CN.9/": 9014, "principles and ": 9015, "pueblo ": 9016, "ts of ": 9017, "fe": 9018, "hub": 9019, "prosecu": 9020, "challeng": 9021, "Sum": 9022, "Forum": 9023, "sostenible ": 9024, "rights ": 9025, "taking ": 9026, "y's ": 9027, "which are ": 9028, "legitimate ": 9029, "más ": 9030, "descri": 9031, "campañ": 9032, "activities and ": 9033, "etc": 9034, "provisions of ": 9035, "sistem": 9036, "in article ": 9037, "Millennium ": 9038, "there ": 9039, "ar al ": 9040, "law, ": 9041, "Azerbaiy": 9042, "recogni": 9043, "estrechamente ": 9044, "polític": 9045, "consiguient": 9046, "pres": 9047, "System": 9048, "sibil": 9049, "ans ": 9050, "regist": 9051, "CE": 9052, "Sra. ": 9053, "I) ": 9054, "<bos>f) ": 9055, "sever": 9056, "Com": 9057, "terrorist": 9058, "ado a ": 9059, "prestar ": 9060, "<bos>Otr": 9061, "of the United Nations, ": 9062, "prohí": 9063, "sectores ": 9064, "que, ": 9065, "Agency ": 9066, "continú": 9067, "incluida la ": 9068, "<bos>Document": 9069, "seguir ": 9070, "se aplic": 9071, "Mission ": 9072, "At": 9073, "constitu": 9074, "extern": 9075, "economic and social ": 9076, "La ": 9077, "enfermed": 9078, "financial and ": 9079, "fol": 9080, "Pacto ": 9081, "o y el ": 9082, "mayorí": 9083, "VI": 9084, "el": 9085, "direct": 9086, "contribuy": 9087, "nuestr": 9088, "plano ": 9089, "Special Representative ": 9090, "avances ": 9091, "diversos ": 9092, "orl": 9093, "procurement ": 9094, "C) ": 9095, "years, ": 9096, "show ": 9097, "office ": 9098, "some": 9099, "-term ": 9100, "Declaración del ": 9101, "relativas al ": 9102, "Comisión ": 9103, "respect to ": 9104, "evertheles": 9105, "35": 9106, " de juli": 9107, "Kar": 9108, "Estado parte ": 9109, "obligatori": 9110, "pued": 9111, "expand": 9112, "31 de diciembre de ": 9113, "web": 9114, "East": 9115, "economi": 9116, "a, que ": 9117, "magistr": 9118, "nueva ": 9119, "forum": 9120, "resource ": 9121, "en una ": 9122, "relating ": 9123, "van": 9124, "cuadro de ": 9125, "gip": 9126, "miras a ": 9127, "Nigeri": 9128, "q": 9129, "independ": 9130, "vac": 9131, "13 ": 9132, "before ": 9133, "y de la ": 9134, "garant": 9135, "Nacional de ": 9136, "President": 9137, "Chairman of the ": 9138, "―": 9139, "sust": 9140, "instrumento ": 9141, "undertaken ": 9142, "disarmament ": 9143, "sión.<eos>": 9144, "til ": 9145, "Plan de ": 9146, "set out ": 9147, "all the ": 9148, "violence, ": 9149, "per ": 9150, "continued": 9151, "noted that ": 9152, "use": 9153, "achieving ": 9154, "qued": 9155, "12 ": 9156, "Gener": 9157, "ø": 9158, "priority ": 9159, "facilitate the ": 9160, "esfuerzos ": 9161, "Leban": 9162, "las ": 9163, "importanci": 9164, "obl": 9165, "Police ": 9166, "cer": 9167, "Egip": 9168, "Lí": 9169, "cimient": 9170, "Guinea-B": 9171, "recurs": 9172, "implic": 9173, "Minister of ": 9174, "áre": 9175, "Subcomisión ": 9176, "<bos>She ": 9177, "para ayud": 9178, "relations ": 9179, ", de ": 9180, "would ": 9181, ": (": 9182, "erg": 9183, "human ": 9184, "stop": 9185, "siemp": 9186, "crimes ": 9187, "Código de ": 9188, "development of ": 9189, "co": 9190, "Union ": 9191, "consecuencias ": 9192, "ing, ": 9193, "itari": 9194, "Partes ": 9195, "Article ": 9196, "strategi": 9197, "nerg": 9198, "ve ": 9199, "eful ": 9200, "ick": 9201, "aw": 9202, "Centre ": 9203, "ón.<eos>": 9204, "<bos>4": 9205, "Governments ": 9206, "candi": 9207, "estrecha ": 9208, "a la ": 9209, "Program": 9210, "es el ": 9211, "voluntarios ": 9212, "soluciones ": 9213, "Países ": 9214, "Supreme ": 9215, "ence of the ": 9216, "Right": 9217, "Europe": 9218, "structur": 9219, "(": 9220, "fall": 9221, "VIH/SIDA ": 9222, "neighbour": 9223, "support": 9224, "(A/": 9225, "Jur": 9226, "Ú": 9227, "les ": 9228, "nex ": 9229, "Ques": 9230, "tiemp": 9231, "delegations ": 9232, "UNICEF": 9233, "os, la ": 9234, "Israel": 9235, "directrices ": 9236, "wor": 9237, "durante los ": 9238, "abril de ": 9239, "relacion": 9240, "put ": 9241, "stock": 9242, "es para ": 9243, "threat ": 9244, "<bos>Further ": 9245, "ital ": 9246, "propuestas ": 9247, "cust": 9248, "tions, ": 9249, "request ": 9250, "a también ": 9251, "questions ": 9252, "y que ": 9253, "ia, ": 9254, "Siri": 9255, "consideration of ": 9256, "<bos>Alg": 9257, "o no ": 9258, "• ": 9259, "inci": 9260, "ations of ": 9261, "coordinación ": 9262, "ciones, ": 9263, "previous ": 9264, "te ": 9265, "apoyo a las ": 9266, "ill ": 9267, "top": 9268, "alto ": 9269, "ust": 9270, ", ": 9271, "prot": 9272, "Bur": 9273, "AC.2": 9274, "undi": 9275, "las Naciones Unid": 9276, "tom": 9277, "Sou": 9278, "request": 9279, "compromis": 9280, "erra Le": 9281, "Corrup": 9282, "acog": 9283, "armas de destrucción en mas": 9284, "mul": 9285, "Sudáfric": 9286, "ar con ": 9287, "iz": 9288, "instrumentos ": 9289, "adas.<eos>": 9290, "allow ": 9291, "extend": 9292, "Afganistán ": 9293, "gram": 9294, "si ": 9295, "programas de ": 9296, "ail ": 9297, "indígen": 9298, "pena de ": 9299, "relacionados ": 9300, "Argentin": 9301, "' ": 9302, "períodos de ": 9303, "Israel ": 9304, "force ": 9305, "mantener ": 9306, "Subcommitte": 9307, "limited ": 9308, "abor": 9309, "prohib": 9310, "femen": 9311, "TO ": 9312, "cient": 9313, "acceso a ": 9314, "ahor": 9315, "protection of the ": 9316, "exp": 9317, "statis": 9318, "po.<eos>": 9319, "pendi": 9320, "Polonia, ": 9321, "pan": 9322, "del P": 9323, "<bos>Wh": 9324, "recibi": 9325, "z": 9326, "maner": 9327, "−": 9328, "cu": 9329, "inebr": 9330, "electronic ": 9331, "entes, ": 9332, "social y ": 9333, "ia and ": 9334, "Regul": 9335, "enmiend": 9336, "Oc": 9337, "Medio ": 9338, "desde el ": 9339, "ra": 9340, "con las ": 9341, "ación, ": 9342, "fair ": 9343, "administración de ": 9344, "Camer": 9345, "States to ": 9346, "categoría ": 9347, "Princip": 9348, "Colombi": 9349, "rez": 9350, "protección de los ": 9351, "documentos ": 9352, "ar una ": 9353, "sufici": 9354, "concerns ": 9355, "Zimbab": 9356, "exc": 9357, "super": 9358, "position ": 9359, "k ": 9360, "Convention on ": 9361, "circun": 9362, "Especial ": 9363, "ances": 9364, "derechos humanos ": 9365, "ron": 9366, "labor de ": 9367, "membership ": 9368, "ción.<eos>": 9369, "ation of the ": 9370, "s, and ": 9371, "ü": 9372, "Forms of ": 9373, "All ": 9374, "took ": 9375, "paragraphs ": 9376, "annual ": 9377, "a y el ": 9378, "tulo ": 9379, "environment ": 9380, "work of ": 9381, "Canadá, ": 9382, "lik": 9383, "who ": 9384, "<bos>Sin embargo, ": 9385, "a o ": 9386, "respecto ": 9387, "fight ": 9388, "transmiti": 9389, "even": 9390, "safegu": 9391, "sobre su ": 9392, "activities, ": 9393, "efore, ": 9394, "11 ": 9395, "emp": 9396, "manner ": 9397, "ciudadanos ": 9398, "Sen": 9399, "settlement ": 9400, "Carta de ": 9401, "international community ": 9402, "Árab": 9403, "Venez": 9404, "ner ": 9405, "aspec": 9406, "consult": 9407, "Assistance ": 9408, "noted the ": 9409, "rem": 9410, "cnic": 9411, "interest ": 9412, "experiment": 9413, "report": 9414, "procure": 9415, "support of the ": 9416, "Consultiv": 9417, "paragrap": 9418, "hacen ": 9419, "effici": 9420, "hold": 9421, "<bos>Para ": 9422, "education ": 9423, "<bos>St": 9424, "a los ": 9425, "udi": 9426, "focused ": 9427, ", we ": 9428, "ha sido ": 9429, "sembl": 9430, "adamente ": 9431, "9.<eos>": 9432, "ed.<eos>": 9433, "Service ": 9434, "equival": 9435, "ament": 9436, "sor ": 9437, "velar ": 9438, "fire": 9439, "<bos>While the ": 9440, "bel": 9441, "21 ": 9442, "a con": 9443, "generales ": 9444, "urs": 9445, "communic": 9446, "every": 9447, "programmes and ": 9448, "sible ": 9449, "Cru": 9450, "legislación ": 9451, "obst": 9452, "children.<eos>": 9453, "det": 9454, "futu": 9455, " and ": 9456, "es la ": 9457, "pes": 9458, "applicable ": 9459, "n": 9460, "Global ": 9461, "espec": 9462, "desarrol": 9463, "fue ": 9464, "ímen": 9465, "es of the ": 9466, "climate ": 9467, "e.g. ": 9468, "specific": 9469, "area.<eos>": 9470, "s have ": 9471, "o que se ": 9472, "tw": 9473, "vist": 9474, "Banglades": 9475, "Luc": 9476, "major ": 9477, "istic ": 9478, "soci": 9479, "/2": 9480, "rian ": 9481, "a reci": 9482, "Ju": 9483, "initi": 9484, "to take ": 9485, "buen": 9486, "atiz": 9487, "llev": 9488, "ando su ": 9489, "afect": 9490, "course ": 9491, "demostr": 9492, "consul": 9493, "propone ": 9494, "ido el ": 9495, "ación de ": 9496, "because ": 9497, "casos de ": 9498, "s and ": 9499, "electr": 9500, "es with ": 9501, "hacer frente ": 9502, ".”<eos>": 9503, "efectos de la ": 9504, "freedom of ": 9505, "thor": 9506, "problemas ": 9507, "gender ": 9508, "Ms. ": 9509, "whic": 9510, "manten": 9511, "siti": 9512, "care": 9513, "ded.<eos>": 9514, "libertad de ": 9515, "Monteneg": 9516, "interim ": 9517, "way ": 9518, ";": 9519, "asses": 9520, "Z": 9521, "employ": 9522, "a la aten": 9523, "problems ": 9524, "entabl": 9525, "Director ": 9526, "lic": 9527, "girl": 9528, "pueblos indígen": 9529, "o, y ": 9530, "lan": 9531, "tecnolog": 9532, "venci": 9533, "to the United Nations ": 9534, "monit": 9535, "proveed": 9536, "abus": 9537, "2003.<eos>": 9538, "2006": 9539, "Plan ": 9540, "Executive ": 9541, "Hun": 9542, "toda ": 9543, "audi": 9544, "que en ": 9545, "Congres": 9546, "eñ": 9547, "relativ": 9548, "ation, the ": 9549, "Swed": 9550, "Méxic": 9551, "ply ": 9552, "ing on ": 9553, "entre": 9554, "Tha": 9555, "deci": 9556, "eb": 9557, "agrí": 9558, "able.<eos>": 9559, "derecho de ": 9560, "a por ": 9561, "IL": 9562, "ores, ": 9563, "edly ": 9564, "it was ": 9565, "en lo ": 9566, "economic ": 9567, "i ": 9568, "capit": 9569, "Engl": 9570, "eed": 9571, "subsequent ": 9572, "<bos>Anex": 9573, "ción<eos>": 9574, "vol. ": 9575, "antes, ": 9576, "hombres ": 9577, "simo ": 9578, "o, se ": 9579, "ante la ": 9580, "oc ": 9581, "tod": 9582, "year": 9583, "personnel ": 9584, "máxim": 9585, "0": 9586, "ist ": 9587, "training and ": 9588, "urr": 9589, "idades de ": 9590, "ta ": 9591, "Secretary-": 9592, "provided ": 9593, "ismo ": 9594, "ness ": 9595, "rel": 9596, "ty-": 9597, "ok ": 9598, "hood ": 9599, "`": 9600, " de septiembre de ": 9601, "titulado ": 9602, "1 y ": 9603, "Def": 9604, "prioritari": 9605, "ciones ": 9606, "ad.<eos>": 9607, "a new ": 9608, "terrorist ": 9609, "programas y ": 9610, "between ": 9611, "en este ": 9612, "held in ": 9613, "ventaj": 9614, "ada en la ": 9615, "ations, ": 9616, "empe": 9617, "<bos>Af": 9618, "custom": 9619, "pero ": 9620, "plazo ": 9621, "fundamental ": 9622, "UNI": 9623, "<bos>b) ": 9624, "erra ": 9625, "food ": 9626, "consultation with the ": 9627, "o de sus ": 9628, "Law ": 9629, "ign": 9630, "guid": 9631, "fec": 9632, "pér": 9633, "lo ": 9634, "7-": 9635, "Germany, ": 9636, "kill": 9637, "concert": 9638, "e, the ": 9639, "mant": 9640, "directric": 9641, "anterior": 9642, "en cuenta las ": 9643, "diferentes ": 9644, "Especi": 9645, "entes ": 9646, "f) ": 9647, "respald": 9648, "aving ": 9649, "exclu": 9650, "industrial ": 9651, "<bos>Report ": 9652, "note of the ": 9653, "gu": 9654, "Democratic Republic of the ": 9655, "8": 9656, "ítim": 9657, "h) ": 9658, "libertades ": 9659, "includ": 9660, "<bos>S": 9661, "account ": 9662, "discapacidad ": 9663, "as a result of ": 9664, "Ad Hoc ": 9665, "tribu": 9666, "versión ": 9667, "series of ": 9668, "them.<eos>": 9669, "Somali": 9670, "programa ": 9671, "Prosecu": 9672, "ge": 9673, "país": 9674, "os y los ": 9675, "partidos ": 9676, "process, ": 9677, "Ministr": 9678, "Tor": 9679, "fur": 9680, "participation of ": 9681, "mi ": 9682, "vote ": 9683, "consen": 9684, "whol": 9685, "no se ": 9686, "o (": 9687, "Conven": 9688, "62": 9689, "accordance with ": 9690, "reach": 9691, "<bos>En": 9692, "es to ": 9693, "of this ": 9694, "experiencia ": 9695, "rapid": 9696, "Member States ": 9697, "eron ": 9698, "und ": 9699, "adv": 9700, "pursuant to ": 9701, "fun": 9702, "United Kingdom": 9703, "unic": 9704, "continue ": 9705, "not only ": 9706, "lad": 9707, "casos ": 9708, "ports ": 9709, "we": 9710, "” (": 9711, "First ": 9712, "án": 9713, "appe": 9714, "hech": 9715, "duci": 9716, "alized ": 9717, "def": 9718, ",000 ": 9719, "Operaciones de Mantenimiento de la Paz": 9720, "port ": 9721, "cos": 9722, "peacekeep": 9723, "show": 9724, "destr": 9725, "sched": 9726, "adoptadas ": 9727, "este respect": 9728, "Desarrol": 9729, "appoint": 9730, "conex": 9731, "desarrollo de la ": 9732, "amount of ": 9733, "arlos ": 9734, "país, ": 9735, "adas en la ": 9736, "use of ": 9737, "raci": 9738, "high-level ": 9739, "ground ": 9740, "Technical ": 9741, "<bos>En las ": 9742, "fac": 9743, "responder ": 9744, "many ": 9745, "párrafo ": 9746, "urg": 9747, "proyecto de ": 9748, "financial resourc": 9749, "ig": 9750, "initiativ": 9751, "repar": 9752, "ur": 9753, "OF ": 9754, "ías de ": 9755, ".8": 9756, "Congo, ": 9757, "Office ": 9758, "out the ": 9759, "should be ": 9760, "mobiliz": 9761, "ades ": 9762, "national and ": 9763, "and": 9764, "ating ": 9765, "ographic ": 9766, "idos ": 9767, "with disabiliti": 9768, "Bei": 9769, "que la ": 9770, "Asamble": 9771, "fer": 9772, "volunt": 9773, "en los ": 9774, "called ": 9775, "which, ": 9776, "reform ": 9777, "., ": 9778, "Report ": 9779, "En": 9780, "públic": 9781, "ter ": 9782, "distribu": 9783, "negoci": 9784, "ekeep": 9785, "estion": 9786, "me of ": 9787, "early ": 9788, "ciplin": 9789, "mind ": 9790, "conf": 9791, "se celebr": 9792, "<bos>That ": 9793, "circumst": 9794, "support for the ": 9795, "ello ": 9796, "VIH/S": 9797, "ed the ": 9798, "devo": 9799, "reach ": 9800, "ties, ": 9801, "Ori": 9802, "role in ": 9803, "down ": 9804, "si": 9805, "member ": 9806, "aut": 9807, "<bos>El Sr. ": 9808, "Haiti": 9809, "profession": 9810, "neigh": 9811, "<bos>With regard ": 9812, "unto ": 9813, "dro": 9814, "march": 9815, "__": 9816, "person": 9817, "a report ": 9818, "amplia ": 9819, "a ha ": 9820, "for the period from 1 ": 9821, "óven": 9822, "1 del artículo ": 9823, "grandes ": 9824, "a y los ": 9825, "Ou": 9826, "P": 9827, "proyec": 9828, "displaced ": 9829, "ol": 9830, "cul": 9831, "agre": 9832, "encourag": 9833, "miembros del ": 9834, "global ": 9835, "ht": 9836, "ğ": 9837, "State party to ": 9838, "<bos>Res": 9839, "Iraq, ": 9840, "socio": 9841, "ocol": 9842, "re.<eos>": 9843, "/L": 9844, "where ": 9845, "luchar ": 9846, "refuge": 9847, "ESCO ": 9848, "en las ": 9849, "balance ": 9850, "Mac": 9851, "las Naciones Unidas en ": 9852, "ation; ": 9853, "Elimin": 9854, "61": 9855, "56/2": 9856, "chi": 9857, "billi": 9858, "medidas ": 9859, "ort": 9860, "D-": 9861, "sid": 9862, "attention to the ": 9863, "student": 9864, "/12": 9865, "autoridades ": 9866, "á, ": 9867, "rather than ": 9868, "European ": 9869, "2": 9870, "siones ": 9871, "Ethiop": 9872, "Ecu": 9873, "to del ": 9874, "Nai": 9875, "Conferencia de las ": 9876, "o para ": 9877, "as que ": 9878, "am": 9879, "meeting, on ": 9880, "por el ": 9881, "Union": 9882, "tivos ": 9883, "addi": 9884, "hal": 9885, "International ": 9886, "embol": 9887, "competi": 9888, "iliz": 9889, "él": 9890, "recomienda ": 9891, "e, and ": 9892, "overall ": 9893, "semin": 9894, "implementation of the ": 9895, "israel": 9896, "once ": 9897, "acced": 9898, "/Add.2": 9899, "del cuadro de servicios ": 9900, "las organizaciones ": 9901, "las Naciones Unidas.<eos>": 9902, "conference ": 9903, "abaj": 9904, "leyes ": 9905, "tratados ": 9906, "unt": 9907, "objec": 9908, "methodolog": 9909, "Permanent Representative ": 9910, "tas": 9911, "; y ": 9912, "war ": 9913, "Cor": 9914, "Forum ": 9915, "a men": 9916, "hop": 9917, "ô": 9918, "000 ": 9919, "ado ": 9920, "entidades ": 9921, "controversi": 9922, "Island": 9923, "5/Add": 9924, "sido ": 9925, "able de ": 9926, "<bos>Adem": 9927, "Dem": 9928, "sobre ": 9929, "Eslo": 9930, "on": 9931, "Suiz": 9932, "o, los ": 9933, "<bos>By ": 9934, "ª sesión, ": 9935, "Ejecutiv": 9936, "incluido el ": 9937, "cipl": 9938, "submitted to the ": 9939, "six": 9940, "ing in ": 9941, "assign": 9942, "RC": 9943, "sh": 9944, "exces": 9945, "pár": 9946, "mit ": 9947, "P-": 9948, "ar un ": 9949, "ê": 9950, "algun": 9951, "secu": 9952, "ade ": 9953, "a de los ": 9954, "recomiend": 9955, "res, ": 9956, "a, y ": 9957, "ER": 9958, "(C": 9959, "Tratado ": 9960, "V": 9961, "y se ": 9962, "os a ": 9963, "propor": 9964, "partici": 9965, "aster ": 9966, "como se ": 9967, "structure ": 9968, "contribute to ": 9969, "ly.<eos>": 9970, "statements ": 9971, "Mold": 9972, "s: ": 9973, "antly ": 9974, "relating to the ": 9975, "untos ": 9976, "leg": 9977, "ocu": 9978, " y la ": 9979, "ambi": 9980, "niz": 9981, "Belar": 9982, "pertinentes ": 9983, "<bos>Ob": 9984, "Dar": 9985, "ion ": 9986, "aciones.<eos>": 9987, "Č": 9988, "government ": 9989, "fer of ": 9990, "forma de ": 9991, "período de ses": 9992, "electrónic": 9993, "difíci": 9994, "Per": 9995, "<bos>No obstante, ": 9996, "normas ": 9997, "que se refiere ": 9998, "matrimoni": 9999, "ani": 10000, "Migr": 10001, "oc": 10002, "bec": 10003, "summary ": 10004, "form": 10005, "papel ": 10006, "<bos>Record": 10007, "ader": 10008, "2008 ": 10009, "protect ": 10010, "términ": 10011, "sociedad": 10012, "used ": 10013, "suel": 10014, "practical ": 10015, "conduct ": 10016, "particular ": 10017, "ases": 10018, "assistance ": 10019, "Convención, ": 10020, "As": 10021, "a para ": 10022, "Tim": 10023, "ente de ": 10024, "o que ": 10025, "delegaciones ": 10026, "Geor": 10027, "adoles": 10028, "ffic": 10029, "available to ": 10030, "las Naciones Unidas ": 10031, "ative and ": 10032, "produci": 10033, "<bos>F": 10034, "United Nations Development ": 10035, "component": 10036, "energ": 10037, "sci": 10038, "acuerdo de ": 10039, "Serv": 10040, "ando el ": 10041, "9": 10042, "ame": 10043, "brind": 10044, "acqui": 10045, "Force ": 10046, "plom": 10047, "report of the ": 10048, "lo que ": 10049, "migration ": 10050, "being ": 10051, "Nepal, ": 10052, "ómic": 10053, "2000, the ": 10054, "demográfic": 10055, "odi": 10056, "circul": 10057, "agencies, ": 10058, "import": 10059, "varios ": 10060, "ng the ": 10061, "Council": 10062, "titul": 10063, "resolutions ": 10064, "muerte ": 10065, "positiv": 10066, "DE": 10067, "seven": 10068, "parlament": 10069, "region": 10070, "es to the ": 10071, "S/AC.26/": 10072, "reflej": 10073, "impac": 10074, "treatment ": 10075, "cure": 10076, "seguimient": 10077, "de": 10078, "dad ": 10079, "humanitari": 10080, "<bos>En su ": 10081, "year, ": 10082, "omb": 10083, "high ": 10084, "dólares": 10085, "illicit ": 10086, "air": 10087, "en march": 10088, "General Assembl": 10089, "asegurar la ": 10090, "progress in ": 10091, "comerci": 10092, "incorpor": 10093, "no ha ": 10094, "ET": 10095, "ite ": 10096, "capacitación ": 10097, "defens": 10098, "autor": 10099, "etr": 10100, "pti": 10101, "las Naciones Unidas": 10102, "a) (": 10103, "through its ": 10104, "contribu": 10105, "event": 10106, "draw": 10107, "chap": 10108, "Protection of ": 10109, "Sm": 10110, "zbe": 10111, "Sri L": 10112, "e in ": 10113, "asimismo ": 10114, "underl": 10115, "s have been ": 10116, "a fam": 10117, "an to ": 10118, "con el fin de ": 10119, " de marz": 10120, "de las Naciones Unidas ": 10121, "0 ": 10122, "ing.<eos>": 10123, "Guat": 10124, "18, ": 10125, "sam": 10126, "as en ": 10127, "great": 10128, "mej": 10129, "te": 10130, "applic": 10131, "dicha ": 10132, "arta de fecha ": 10133, "ning": 10134, "Instituto de ": 10135, "pide ": 10136, "desempeñ": 10137, "limin": 10138, "insta ": 10139, "mit": 10140, "respect for ": 10141, "staff": 10142, "ofrec": 10143, "vul": 10144, "<bos>Of ": 10145}